{
  "version": "1.0",
  "truncation": null,
  "padding": null,
  "added_tokens": [
    {
      "id": 0,
      "content": "<|pad|>",
      "single_word": false,
      "lstrip": false,
      "rstrip": false,
      "normalized": false,
      "special": true
    },
    {
      "id": 1,
      "content": "<|endoftext|>",
      "single_word": false,
      "lstrip": false,
      "rstrip": false,
      "normalized": false,
      "special": true
    },
    {
      "id": 2,
      "content": "<|unk|>",
      "single_word": false,
      "lstrip": false,
      "rstrip": false,
      "normalized": false,
      "special": true
    }
  ],
  "normalizer": null,
  "pre_tokenizer": {
    "type": "ByteLevel",
    "add_prefix_space": false,
    "trim_offsets": true,
    "use_regex": true
  },
  "post_processor": null,
  "decoder": {
    "type": "ByteLevel",
    "add_prefix_space": true,
    "trim_offsets": true,
    "use_regex": true
  },
  "model": {
    "type": "BPE",
    "dropout": null,
    "unk_token": null,
    "continuing_subword_prefix": null,
    "end_of_word_suffix": null,
    "fuse_unk": false,
    "byte_fallback": false,
    "ignore_merges": false,
    "vocab": {
      "<|pad|>": 0,
      "<|endoftext|>": 1,
      "<|unk|>": 2,
      "!": 3,
      "\"": 4,
      "#": 5,
      "$": 6,
      "%": 7,
      "&": 8,
      "'": 9,
      "(": 10,
      ")": 11,
      "*": 12,
      "+": 13,
      ",": 14,
      "-": 15,
      ".": 16,
      "/": 17,
      "0": 18,
      "1": 19,
      "2": 20,
      "3": 21,
      "4": 22,
      "5": 23,
      "6": 24,
      "7": 25,
      "8": 26,
      "9": 27,
      ":": 28,
      ";": 29,
      "<": 30,
      "=": 31,
      ">": 32,
      "?": 33,
      "@": 34,
      "A": 35,
      "B": 36,
      "C": 37,
      "D": 38,
      "E": 39,
      "F": 40,
      "G": 41,
      "H": 42,
      "I": 43,
      "J": 44,
      "K": 45,
      "L": 46,
      "M": 47,
      "N": 48,
      "O": 49,
      "P": 50,
      "Q": 51,
      "R": 52,
      "S": 53,
      "T": 54,
      "U": 55,
      "V": 56,
      "W": 57,
      "X": 58,
      "Y": 59,
      "Z": 60,
      "[": 61,
      "\\": 62,
      "]": 63,
      "^": 64,
      "_": 65,
      "`": 66,
      "a": 67,
      "b": 68,
      "c": 69,
      "d": 70,
      "e": 71,
      "f": 72,
      "g": 73,
      "h": 74,
      "i": 75,
      "j": 76,
      "k": 77,
      "l": 78,
      "m": 79,
      "n": 80,
      "o": 81,
      "p": 82,
      "q": 83,
      "r": 84,
      "s": 85,
      "t": 86,
      "u": 87,
      "v": 88,
      "w": 89,
      "x": 90,
      "y": 91,
      "z": 92,
      "{": 93,
      "|": 94,
      "}": 95,
      "~": 96,
      "¡": 97,
      "¢": 98,
      "£": 99,
      "¤": 100,
      "¥": 101,
      "¦": 102,
      "§": 103,
      "¨": 104,
      "©": 105,
      "ª": 106,
      "«": 107,
      "¬": 108,
      "®": 109,
      "¯": 110,
      "°": 111,
      "±": 112,
      "²": 113,
      "³": 114,
      "´": 115,
      "µ": 116,
      "¶": 117,
      "·": 118,
      "¸": 119,
      "¹": 120,
      "º": 121,
      "»": 122,
      "¼": 123,
      "½": 124,
      "¾": 125,
      "¿": 126,
      "À": 127,
      "Á": 128,
      "Â": 129,
      "Ã": 130,
      "Ä": 131,
      "Å": 132,
      "Æ": 133,
      "Ç": 134,
      "È": 135,
      "É": 136,
      "Ê": 137,
      "Ë": 138,
      "Ì": 139,
      "Í": 140,
      "Î": 141,
      "Ï": 142,
      "Ð": 143,
      "Ñ": 144,
      "Ò": 145,
      "Ó": 146,
      "Ô": 147,
      "Õ": 148,
      "Ö": 149,
      "×": 150,
      "Ø": 151,
      "Ù": 152,
      "Ú": 153,
      "Û": 154,
      "Ü": 155,
      "Ý": 156,
      "Þ": 157,
      "ß": 158,
      "à": 159,
      "á": 160,
      "â": 161,
      "ã": 162,
      "ä": 163,
      "å": 164,
      "æ": 165,
      "ç": 166,
      "è": 167,
      "é": 168,
      "ê": 169,
      "ë": 170,
      "ì": 171,
      "í": 172,
      "î": 173,
      "ï": 174,
      "ð": 175,
      "ñ": 176,
      "ò": 177,
      "ó": 178,
      "ô": 179,
      "õ": 180,
      "ö": 181,
      "÷": 182,
      "ø": 183,
      "ù": 184,
      "ú": 185,
      "û": 186,
      "ü": 187,
      "ý": 188,
      "þ": 189,
      "ÿ": 190,
      "Ā": 191,
      "ā": 192,
      "Ă": 193,
      "ă": 194,
      "Ą": 195,
      "ą": 196,
      "Ć": 197,
      "ć": 198,
      "Ĉ": 199,
      "ĉ": 200,
      "Ċ": 201,
      "ċ": 202,
      "Č": 203,
      "č": 204,
      "Ď": 205,
      "ď": 206,
      "Đ": 207,
      "đ": 208,
      "Ē": 209,
      "ē": 210,
      "Ĕ": 211,
      "ĕ": 212,
      "Ė": 213,
      "ė": 214,
      "Ę": 215,
      "ę": 216,
      "Ě": 217,
      "ě": 218,
      "Ĝ": 219,
      "ĝ": 220,
      "Ğ": 221,
      "ğ": 222,
      "Ġ": 223,
      "ġ": 224,
      "Ģ": 225,
      "ģ": 226,
      "Ĥ": 227,
      "ĥ": 228,
      "Ħ": 229,
      "ħ": 230,
      "Ĩ": 231,
      "ĩ": 232,
      "Ī": 233,
      "ī": 234,
      "Ĭ": 235,
      "ĭ": 236,
      "Į": 237,
      "į": 238,
      "İ": 239,
      "ı": 240,
      "Ĳ": 241,
      "ĳ": 242,
      "Ĵ": 243,
      "ĵ": 244,
      "Ķ": 245,
      "ķ": 246,
      "ĸ": 247,
      "Ĺ": 248,
      "ĺ": 249,
      "Ļ": 250,
      "ļ": 251,
      "Ľ": 252,
      "ľ": 253,
      "Ŀ": 254,
      "ŀ": 255,
      "Ł": 256,
      "ł": 257,
      "Ń": 258,
      "on": 259,
      "in": 260,
      "an": 261,
      "th": 262,
      "er": 263,
      "or": 264,
      "at": 265,
      "ar": 266,
      "al": 267,
      "ed": 268,
      "it": 269,
      "Ġth": 270,
      "es": 271,
      "and": 272,
      "ic": 273,
      "en": 274,
      "Ġs": 275,
      "Ġo": 276,
      "ro": 277,
      "Ġthe": 278,
      "as": 279,
      "ion": 280,
      "Ġand": 281,
      "is": 282,
      "Ġb": 283,
      "Ġm": 284,
      "re": 285,
      "Ġc": 286,
      "Ġt": 287,
      "Ġof": 288,
      "Ġin": 289,
      "ĠM": 290,
      "ly": 291,
      "ĠC": 292,
      "ĠS": 293,
      "ite": 294,
      "ol": 295,
      "un": 296,
      "Ġp": 297,
      "ĠG": 298,
      "Ġf": 299,
      "st": 300,
      "Ġ(": 301,
      "Ġd": 302,
      "orm": 303,
      "Ġa": 304,
      "et": 305,
      "ation": 306,
      "Ġto": 307,
      "ĠT": 308,
      "Ġw": 309,
      "il": 310,
      "ĠF": 311,
      "ĠB": 312,
      "ent": 313,
      "Ġ1": 314,
      "Ġl": 315,
      "ing": 316,
      "el": 317,
      "am": 318,
      "om": 319,
      "ou": 320,
      "one": 321,
      "ge": 322,
      "ĠP": 323,
      "ra": 324,
      "ith": 325,
      "ormation": 326,
      "ĠA": 327,
      "00": 328,
      "up": 329,
      "os": 330,
      "ran": 331,
      "Ġg": 332,
      "stone": 333,
      "he": 334,
      "le": 335,
      "ĠR": 336,
      "ĠFormation": 337,
      "ac": 338,
      "im": 339,
      "ter": 340,
      "ur": 341,
      "ver": 342,
      "Ġis": 343,
      "Ġun": 344,
      "ow": 345,
      "oc": 346,
      "ĠD": 347,
      ").": 348,
      "ĠL": 349,
      "ĠO": 350,
      "id": 351,
      "Ġar": 352,
      "Ġe": 353,
      "ig": 354,
      "ce": 355,
      "art": 356,
      "ph": 357,
      "Ġwith": 358,
      "ab": 359,
      "Ġn": 360,
      "ct": 361,
      "Ġal": 362,
      "Ġh": 363,
      "Ġby": 364,
      "ud": 365,
      "tr": 366,
      "ĠN": 367,
      "Ġcon": 368,
      "og": 369,
      "ate": 370,
      "Ġare": 371,
      "ĠW": 372,
      "iv": 373,
      "Ġ2": 374,
      "ĠI": 375,
      "roup": 376,
      "ĠMa": 377,
      "Ġre": 378,
      "la": 379,
      "ĠH": 380,
      "pe": 381,
      "qu": 382,
      "ĠE": 383,
      "est": 384,
      "ick": 385,
      "Ġma": 386,
      "ies": 387,
      "Ġas": 388,
      "andstone": 389,
      "em": 390,
      "ut": 391,
      "ree": 392,
      "ul": 393,
      "oun": 394,
      "pos": 395,
      "ot": 396,
      "ess": 397,
      "ir": 398,
      "ine": 399,
      "ĠThe": 400,
      "rom": 401,
      "um": 402,
      "Ġse": 403,
      "od": 404,
      "ous": 405,
      "ated": 406,
      "Ġde": 407,
      "ĠGroup": 408,
      "reek": 409,
      "ĠCreek": 410,
      "Ġunit": 411,
      "us": 412,
      "form": 413,
      "ber": 414,
      "Ġr": 415,
      "ill": 416,
      "con": 417,
      "ĠBas": 418,
      "ranite": 419,
      "ast": 420,
      "Ġfrom": 421,
      "orph": 422,
      "ĠU": 423,
      "19": 424,
      "ype": 425,
      "all": 426,
      "can": 427,
      "ist": 428,
      "Ġover": 429,
      "olcan": 430,
      "Ġ19": 431,
      "olog": 432,
      "ally": 433,
      "Ġthick": 434,
      "Ġon": 435,
      "ined": 436,
      "ction": 437,
      "olcanic": 438,
      "ong": 439,
      "Ġet": 440,
      "ub": 441,
      "ta": 442,
      "ther": 443,
      "ri": 444,
      "Ġage": 445,
      "rov": 446,
      "ck": 447,
      "ĠV": 448,
      "artz": 449,
      "Ġbe": 450,
      "Ġat": 451,
      "cl": 452,
      "posit": 453,
      "ĠGe": 454,
      "ĠIn": 455,
      "ember": 456,
      "Ġv": 457,
      "Ġbas": 458,
      "ad": 459,
      "ive": 460,
      "ĠBasin": 461,
      "ps": 462,
      "ably": 463,
      "ĠK": 464,
      "Ġex": 465,
      "Ġsou": 466,
      "pp": 467,
      "itic": 468,
      "ĠTh": 469,
      "ch": 470,
      "if": 471,
      "Ġro": 472,
      "Ġsection": 473,
      "Ġinter": 474,
      "Ġloc": 475,
      "ian": 476,
      "ity": 477,
      "Ġsh": 478,
      "se": 479,
      "ical": 480,
      "ale": 481,
      "ded": 482,
      "der": 483,
      "ĠSandstone": 484,
      "ell": 485,
      "ted": 486,
      "cc": 487,
      "ness": 488,
      "+/": 489,
      "+/-": 490,
      "quartz": 491,
      "ins": 492,
      "ich": 493,
      "ne": 494,
      "ĠMember": 495,
      "Ġsandstone": 496,
      "ince": 497,
      "50": 498,
      "Ġpart": 499,
      "rovince": 500,
      "Ġrock": 501,
      "Ġwh": 502,
      "etam": 503,
      "Ġ3": 504,
      "op": 505,
      "pr": 506,
      "etamorph": 507,
      "Ġor": 508,
      "ds": 509,
      "Ġarea": 510,
      "Ġcom": 511,
      "ilt": 512,
      "Ġquartz": 513,
      "Ġk": 514,
      "Ġan": 515,
      "igh": 516,
      "000": 517,
      "clud": 518,
      "av": 519,
      "ount": 520,
      "bed": 521,
      "ĠOf": 522,
      "Ġdeposit": 523,
      "formably": 524,
      "ore": 525,
      "orth": 526,
      "gra": 527,
      "ents": 528,
      "Ġmin": 529,
      "ry": 530,
      "ĠVolcanic": 531,
      "ers": 532,
      "heet": 533,
      "ence": 534,
      "ĠGranite": 535,
      "ost": 536,
      "ie": 537,
      "ations": 538,
      "Ġup": 539,
      "ere": 540,
      "ĠAge": 541,
      "ĠCon": 542,
      "lies": 543,
      "ple": 544,
      "de": 545,
      "ib": 546,
      "erate": 547,
      "ary": 548,
      "Ġbed": 549,
      "lain": 550,
      "ĠUn": 551,
      "Ġco": 552,
      "Ġz": 553,
      "ug": 554,
      "ant": 555,
      "iltstone": 556,
      "orite": 557,
      "),": 558,
      "Ġlocal": 559,
      "ame": 560,
      "oss": 561,
      "ound": 562,
      "vi": 563,
      "lom": 564,
      "ĠProvince": 565,
      "ia": 566,
      "cro": 567,
      "ĠCom": 568,
      "ke": 569,
      "Ġfor": 570,
      "Ġout": 571,
      "ological": 572,
      "Ġstr": 573,
      "ay": 574,
      "ĠMount": 575,
      "Ġrocks": 576,
      "ional": 577,
      "ĠDe": 578,
      "tern": 579,
      "Ġtype": 580,
      "rel": 581,
      "lac": 582,
      "Ġpro": 583,
      "Ġmar": 584,
      "ĠVolcanics": 585,
      "per": 586,
      "Ġ20": 587,
      "fer": 588,
      "Ġab": 589,
      "Ġch": 590,
      "Ġlow": 591,
      "Ġ4": 592,
      "Ġgre": 593,
      "Ġkm": 594,
      "Ġthis": 595,
      "ens": 596,
      "edim": 597,
      "ass": 598,
      "imest": 599,
      "iorite": 600,
      "20": 601,
      "ara": 602,
      "ites": 603,
      "ges": 604,
      "Ġ5": 605,
      "alt": 606,
      "ircon": 607,
      "lomerate": 608,
      "Ġnorth": 609,
      "esc": 610,
      "so": 611,
      "Ġ6": 612,
      "Ġ000": 613,
      "iot": 614,
      "Ġgra": 615,
      "Ġintr": 616,
      "Ġinclud": 617,
      "ology": 618,
      "Ġlocality": 619,
      "grained": 620,
      "own": 621,
      ".,": 622,
      "imestone": 623,
      "iver": 624,
      "able": 625,
      "pre": 626,
      "ange": 627,
      "ĠType": 628,
      "Ġgran": 629,
      "Ġsub": 630,
      "Ġzircon": 631,
      "arb": 632,
      "iss": 633,
      "ĠAl": 634,
      "hy": 635,
      "res": 636,
      "Pb": 637,
      "ons": 638,
      "xt": 639,
      "Ġcont": 640,
      "orrel": 641,
      "we": 642,
      "oo": 643,
      "ĠSh": 644,
      "ĠGeological": 645,
      "und": 646,
      "par": 647,
      "escri": 648,
      "uite": 649,
      "Ġsiltstone": 650,
      "iotite": 651,
      "ĠThick": 652,
      "hi": 653,
      "edi": 654,
      "eous": 655,
      "eral": 656,
      "Ġst": 657,
      "ign": 658,
      "rog": 659,
      "xim": 660,
      "lu": 661,
      "ure": 662,
      "ĠJ": 663,
      "Ġen": 664,
      "ĠSub": 665,
      "ĠCo": 666,
      "Ġsouth": 667,
      "Ġ7": 668,
      "last": 669,
      "ff": 670,
      "lying": 671,
      "ock": 672,
      "Ġit": 673,
      "Ġwhich": 674,
      "ryst": 675,
      "Ġdis": 676,
      "odiorite": 677,
      "etamorphic": 678,
      "ak": 679,
      "Ġsour": 680,
      "Ġthickness": 681,
      "thern": 682,
      "Ġdet": 683,
      "ĠRiver": 684,
      "Ġthat": 685,
      "conformably": 686,
      "Ġbound": 687,
      "son": 688,
      "ĠY": 689,
      "ĠThickness": 690,
      "rat": 691,
      "Ġminor": 692,
      "ĠHill": 693,
      "ov": 694,
      "ral": 695,
      "aw": 696,
      "Ġres": 697,
      "ationshi": 698,
      "ys": 699,
      "ĠQ": 700,
      "posed": 701,
      "olite": 702,
      "Ġunder": 703,
      "Ġoutcro": 704,
      "Ġbut": 705,
      "Ġfine": 706,
      "ag": 707,
      "Ġran": 708,
      "plex": 709,
      "100": 710,
      "Ġbeds": 711,
      "ĠSup": 712,
      "mat": 713,
      "Ġoverlain": 714,
      "row": 715,
      "Ġgranite": 716,
      "ĠRange": 717,
      "Ġsource": 718,
      "Ġvolcanic": 719,
      "ment": 720,
      "Ġform": 721,
      "ish": 722,
      "ones": 723,
      "ss": 724,
      "ear": 725,
      "amed": 726,
      "Ġ200": 727,
      "ithology": 728,
      "preted": 729,
      "elds": 730,
      "edium": 731,
      "Ġ-": 732,
      "ee": 733,
      "tains": 734,
      "iron": 735,
      "ĠQu": 736,
      "ts": 737,
      "Ġunits": 738,
      "ures": 739,
      "ole": 740,
      "red": 741,
      "Ġhas": 742,
      "ĠSt": 743,
      "ding": 744,
      "ater": 745,
      "Ġcong": 746,
      "Ġmag": 747,
      "10": 748,
      "Ġalso": 749,
      "out": 750,
      "arbon": 751,
      "neiss": 752,
      "yr": 753,
      "ĠOver": 754,
      "ton": 755,
      "rogen": 756,
      "ĠGran": 757,
      "Ġdescri": 758,
      "ession": 759,
      "Ġsedim": 760,
      "Ġ+/-": 761,
      "net": 762,
      "orn": 763,
      "len": 764,
      "ised": 765,
      "ĠOrogen": 766,
      "ang": 767,
      "ccur": 768,
      "Ġbeen": 769,
      "Ġmet": 770,
      "ord": 771,
      "Ġformation": 772,
      "erm": 773,
      "ween": 774,
      "ew": 775,
      "revi": 776,
      "ossil": 777,
      "oor": 778,
      "ial": 779,
      "raph": 780,
      "lat": 781,
      "Ġint": 782,
      "ust": 783,
      "ationships": 784,
      "ard": 785,
      "ory": 786,
      "Ġupper": 787,
      "etween": 788,
      "aries": 789,
      "por": 790,
      "Ġwas": 791,
      "aul": 792,
      "Ġoverlies": 793,
      "oz": 794,
      "Ġge": 795,
      "revious": 796,
      "Ġmedium": 797,
      "ave": 798,
      "yn": 799,
      "group": 800,
      "Ġass": 801,
      "ĠCh": 802,
      "ath": 803,
      "Ġbetween": 804,
      "ĠRe": 805,
      "ome": 806,
      "Ġdef": 807,
      "iated": 808,
      "omin": 809,
      "ular": 810,
      "fic": 811,
      "bb": 812,
      "Ġnot": 813,
      "ĠName": 814,
      "pl": 815,
      "isation": 816,
      "Ġy": 817,
      "Ġgrey": 818,
      "wo": 819,
      "hem": 820,
      "Ġdol": 821,
      "Ġequ": 822,
      "Ġfol": 823,
      "ozo": 824,
      "ism": 825,
      ");": 826,
      "ĠExt": 827,
      "ĠRel": 828,
      "Ġbiotite": 829,
      "ĠComplex": 830,
      "land": 831,
      "ival": 832,
      "amb": 833,
      "bedded": 834,
      "Ġmud": 835,
      "mon": 836,
      "gre": 837,
      "ĠAr": 838,
      "ĠLithology": 839,
      "Ġrange": 840,
      "ark": 841,
      "80": 842,
      "pt": 843,
      "ates": 844,
      "iel": 845,
      "ina": 846,
      "Ġboundaries": 847,
      "alc": 848,
      "Ġ13": 849,
      "act": 850,
      "Ġhigh": 851,
      "ozoic": 852,
      "arse": 853,
      "viron": 854,
      "Ġconglomerate": 855,
      "imb": 856,
      "Ġ199": 857,
      "Ġext": 858,
      "ide": 859,
      "Ġlith": 860,
      "ail": 861,
      "ain": 862,
      "Ġoccur": 863,
      "low": 864,
      "Ġenviron": 865,
      "ings": 866,
      "rit": 867,
      "ann": 868,
      "ĠRelationships": 869,
      "reviously": 870,
      "lay": 871,
      "ĠMetamorphic": 872,
      "ase": 873,
      "Ġreas": 874,
      "ĠExtent": 875,
      "arly": 876,
      "ley": 877,
      "250": 878,
      "ert": 879,
      "Ġlower": 880,
      "Ġinterpreted": 881,
      "east": 882,
      "li": 883,
      "ah": 884,
      "Ġhave": 885,
      "Ġreasons": 886,
      "Ġsand": 887,
      "ari": 888,
      "Ġcorrel": 889,
      "acies": 890,
      "ack": 891,
      "uct": 892,
      "ĠLimestone": 893,
      "197": 894,
      "pped": 895,
      "ĠUnit": 896,
      "ximum": 897,
      "ĠAn": 898,
      "ap": 899,
      "ĠSheet": 900,
      "196": 901,
      "erv": 902,
      "Ġpres": 903,
      "els": 904,
      "ose": 905,
      "Ġwithin": 906,
      "Ġpe": 907,
      "Ġshale": 908,
      "15": 909,
      "Ġcoarse": 910,
      "ung": 911,
      "Ġintrud": 912,
      "Ġwell": 913,
      "Ġrec": 914,
      "lastic": 915,
      "Ġpl": 916,
      "Ġcons": 917,
      "Ġmarine": 918,
      "Ġ&": 919,
      "quence": 920,
      "Ġother": 921,
      "oon": 922,
      "Ġbase": 923,
      "ugh": 924,
      "Ġsheet": 925,
      "ĠGR": 926,
      "Ġexposed": 927,
      "17": 928,
      "uff": 929,
      "elt": 930,
      "astern": 931,
      "gest": 932,
      "Ġdescribed": 933,
      "uc": 934,
      "Ġtop": 935,
      "amin": 936,
      "Ġenvironment": 937,
      "arra": 938,
      "ivalent": 939,
      "ĠQuartz": 940,
      "Ġinto": 941,
      "ene": 942,
      "tain": 943,
      "IM": 944,
      "Ġ197": 945,
      "Ma": 946,
      "Ġporph": 947,
      "30": 948,
      "chist": 949,
      "aceous": 950,
      "Ġthin": 951,
      "Ġ18": 952,
      "Ġabout": 953,
      "Ġ8": 954,
      "Ġ~": 955,
      "Ġcontact": 956,
      "estern": 957,
      "Ġreg": 958,
      "ically": 959,
      "Ġind": 960,
      "ĠSuite": 961,
      "entary": 962,
      "40": 963,
      "luvi": 964,
      "hyolite": 965,
      "Ġcryst": 966,
      "yritic": 967,
      "erite": 968,
      "Ġmetamorph": 969,
      "igraph": 970,
      "ochem": 971,
      "ight": 972,
      "ĠGranodiorite": 973,
      "orthern": 974,
      "Ġrefer": 975,
      "Ġdepositional": 976,
      "200": 977,
      "Ġmic": 978,
      "Ġcro": 979,
      "Ġwest": 980,
      "ilic": 981,
      "Ġintrus": 982,
      "Ġ196": 983,
      "ĠMax": 984,
      "Ġdat": 985,
      "eldspar": 986,
      "Ġmudstone": 987,
      "25": 988,
      "allow": 989,
      "ĠIntr": 990,
      "Ġbasalt": 991,
      "HR": 992,
      "west": 993,
      "our": 994,
      "Ġstrat": 995,
      "enite": 996,
      "18": 997,
      "Ġmineral": 998,
      "ĠZ": 999,
      "Ġfossil": 1000,
      "ron": 1001,
      "Ġcarbon": 1002,
      "Ġnear": 1003,
      "conform": 1004,
      "199": 1005,
      "Ġeast": 1006,
      "bably": 1007,
      "13": 1008,
      "IMP": 1009,
      "HRIMP": 1010,
      "Ġdeposits": 1011,
      "imil": 1012,
      "Ġwe": 1013,
      "Ġ17": 1014,
      "Ġname": 1015,
      "ĠDeposit": 1016,
      "16": 1017,
      "ĠSubgroup": 1018,
      "Ġdist": 1019,
      "ossib": 1020,
      "Ġcommon": 1021,
      "roter": 1022,
      "ments": 1023,
      "roterozoic": 1024,
      "Ġmapped": 1025,
      "rill": 1026,
      "Ġfacies": 1027,
      "erous": 1028,
      "ition": 1029,
      "Ġhist": 1030,
      "raton": 1031,
      "old": 1032,
      "ied": 1033,
      "Ġcalc": 1034,
      "Ġph": 1035,
      "stones": 1036,
      "fter": 1037,
      "Ġmember": 1038,
      "ead": 1039,
      "ener": 1040,
      "ĠInclud": 1041,
      "age": 1042,
      "Ġlimestone": 1043,
      "Ġred": 1044,
      "Ġthan": 1045,
      "Ġdetail": 1046,
      "olith": 1047,
      "Ġoutcrop": 1048,
      "ĠOr": 1049,
      "ĠMetamorphics": 1050,
      "are": 1051,
      "imilar": 1052,
      "ĠCraton": 1053,
      "Ġ198": 1054,
      "Ġver": 1055,
      "outh": 1056,
      "Ġages": 1057,
      "Ġdi": 1058,
      "ĠDol": 1059,
      "Ġlocally": 1060,
      "end": 1061,
      "Ġhistory": 1062,
      "ĠMc": 1063,
      "rough": 1064,
      "Ġ10": 1065,
      "ĠSupers": 1066,
      "lder": 1067,
      "ĠCar": 1068,
      "ively": 1069,
      "idd": 1070,
      "Ġ16": 1071,
      "ĠIs": 1072,
      "Ġev": 1073,
      "bro": 1074,
      "netic": 1075,
      "ĠThis": 1076,
      "12": 1077,
      "Ar": 1078,
      "lag": 1079,
      "vel": 1080,
      "ool": 1081,
      "ĠCong": 1082,
      "nown": 1083,
      "198": 1084,
      "ĠContains": 1085,
      "entral": 1086,
      "assive": 1087,
      "ills": 1088,
      "ided": 1089,
      "pression": 1090,
      "Ġ'": 1091,
      "istr": 1092,
      "rown": 1093,
      "uggest": 1094,
      "ind": 1095,
      "Ġsome": 1096,
      "ars": 1097,
      "mall": 1098,
      "ĠForm": 1099,
      "pon": 1100,
      "ogranite": 1101,
      "Ġequivalent": 1102,
      "Ġmay": 1103,
      "ample": 1104,
      "Ġalong": 1105,
      "ement": 1106,
      "lack": 1107,
      "onz": 1108,
      "Ġ15": 1109,
      "blen": 1110,
      "Ġindic": 1111,
      "Ġfaul": 1112,
      "ĠSHRIMP": 1113,
      "ĠFm": 1114,
      "Ġdisc": 1115,
      "oph": 1116,
      "Ġrel": 1117,
      "ornblen": 1118,
      "neous": 1119,
      "ood": 1120,
      "Ġsuggest": 1121,
      "ĠNo": 1122,
      "oug": 1123,
      "ach": 1124,
      "Ġapp": 1125,
      "ĠIntrud": 1126,
      "iz": 1127,
      "Ġsequence": 1128,
      "ĠConglomerate": 1129,
      "Ġunconformably": 1130,
      "ornblende": 1131,
      "ank": 1132,
      "arac": 1133,
      "idge": 1134,
      "Ġporphyritic": 1135,
      "ĠIncludes": 1136,
      "ue": 1137,
      "Ġoverlying": 1138,
      "60": 1139,
      "ĠCorrel": 1140,
      "Ġvari": 1141,
      "ala": 1142,
      "ese": 1143,
      "Ġam": 1144,
      "uss": 1145,
      "ified": 1146,
      "ĠRo": 1147,
      "luvial": 1148,
      "iddle": 1149,
      "pris": 1150,
      "elsic": 1151,
      "Ġdrill": 1152,
      "Ġmod": 1153,
      "igin": 1154,
      "Ġdefined": 1155,
      "val": 1156,
      "ace": 1157,
      "Ġsimilar": 1158,
      "ately": 1159,
      "pres": 1160,
      "Ġwhere": 1161,
      "Ġincluded": 1162,
      "urra": 1163,
      "ĠBasalt": 1164,
      "recc": 1165,
      "14": 1166,
      "kes": 1167,
      "Ġvery": 1168,
      "ink": 1169,
      "Ġafter": 1170,
      "aracter": 1171,
      "Ġgneiss": 1172,
      "int": 1173,
      "ĠTer": 1174,
      "Ġunderlying": 1175,
      "ĠSuper": 1176,
      "rich": 1177,
      "Ġsl": 1178,
      "Ġtuff": 1179,
      "ered": 1180,
      "te": 1181,
      "Ġcrystall": 1182,
      "Ġsu": 1183,
      "Ġconst": 1184,
      "Ġmap": 1185,
      "Ġmaximum": 1186,
      "ather": 1187,
      "Ġmain": 1188,
      "ioc": 1189,
      "igraphic": 1190,
      "ĠSupersuite": 1191,
      "ĠOrogeny": 1192,
      "ĠQuartzite": 1193,
      "ĠOverlies": 1194,
      "ield": 1195,
      "omorph": 1196,
      "eg": 1197,
      "Ġ9": 1198,
      "ĠNew": 1199,
      "ces": 1200,
      "grees": 1201,
      "na": 1202,
      "yp": 1203,
      "ĠWh": 1204,
      "Ġmost": 1205,
      "ĠInter": 1206,
      "osed": 1207,
      "Ġmafic": 1208,
      "Ġshallow": 1209,
      "oid": 1210,
      "Ġsilic": 1211,
      "Ġsmall": 1212,
      "Ġmaps": 1213,
      "Ġmore": 1214,
      "ĠIt": 1215,
      "ike": 1216,
      "ude": 1217,
      "ĠPreviously": 1218,
      "km": 1219,
      "Ġbased": 1220,
      "ption": 1221,
      "Ġprovince": 1222,
      "Ġdy": 1223,
      "pect": 1224,
      "Ġoutcrops": 1225,
      "arr": 1226,
      "ĠMin": 1227,
      "Ġchert": 1228,
      "ep": 1229,
      "omite": 1230,
      "ards": 1231,
      "70": 1232,
      "Ġpebb": 1233,
      "Ġte": 1234,
      "Ġlong": 1235,
      "istry": 1236,
      "ough": 1237,
      "Ġmassive": 1238,
      "Ġpossib": 1239,
      "ile": 1240,
      "ric": 1241,
      "sh": 1242,
      "Ġim": 1243,
      "ominant": 1244,
      "Ġcross": 1245,
      "Ġconformably": 1246,
      "enerally": 1247,
      "ict": 1248,
      "ived": 1249,
      "matic": 1250,
      "Ġpoor": 1251,
      "bas": 1252,
      "ĠSpr": 1253,
      "arn": 1254,
      "iferous": 1255,
      "ĠLow": 1256,
      "ĠShale": 1257,
      "Ġareas": 1258,
      "Ġle": 1259,
      "ĠEarly": 1260,
      "rital": 1261,
      "ld": 1262,
      "och": 1263,
      "pper": 1264,
      "Ġmarg": 1265,
      "Ġfelsic": 1266,
      "ochemistry": 1267,
      "olitic": 1268,
      "amp": 1269,
      "Ġprobably": 1270,
      "itude": 1271,
      "ĠBed": 1272,
      "Ġstruct": 1273,
      "Ġ\"": 1274,
      "Ġcharacter": 1275,
      "von": 1276,
      "arge": 1277,
      "ĠStr": 1278,
      "igned": 1279,
      "Ġsedimentary": 1280,
      "ve": 1281,
      "Ġconsist": 1282,
      "Ġra": 1283,
      "11": 1284,
      "awl": 1285,
      "rite": 1286,
      "Ġpresent": 1287,
      "hole": 1288,
      "Ġwere": 1289,
      "Ġmapsheet": 1290,
      "Ġtr": 1291,
      "ĠSiltstone": 1292,
      "Ġbasal": 1293,
      "Ġlat": 1294,
      "aminated": 1295,
      "ting": 1296,
      "Ġrare": 1297,
      "ger": 1298,
      "Ġad": 1299,
      "uring": 1300,
      "ull": 1301,
      "lase": 1302,
      "Ġder": 1303,
      "23": 1304,
      "ĠSe": 1305,
      "way": 1306,
      "named": 1307,
      "usc": 1308,
      "ophys": 1309,
      "ions": 1310,
      "Ġgranodiorite": 1311,
      "abbro": 1312,
      "ĠGre": 1313,
      "Ġdiscuss": 1314,
      "Ġsediments": 1315,
      "Ġmagnetic": 1316,
      "Ġus": 1317,
      "ance": 1318,
      "Ġits": 1319,
      "ilb": 1320,
      "ĠLate": 1321,
      "Ġknown": 1322,
      "ort": 1323,
      "Ġtwo": 1324,
      "ner": 1325,
      "ĠConformably": 1326,
      "Ġexpression": 1327,
      "roxim": 1328,
      "Ġrepres": 1329,
      "Ġintruded": 1330,
      "ative": 1331,
      "ending": 1332,
      "Ġinterbedded": 1333,
      "Ġ0": 1334,
      "Ġ14": 1335,
      "Ġclay": 1336,
      "ppe": 1337,
      "Ġduring": 1338,
      "Ġcontains": 1339,
      "ĠIg": 1340,
      "of": 1341,
      "Ġnorthern": 1342,
      "Ġflow": 1343,
      "type": 1344,
      "ef": 1345,
      "omorphic": 1346,
      "ll": 1347,
      "tered": 1348,
      "Ġbel": 1349,
      "cted": 1350,
      "ĠGeol": 1351,
      "Ġdiscussed": 1352,
      "eat": 1353,
      "ilbara": 1354,
      "Ġderived": 1355,
      "Ġschist": 1356,
      "man": 1357,
      "ĠCl": 1358,
      "ob": 1359,
      "lasts": 1360,
      "Ġsouthern": 1361,
      "ĠSouth": 1362,
      "pping": 1363,
      "mar": 1364,
      "imbrite": 1365,
      "59": 1366,
      "Ġprov": 1367,
      "Ġel": 1368,
      "ĠEx": 1369,
      "reccia": 1370,
      "ĠRock": 1371,
      "24": 1372,
      "any": 1373,
      "Ġsc": 1374,
      "ĠPro": 1375,
      "ĠAm": 1376,
      "inu": 1377,
      "oproterozoic": 1378,
      "phib": 1379,
      "Ġmetamorphic": 1380,
      "ociated": 1381,
      "Ġdykes": 1382,
      "Ġbedded": 1383,
      "lock": 1384,
      "yd": 1385,
      "ccession": 1386,
      "ĠZone": 1387,
      "Ġmoderate": 1388,
      "gr": 1389,
      "Ġhornblende": 1390,
      "Ġ[": 1391,
      "ĠRhyolite": 1392,
      "Ġpre": 1393,
      "lagioc": 1394,
      "ma": 1395,
      "ently": 1396,
      "ific": 1397,
      "owe": 1398,
      "face": 1399,
      "ĠPilbara": 1400,
      "uscov": 1401,
      "ĠUp": 1402,
      "Ġob": 1403,
      "lagioclase": 1404,
      "Ġeastern": 1405,
      "les": 1406,
      "ĠSee": 1407,
      "uscovite": 1408,
      "ip": 1409,
      "Ġcrystallisation": 1410,
      "Ġcl": 1411,
      "urb": 1412,
      "ĠUnconformably": 1413,
      "90": 1414,
      "path": 1415,
      "ĠSprings": 1416,
      "26": 1417,
      "eas": 1418,
      "ĠOverlain": 1419,
      "ophysical": 1420,
      "err": 1421,
      "ĠWell": 1422,
      "Ġsuccession": 1423,
      "ambri": 1424,
      "SW": 1425,
      "onal": 1426,
      "ĠCoal": 1427,
      "iffer": 1428,
      "Ġgreen": 1429,
      "ĠBeds": 1430,
      "umb": 1431,
      "Ġfeat": 1432,
      "ĠGeomorphic": 1433,
      "ambrian": 1434,
      "53": 1435,
      "Ġtra": 1436,
      "Ġgiv": 1437,
      "Ġcarbonate": 1438,
      "roximately": 1439,
      "ana": 1440,
      "Ġlithic": 1441,
      "Ġpreviously": 1442,
      "yro": 1443,
      "Ġunconform": 1444,
      "Ġreference": 1445,
      "Ġwestern": 1446,
      "Ġanal": 1447,
      "eldspath": 1448,
      "oth": 1449,
      "Ġyoun": 1450,
      "ok": 1451,
      "itu": 1452,
      "Mount": 1453,
      "Ġcontain": 1454,
      "bur": 1455,
      "Ġunnamed": 1456,
      "Ġsur": 1457,
      "basin": 1458,
      "oll": 1459,
      "inct": 1460,
      "Ġlarge": 1461,
      "Ġexpos": 1462,
      "Ġmargin": 1463,
      "di": 1464,
      "inent": 1465,
      "Ġinterval": 1466,
      "Ġmetamorphism": 1467,
      "Ġmetas": 1468,
      "ustral": 1469,
      "ĠGneiss": 1470,
      "Ġsign": 1471,
      "Ġdetrital": 1472,
      "eldspathic": 1473,
      "elf": 1474,
      "Ġfossils": 1475,
      "Ġforms": 1476,
      "Ġothers": 1477,
      "prises": 1478,
      "feldspar": 1479,
      "Ġgenerally": 1480,
      "Ġabund": 1481,
      "wards": 1482,
      "rans": 1483,
      "Ġquartzite": 1484,
      "vonian": 1485,
      "Ġdark": 1486,
      "ĠFaul": 1487,
      "Ġpoorly": 1488,
      "ook": 1489,
      "ident": 1490,
      "irst": 1491,
      "Ġ30": 1492,
      "55": 1493,
      "mp": 1494,
      "ON": 1495,
      "onzogranite": 1496,
      "94": 1497,
      "omain": 1498,
      "ĠAd": 1499,
      "degrees": 1500,
      "Ġgrained": 1501,
      "ĠMet": 1502,
      "ford": 1503,
      "ors": 1504,
      "ĠCro": 1505,
      "Ġsilt": 1506,
      "Ġarenite": 1507,
      "ĠAlso": 1508,
      "osts": 1509,
      "Ġstratigraphic": 1510,
      "Ġplac": 1511,
      "Ġmetamorphosed": 1512,
      "Ġregion": 1513,
      "28": 1514,
      "ake": 1515,
      "ĠDomain": 1516,
      "ielded": 1517,
      "Ġlate": 1518,
      "ĠEv": 1519,
      "Ġoccurs": 1520,
      "ean": 1521,
      "Ġag": 1522,
      "Ġlaminated": 1523,
      "omest": 1524,
      "Ġcalcar": 1525,
      "omestead": 1526,
      "Ġinclude": 1527,
      "erved": 1528,
      "ĠMar": 1529,
      "Ġweather": 1530,
      "iation": 1531,
      "Ġanalys": 1532,
      "Ġve": 1533,
      "Ġclasts": 1534,
      "ominated": 1535,
      "ove": 1536,
      "Ġonly": 1537,
      "ĠMetamorph": 1538,
      "lier": 1539,
      "ominantly": 1540,
      "urr": 1541,
      "emb": 1542,
      "35": 1543,
      "ĠAustral": 1544,
      "UN": 1545,
      "ĠNamed": 1546,
      "ograph": 1547,
      "org": 1548,
      "Ġbod": 1549,
      "ferred": 1550,
      "velop": 1551,
      "ifferent": 1552,
      "Ġyielded": 1553,
      "Ġbasin": 1554,
      "Ġer": 1555,
      "Ġthese": 1556,
      "Ġvolcaniclastic": 1557,
      "ished": 1558,
      "Ġca": 1559,
      "Ġcentral": 1560,
      "Ġplut": 1561,
      "Ġdeposition": 1562,
      "Ġmagmatic": 1563,
      "Ġextens": 1564,
      "ĠDepositional": 1565,
      "owever": 1566,
      "mN": 1567,
      "Ġtext": 1568,
      "Ġtyp": 1569,
      "Ġall": 1570,
      "Ġrepresent": 1571,
      "Ġfeatures": 1572,
      "ker": 1573,
      "thur": 1574,
      "Ġmineralisation": 1575,
      "alae": 1576,
      "29": 1577,
      "Ġlav": 1578,
      "rane": 1579,
      "acite": 1580,
      "Ġamphib": 1581,
      "ĠSand": 1582,
      "Ġfluvial": 1583,
      "ĠBro": 1584,
      "biotite": 1585,
      "Ġund": 1586,
      "ingu": 1587,
      "Ġgiven": 1588,
      "mE": 1589,
      "ĠDevonian": 1590,
      "ĠIntruded": 1591,
      "arp": 1592,
      "oint": 1593,
      "ey": 1594,
      "Ġplagioclase": 1595,
      "ĠGra": 1596,
      "cline": 1597,
      "field": 1598,
      "ostone": 1599,
      "Ġinform": 1600,
      "una": 1601,
      "Ġboundary": 1602,
      "Ġabundant": 1603,
      "27": 1604,
      "DA": 1605,
      "erly": 1606,
      "cre": 1607,
      "ĠPart": 1608,
      "wood": 1609,
      "Ġshow": 1610,
      "Ġstrong": 1611,
      "itt": 1612,
      "igneous": 1613,
      "Ġincluding": 1614,
      "Ġser": 1615,
      "Ġfeldspar": 1616,
      "Ġdated": 1617,
      "iginally": 1618,
      "ics": 1619,
      "ĠOut": 1620,
      "56": 1621,
      "co": 1622,
      "ult": 1623,
      "ott": 1624,
      "Ġdistinct": 1625,
      "Ġless": 1626,
      "ivided": 1627,
      "ont": 1628,
      "ĠComments": 1629,
      "Ġthrough": 1630,
      "Ġparts": 1631,
      "Ġincludes": 1632,
      "formable": 1633,
      "Ġassigned": 1634,
      "Ġlay": 1635,
      "idal": 1636,
      "Ġrhyolite": 1637,
      "Ġconstra": 1638,
      "ochron": 1639,
      "Ġno": 1640,
      "ĠForms": 1641,
      "66": 1642,
      "ĠHills": 1643,
      "Ġcor": 1644,
      "ĠSil": 1645,
      "ama": 1646,
      "ĠHosts": 1647,
      "matite": 1648,
      "Ġnow": 1649,
      "marine": 1650,
      "Ġdeposited": 1651,
      "ppears": 1652,
      "ating": 1653,
      "Ġsy": 1654,
      "ĠCambrian": 1655,
      "ĠMaximum": 1656,
      "onalite": 1657,
      "ĠFault": 1658,
      "57": 1659,
      "enn": 1660,
      "ences": 1661,
      "Ġband": 1662,
      "Ġdescription": 1663,
      "round": 1664,
      "rysts": 1665,
      "Ġj": 1666,
      "ork": 1667,
      "Ġfra": 1668,
      "Ġcommonly": 1669,
      "ĠCorrelations": 1670,
      "Ġpossibly": 1671,
      "gy": 1672,
      "rid": 1673,
      "ogn": 1674,
      "22": 1675,
      "ampl": 1676,
      "Ġconsid": 1677,
      "ĠBore": 1678,
      "ĠSample": 1679,
      "Ġpink": 1680,
      "Ġsandstones": 1681,
      "Ġolder": 1682,
      "Ġbreccia": 1683,
      "Ġsepar": 1684,
      "formed": 1685,
      "ĠUnder": 1686,
      "ibut": 1687,
      "Ġrhy": 1688,
      "Ġadj": 1689,
      "ras": 1690,
      "Ġleuc": 1691,
      "mith": 1692,
      "ĠMiddle": 1693,
      "veral": 1694,
      "ade": 1695,
      "Ġunderlies": 1696,
      "Ġign": 1697,
      "etro": 1698,
      "Ġnamed": 1699,
      "Ġcomposit": 1700,
      "Ġgranites": 1701,
      "ides": 1702,
      "ĠWill": 1703,
      "Ġcoal": 1704,
      "Ġassociated": 1705,
      "Ġ+": 1706,
      "uch": 1707,
      "Ġdata": 1708,
      "34": 1709,
      "Ġapproximately": 1710,
      "Ġstud": 1711,
      "ya": 1712,
      "Ġ50": 1713,
      "Ġlater": 1714,
      "port": 1715,
      "Ġigneous": 1716,
      "Ġtrans": 1717,
      "kal": 1718,
      "uck": 1719,
      "Ġest": 1720,
      "ans": 1721,
      "ĠBelt": 1722,
      "Ġvolcanics": 1723,
      "OUN": 1724,
      "Ġgroup": 1725,
      "Ġmainly": 1726,
      "Ġbelow": 1727,
      "acent": 1728,
      "teration": 1729,
      "ĠLower": 1730,
      "rust": 1731,
      "oulder": 1732,
      "ported": 1733,
      "Ġx": 1734,
      "Ġdue": 1735,
      "ĠLe": 1736,
      "Ġwhite": 1737,
      "Ġzircons": 1738,
      "Ġintrusive": 1739,
      "Ġfa": 1740,
      "romat": 1741,
      "54": 1742,
      "ire": 1743,
      "ena": 1744,
      "Ġacc": 1745,
      "ĠId": 1746,
      "OUNT": 1747,
      "Ġthere": 1748,
      "enoc": 1749,
      "58": 1750,
      "ities": 1751,
      "ĠOutcro": 1752,
      "ams": 1753,
      "Ġcharacterist": 1754,
      "inn": 1755,
      "Ġbelt": 1756,
      "Ġearly": 1757,
      "jor": 1758,
      "ĠRed": 1759,
      "Ġcalcareous": 1760,
      "Ġpale": 1761,
      "ett": 1762,
      "lie": 1763,
      "Ġdetailed": 1764,
      "Ġbra": 1765,
      "urn": 1766,
      "ĠWil": 1767,
      "ermian": 1768,
      "ĠMOUNT": 1769,
      "Ġ100": 1770,
      "urbid": 1771,
      "ature": 1772,
      "Ġsp": 1773,
      "Ġadjacent": 1774,
      "Arthur": 1775,
      "Ġobs": 1776,
      "ona": 1777,
      "edimentary": 1778,
      "ĠStruct": 1779,
      "owns": 1780,
      "Ġrecogn": 1781,
      "ĠTerrane": 1782,
      "Ġcol": 1783,
      "Ġdevelop": 1784,
      "Ġdolomite": 1785,
      "Ġdating": 1786,
      "Ġandes": 1787,
      "ĠSta": 1788,
      "essive": 1789,
      "ĠDeposited": 1790,
      "ĠOrd": 1791,
      "unded": 1792,
      "ĠNorthern": 1793,
      "ĠGeochemistry": 1794,
      "ĠPl": 1795,
      "otent": 1796,
      "gular": 1797,
      "Ġsup": 1798,
      "ĠPer": 1799,
      "38": 1800,
      "ice": 1801,
      "ranular": 1802,
      "rim": 1803,
      "ĠBlack": 1804,
      "omet": 1805,
      "ĠProv": 1806,
      "Ġhills": 1807,
      "unga": 1808,
      "ends": 1809,
      "ĠAt": 1810,
      "Ġformations": 1811,
      "inuous": 1812,
      "206": 1813,
      "tic": 1814,
      "Ġident": 1815,
      "ĠGeorg": 1816,
      "ĠMud": 1817,
      "Ġabove": 1818,
      "ervo": 1819,
      "ĠNe": 1820,
      "ĠEd": 1821,
      "most": 1822,
      "Ġlens": 1823,
      "Ġdeep": 1824,
      "embla": 1825,
      "ĠBay": 1826,
      "Ġ27": 1827,
      "ĠIgneous": 1828,
      "ĠGp": 1829,
      "cross": 1830,
      "ĠSupergroup": 1831,
      "Ġamphibolite": 1832,
      "ikely": 1833,
      "Ġisot": 1834,
      "Ġaround": 1835,
      "deg": 1836,
      "unn": 1837,
      "ĠUpper": 1838,
      "ĠInterpreted": 1839,
      "SWA": 1840,
      "atus": 1841,
      "Ġbrown": 1842,
      "Ġmicro": 1843,
      "ponse": 1844,
      "enocrysts": 1845,
      "ura": 1846,
      "ĠPar": 1847,
      "ods": 1848,
      "Ġresponse": 1849,
      "ga": 1850,
      "Ġmuscovite": 1851,
      "Ġcle": 1852,
      "ĠIntrudes": 1853,
      "ca": 1854,
      "awlings": 1855,
      "ix": 1856,
      "ĠCa": 1857,
      "ĠPermian": 1858,
      "yncline": 1859,
      "Ġboulder": 1860,
      "arnet": 1861,
      "Ġsample": 1862,
      "imum": 1863,
      "alley": 1864,
      "Ġnortheast": 1865,
      "ially": 1866,
      "lan": 1867,
      "Ġhe": 1868,
      "ician": 1869,
      "ĠCarbon": 1870,
      "ĠGlen": 1871,
      "ĠBlu": 1872,
      "igranular": 1873,
      "ĠDolerite": 1874,
      "Ġfaulted": 1875,
      "ĠPe": 1876,
      "ĠCons": 1877,
      "Ġfoliated": 1878,
      "Ġyounger": 1879,
      "Ġplaces": 1880,
      "Ġignimbrite": 1881,
      "olites": 1882,
      "beds": 1883,
      "ond": 1884,
      "ĠWy": 1885,
      "Ġdistingu": 1886,
      "ĠNorth": 1887,
      "ĠEn": 1888,
      "Ġnorthwest": 1889,
      "ovician": 1890,
      "anning": 1891,
      "Ġwide": 1892,
      "ĠProterozoic": 1893,
      "Ġrelat": 1894,
      "iff": 1895,
      "Ġconsists": 1896,
      "ĠMetamorphism": 1897,
      "Ġmat": 1898,
      "ope": 1899,
      "ĠFig": 1900,
      "ogen": 1901,
      "ĠBe": 1902,
      "Ġhomestead": 1903,
      "Ġ>": 1904,
      "anges": 1905,
      "earing": 1906,
      "Ġassembla": 1907,
      "ightly": 1908,
      "ĠMcArthur": 1909,
      "GR": 1910,
      "ify": 1911,
      "ĠHigh": 1912,
      "bearing": 1913,
      "ĠFossil": 1914,
      "ĠLoc": 1915,
      "21": 1916,
      "Ġflows": 1917,
      "ĠIdent": 1918,
      "inous": 1919,
      "Ġleast": 1920,
      "Ġbasement": 1921,
      "Ġturbid": 1922,
      "ĠWal": 1923,
      "Ġsampl": 1924,
      "36": 1925,
      "ten": 1926,
      "use": 1927,
      "ĠHas": 1928,
      "Ġdolerite": 1929,
      "fined": 1930,
      "..": 1931,
      "37": 1932,
      "Ġsubd": 1933,
      "ĠWhite": 1934,
      "easures": 1935,
      "ĠDowns": 1936,
      "ĠConst": 1937,
      "Ġphenocrysts": 1938,
      "adeus": 1939,
      "au": 1940,
      "ery": 1941,
      "ella": 1942,
      "Ġ25": 1943,
      "Ġseveral": 1944,
      "Ġpluton": 1945,
      "47": 1946,
      "elta": 1947,
      "ĠWest": 1948,
      "Ġstromat": 1949,
      "ER": 1950,
      "cont": 1951,
      "Ġindicate": 1952,
      "Ġconsidered": 1953,
      "alla": 1954,
      "ĠCentral": 1955,
      "though": 1956,
      "Ġcore": 1957,
      "Ġacross": 1958,
      "ime": 1959,
      "idges": 1960,
      "als": 1961,
      "Ġfeldspathic": 1962,
      "ĠStructure": 1963,
      "dy": 1964,
      "Ġunconformity": 1965,
      "45": 1966,
      "com": 1967,
      "Ġlikely": 1968,
      "ural": 1969,
      "Ġnum": 1970,
      "ĠOriginally": 1971,
      "ward": 1972,
      "Ġmajor": 1973,
      "cton": 1974,
      "Ġcompon": 1975,
      "Ġused": 1976,
      "ty": 1977,
      "ĠPoint": 1978,
      "rominent": 1979,
      "Ġcomplex": 1980,
      "ustr": 1981,
      "48": 1982,
      "kins": 1983,
      "lin": 1984,
      "idence": 1985,
      "Ġridges": 1986,
      "Ġzone": 1987,
      "Ġmark": 1988,
      "Ġsouthwest": 1989,
      "Ġboth": 1990,
      "Ġstrongly": 1991,
      "39": 1992,
      "].": 1993,
      "oom": 1994,
      "Ġhere": 1995,
      "Ġcorrelated": 1996,
      "ĠAmadeus": 1997,
      "ĠOrdovician": 1998,
      "ĠOn": 1999,
      "ĠWe": 2000,
      "Ġdeformation": 2001,
      "oh": 2002,
      "water": 2003,
      "Ġgabbro": 2004,
      "urian": 2005,
      "yrox": 2006,
      "Ġiron": 2007,
      "icted": 2008,
      "ĠMeasures": 2009,
      "Ġfirst": 2010,
      "ĠComprises": 2011,
      "atch": 2012,
      "ĠApp": 2013,
      "Ġestim": 2014,
      "ifying": 2015,
      "orted": 2016,
      "icular": 2017,
      "ĠMt": 2018,
      "ĠFormerly": 2019,
      "Ġcontaining": 2020,
      "ves": 2021,
      "ĠGSWA": 2022,
      "oper": 2023,
      "otential": 2024,
      "den": 2025,
      "Ġper": 2026,
      "alls": 2027,
      "Ġreferred": 2028,
      "ĠDolomite": 2029,
      "Ġmoderately": 2030,
      "spect": 2031,
      "aters": 2032,
      "ĠBon": 2033,
      "ĠGeophysical": 2034,
      "ĠInlier": 2035,
      "Ġset": 2036,
      "Ġ40": 2037,
      "oliths": 2038,
      "Ġweathered": 2039,
      "AN": 2040,
      "ĠPalae": 2041,
      "ĠDescri": 2042,
      "Ġintrusion": 2043,
      "Ġradi": 2044,
      "rix": 2045,
      "mb": 2046,
      "wh": 2047,
      "Ġsills": 2048,
      "ĠTank": 2049,
      "tricted": 2050,
      "Ġ207": 2051,
      "Ġgranul": 2052,
      "46": 2053,
      "Ġequigranular": 2054,
      "Ġregional": 2055,
      "ĠIdentifying": 2056,
      "Ġinferred": 2057,
      "Ġ2008": 2058,
      "lor": 2059,
      "ĠSur": 2060,
      "Ġdeterm": 2061,
      "ificant": 2062,
      "Ġveins": 2063,
      "Ġstudy": 2064,
      "ĠCor": 2065,
      "grey": 2066,
      "Ġglac": 2067,
      "Ġnon": 2068,
      "ĠEast": 2069,
      "ote": 2070,
      "Ġweak": 2071,
      "Ġdrillhole": 2072,
      "Ġrecognised": 2073,
      "Sr": 2074,
      "ela": 2075,
      "ĠRanges": 2076,
      "ĠFormations": 2077,
      "Ġinformal": 2078,
      "illa": 2079,
      "Ġ26": 2080,
      "ĠGeorgina": 2081,
      "ĠAss": 2082,
      "ĠDis": 2083,
      "Ġconglom": 2084,
      "ret": 2085,
      "acke": 2086,
      "ĠLake": 2087,
      "dale": 2088,
      "orge": 2089,
      "Ġmean": 2090,
      "ille": 2091,
      "Ġinterse": 2092,
      "49": 2093,
      "oly": 2094,
      "redominantly": 2095,
      "Ġdolom": 2096,
      "att": 2097,
      "assic": 2098,
      "awler": 2099,
      "Ġmatrix": 2100,
      "oriz": 2101,
      "ĠSer": 2102,
      "conformable": 2103,
      "ĠSc": 2104,
      "shore": 2105,
      "Ġlenses": 2106,
      "unit": 2107,
      "ĠLong": 2108,
      "ev": 2109,
      "ĠBur": 2110,
      "pec": 2111,
      "ĠMoun": 2112,
      "Ġprominent": 2113,
      "ĠTop": 2114,
      "Ġlithology": 2115,
      "ĠAb": 2116,
      "Ġpeg": 2117,
      "Ġpebbly": 2118,
      "ĠGrey": 2119,
      "ĠBath": 2120,
      "ubl": 2121,
      "Ġpebble": 2122,
      "Ġsamples": 2123,
      "brown": 2124,
      "ĠBr": 2125,
      "Ġsoutheast": 2126,
      "cer": 2127,
      "oles": 2128,
      "Ġconstrained": 2129,
      "33": 2130,
      "Ġblack": 2131,
      "Ġstrike": 2132,
      "plet": 2133,
      "ken": 2134,
      "Ġgeochemistry": 2135,
      "Ġcarbonaceous": 2136,
      "arrow": 2137,
      "ĠGawler": 2138,
      "Ġfound": 2139,
      "'s": 2140,
      "Ġ2000": 2141,
      "Ġbedding": 2142,
      "Ġgeochron": 2143,
      "Ġslightly": 2144,
      "Ġexposures": 2145,
      "ustrine": 2146,
      "Ġgrains": 2147,
      "ifferentiated": 2148,
      "Ġlava": 2149,
      "raser": 2150,
      "ĠMudstone": 2151,
      "tribut": 2152,
      "Ġprovided": 2153,
      "Ġfauna": 2154,
      "Ġone": 2155,
      "Ġthree": 2156,
      "Ġdate": 2157,
      "Ġsections": 2158,
      "ĠMineral": 2159,
      "Ġcomposition": 2160,
      "medi": 2161,
      "ocene": 2162,
      "ostrat": 2163,
      "latform": 2164,
      "Ġdep": 2165,
      "Ġmicaceous": 2166,
      "ula": 2167,
      "ĠRes": 2168,
      "Ġep": 2169,
      "ĠEastern": 2170,
      "Ġsediment": 2171,
      "Ġlitholog": 2172,
      "75": 2173,
      "Ġgrid": 2174,
      "Ġquartzose": 2175,
      "grave": 2176,
      "Ġcharacteristics": 2177,
      "arri": 2178,
      "Ġzones": 2179,
      "ĠReg": 2180,
      "IC": 2181,
      "des": 2182,
      "ham": 2183,
      "ipp": 2184,
      "aly": 2185,
      "Ġpar": 2186,
      "Ġ12": 2187,
      "elly": 2188,
      "Ġcover": 2189,
      "Ġfrag": 2190,
      "Ġdeveloped": 2191,
      "Ġisotop": 2192,
      "ĠMes": 2193,
      "ĠDet": 2194,
      "ists": 2195,
      "Ġshown": 2196,
      "inga": 2197,
      "ĠWarr": 2198,
      "Ġ300": 2199,
      "efined": 2200,
      "iclastic": 2201,
      "Ġfl": 2202,
      "ĠTrough": 2203,
      "ĠBow": 2204,
      "inition": 2205,
      "ales": 2206,
      "Ġhoriz": 2207,
      "Ġclaystone": 2208,
      "ium": 2209,
      "western": 2210,
      "ighted": 2211,
      "ĠPark": 2212,
      "Ġaltered": 2213,
      "Ġorigin": 2214,
      "ediments": 2215,
      "ĠEvent": 2216,
      "eastern": 2217,
      "Ġmiddle": 2218,
      "Ġconc": 2219,
      "Ġreported": 2220,
      "ĠCarboniferous": 2221,
      "Ġcm": 2222,
      "ĠBlock": 2223,
      "ĠMay": 2224,
      "ĠRoad": 2225,
      "mplac": 2226,
      "yroxene": 2227,
      "ced": 2228,
      "Ġgeochem": 2229,
      "Ġmembers": 2230,
      "UM": 2231,
      "abas": 2232,
      "Ġlongitude": 2233,
      "br": 2234,
      "ully": 2235,
      "Ġsignificant": 2236,
      "Ġagain": 2237,
      "ĠSilurian": 2238,
      "ases": 2239,
      "Ġref": 2240,
      "ĠHowever": 2241,
      "ĠThese": 2242,
      "Ġeros": 2243,
      "ervoir": 2244,
      "Ġcan": 2245,
      "phy": 2246,
      "enschist": 2247,
      "MG": 2248,
      "ik": 2249,
      "ĠMain": 2250,
      "ĠQue": 2251,
      "Ġintrudes": 2252,
      "MS": 2253,
      "ĠLA": 2254,
      "Ġalthough": 2255,
      "ĠEl": 2256,
      "clast": 2257,
      "yl": 2258,
      "Ġdiam": 2259,
      "Ġevidence": 2260,
      "Ġpossible": 2261,
      "yry": 2262,
      "Ġsyn": 2263,
      "ison": 2264,
      "Ġpetro": 2265,
      "Ġgarnet": 2266,
      "Ġlocated": 2267,
      "rin": 2268,
      "Ġroad": 2269,
      "Ġidentified": 2270,
      "fore": 2271,
      "Ġcut": 2272,
      "ĠPossib": 2273,
      "ured": 2274,
      "Ġ24": 2275,
      "Ġdeformed": 2276,
      "Ġdolostone": 2277,
      "Ġcorrelation": 2278,
      "ĠProbably": 2279,
      "Ġdolomitic": 2280,
      "iop": 2281,
      "roy": 2282,
      "ĠLat": 2283,
      "ationship": 2284,
      "ĠRober": 2285,
      "era": 2286,
      "ould": 2287,
      "ĠOccur": 2288,
      "Ġconformable": 2289,
      "ĠValley": 2290,
      "weet": 2291,
      "abasalt": 2292,
      "ĠDR": 2293,
      "Ġpartly": 2294,
      "Ġorth": 2295,
      "Ġgranitic": 2296,
      "Ġsuggests": 2297,
      "OND": 2298,
      "Ġrhyolitic": 2299,
      "Ġmonzogranite": 2300,
      "ĠLith": 2301,
      "ĠNW": 2302,
      "Ġconod": 2303,
      "chiop": 2304,
      "ĠPet": 2305,
      "hyll": 2306,
      "rystall": 2307,
      "ĠIsa": 2308,
      "ydro": 2309,
      "cause": 2310,
      "mal": 2311,
      "UMM": 2312,
      "ka": 2313,
      "erg": 2314,
      "attered": 2315,
      "ational": 2316,
      "ilg": 2317,
      "urther": 2318,
      "Ġ29": 2319,
      "Ġprod": 2320,
      "Ġrelationships": 2321,
      "Ġbody": 2322,
      "ĠDRUMM": 2323,
      "ĠDRUMMOND": 2324,
      "air": 2325,
      "alg": 2326,
      "osit": 2327,
      "ichol": 2328,
      "ordin": 2329,
      "ĠOutcrops": 2330,
      "inna": 2331,
      "ĠMus": 2332,
      "ĠFlat": 2333,
      "ĠWestern": 2334,
      "Ġresul": 2335,
      "Ġgranulite": 2336,
      "gan": 2337,
      "acts": 2338,
      "Ġshelf": 2339,
      "errug": 2340,
      "Ġthroughout": 2341,
      "Ġfragments": 2342,
      "Ġagainst": 2343,
      "Ġoil": 2344,
      "quivalent": 2345,
      "52": 2346,
      "lorite": 2347,
      "sc": 2348,
      "ise": 2349,
      "hear": 2350,
      "ĠBasal": 2351,
      "pread": 2352,
      "Ġsetting": 2353,
      "RE": 2354,
      "ĠMur": 2355,
      "urt": 2356,
      "eneral": 2357,
      "ĠSl": 2358,
      "Ġval": 2359,
      "Ġinterbeds": 2360,
      "ensland": 2361,
      "Ġ500": 2362,
      "Ġgeophysical": 2363,
      "ĠBluff": 2364,
      "icholson": 2365,
      "31": 2366,
      "GS": 2367,
      "Ġpotential": 2368,
      "illi": 2369,
      "ĠAlb": 2370,
      "Ġdistinctive": 2371,
      "ĠDescription": 2372,
      "plac": 2373,
      "trama": 2374,
      "ĠHead": 2375,
      "ĠIsland": 2376,
      "by": 2377,
      "ily": 2378,
      "ox": 2379,
      "alyn": 2380,
      "Ġappears": 2381,
      "ĠBir": 2382,
      "ĠIgn": 2383,
      "Ġobserved": 2384,
      "ĠOccurs": 2385,
      "tramafic": 2386,
      "line": 2387,
      "Ġqu": 2388,
      "rogranite": 2389,
      "netite": 2390,
      "Ġrelatively": 2391,
      "Ġconglomer": 2392,
      "pent": 2393,
      "Ġ<": 2394,
      "Ġop": 2395,
      "eron": 2396,
      "Ġflat": 2397,
      "outhern": 2398,
      "cept": 2399,
      "Ġreservoir": 2400,
      "atches": 2401,
      "ĠPale": 2402,
      "Ġridge": 2403,
      "ference": 2404,
      "Ġrelated": 2405,
      "Ġbrachiop": 2406,
      "ĠSyncline": 2407,
      "ilob": 2408,
      "Ġline": 2409,
      "ituents": 2410,
      "Ġbodies": 2411,
      "ĠConsists": 2412,
      "kinson": 2413,
      "86": 2414,
      "ji": 2415,
      "Ġwater": 2416,
      "ĠNicholson": 2417,
      "Ġmostly": 2418,
      "ometric": 2419,
      "Ġsame": 2420,
      "Ġcurr": 2421,
      "Ġferrug": 2422,
      "Ġfoliation": 2423,
      "IN": 2424,
      "ville": 2425,
      "Ġside": 2426,
      "Ġsorted": 2427,
      "Ġprep": 2428,
      "Ġexposure": 2429,
      "ling": 2430,
      "ĠMonzogranite": 2431,
      "ĠAustralia": 2432,
      "trending": 2433,
      "Ġintrusions": 2434,
      "ĠQueensland": 2435,
      "Ġalteration": 2436,
      "Ġrestricted": 2437,
      "eep": 2438,
      "Ġsandy": 2439,
      "Ġrelationship": 2440,
      "Ġsilicified": 2441,
      "Ġweakly": 2442,
      "ĠSp": 2443,
      "ĠFrom": 2444,
      "ĠPh": 2445,
      "Ġvolcan": 2446,
      "ney": 2447,
      "Ġdisconformably": 2448,
      "ited": 2449,
      "rock": 2450,
      "stem": 2451,
      "Ġdia": 2452,
      "Ġdiorite": 2453,
      "ĠBen": 2454,
      "Ġrounded": 2455,
      "see": 2456,
      "Ġstructures": 2457,
      "ĠIgnimbrite": 2458,
      "Ġabs": 2459,
      "ĠAll": 2460,
      "Ġformed": 2461,
      "Ġpresence": 2462,
      "ctonic": 2463,
      "Th": 2464,
      "known": 2465,
      "north": 2466,
      "Ġcent": 2467,
      "ither": 2468,
      "urface": 2469,
      "Ġhighly": 2470,
      "ĠAustralian": 2471,
      "Ġextensive": 2472,
      "dition": 2473,
      "Ġblock": 2474,
      "acustrine": 2475,
      "ocrat": 2476,
      "ĠOl": 2477,
      "Ġemplac": 2478,
      "Ġminimum": 2479,
      "ĠMusgrave": 2480,
      "Ġtonalite": 2481,
      "Ġassemblage": 2482,
      "LL": 2483,
      "arc": 2484,
      "ĠMine": 2485,
      "illy": 2486,
      "Ġlog": 2487,
      "Ġbecause": 2488,
      "ĠShallow": 2489,
      "Ġfolded": 2490,
      "Ġfault": 2491,
      "oidal": 2492,
      "bury": 2493,
      "Ġpegmatite": 2494,
      "Ġisotopic": 2495,
      "78": 2496,
      "ileron": 2497,
      "surface": 2498,
      "Ġdegrees": 2499,
      "tained": 2500,
      "Ġprot": 2501,
      "idespread": 2502,
      "ĠMountain": 2503,
      "St": 2504,
      "south": 2505,
      "onn": 2506,
      "ĠWall": 2507,
      "rie": 2508,
      "Ġbeing": 2509,
      "sequ": 2510,
      "Ġ60": 2511,
      "ule": 2512,
      "itch": 2513,
      "ĠFossils": 2514,
      "cin": 2515,
      "worth": 2516,
      "enet": 2517,
      "acitic": 2518,
      "ĠDam": 2519,
      "Ġgrade": 2520,
      "anga": 2521,
      "ritory": 2522,
      "where": 2523,
      "ĠBatholith": 2524,
      "rind": 2525,
      "uart": 2526,
      "ĠCanning": 2527,
      "Ġhydro": 2528,
      "ogneiss": 2529,
      "Ġbasaltic": 2530,
      "ĠTerritory": 2531,
      "Ġanalysis": 2532,
      "certain": 2533,
      "Ġmig": 2534,
      "Ġphyll": 2535,
      "Ġ11": 2536,
      "ĠAileron": 2537,
      "Ġoverlie": 2538,
      "Ġangular": 2539,
      "Ġcleav": 2540,
      "44": 2541,
      "onts": 2542,
      "inity": 2543,
      "ream": 2544,
      "ĠWater": 2545,
      "Ġfollow": 2546,
      "Ġgeochemical": 2547,
      "Fraser": 2548,
      "more": 2549,
      "ĠSouthern": 2550,
      "ĠBar": 2551,
      "ĠHe": 2552,
      "bble": 2553,
      "fing": 2554,
      "over": 2555,
      "ĠMost": 2556,
      "ĠWood": 2557,
      "usive": 2558,
      "Ġsharp": 2559,
      "Ġcrops": 2560,
      "ĠClar": 2561,
      "Ġmetasedimentary": 2562,
      "onite": 2563,
      "Ġhowever": 2564,
      "Ġ28": 2565,
      "Ġrespect": 2566,
      "Ġfossiliferous": 2567,
      "Ġxen": 2568,
      "ositcin": 2569,
      "ĠGS": 2570,
      "amell": 2571,
      "leigh": 2572,
      "Ġripp": 2573,
      "ĠYilg": 2574,
      "Ġmetres": 2575,
      "68": 2576,
      "ĠSmith": 2577,
      "Ġpost": 2578,
      "Ġdes": 2579,
      "oul": 2580,
      "ĠMag": 2581,
      "ĠExpression": 2582,
      "Ġscattered": 2583,
      "ĠCan": 2584,
      "ĠGap": 2585,
      "Ġfin": 2586,
      "ĠPine": 2587,
      "Ġextends": 2588,
      "Ġnumerous": 2589,
      "ocratic": 2590,
      "Ġed": 2591,
      "edy": 2592,
      "ĠMac": 2593,
      "ĠRidge": 2594,
      "Ġcontacts": 2595,
      "Ġsurface": 2596,
      "Ġter": 2597,
      "ĠCont": 2598,
      "Ġcoast": 2599,
      "ĠYoun": 2600,
      "arian": 2601,
      "Ġspec": 2602,
      "Ġtowards": 2603,
      "ellow": 2604,
      "Ġ53": 2605,
      "Ġintervals": 2606,
      "ages": 2607,
      "ex": 2608,
      "oe": 2609,
      "atite": 2610,
      "Ġinf": 2611,
      "ĠTonalite": 2612,
      "Ġnew": 2613,
      "Ġgreenschist": 2614,
      "Ġoccurr": 2615,
      "ging": 2616,
      "wacke": 2617,
      "arm": 2618,
      "ĠGorge": 2619,
      "cond": 2620,
      "ĠCorrelated": 2621,
      "ĠSeries": 2622,
      "Rawlings": 2623,
      "oy": 2624,
      "iles": 2625,
      "Ġcomprises": 2626,
      "like": 2627,
      "Ġseries": 2628,
      "bable": 2629,
      "Ġthey": 2630,
      "omb": 2631,
      "Ġne": 2632,
      "ĠHam": 2633,
      "Ġstructural": 2634,
      "Ġshows": 2635,
      "ublished": 2636,
      "ĠYilgarn": 2637,
      "mag": 2638,
      "ĠBra": 2639,
      "Ġeither": 2640,
      "Ġrich": 2641,
      "Ġcompris": 2642,
      "Ġprospect": 2643,
      "ĠReference": 2644,
      "Ġevent": 2645,
      "ĠBroken": 2646,
      "burra": 2647,
      "âĢ": 2648,
      "ingle": 2649,
      "ĠRb": 2650,
      "Ġ22": 2651,
      "ĠShelf": 2652,
      "ĠDolostone": 2653,
      "Ġandesite": 2654,
      "ĠEng": 2655,
      "Ġradiometric": 2656,
      "79": 2657,
      "AR": 2658,
      "eval": 2659,
      "hornblende": 2660,
      "enber": 2661,
      "ĠGold": 2662,
      "Ġaff": 2663,
      "ĠAppears": 2664,
      "awn": 2665,
      "Ġdefinition": 2666,
      "ĠCrops": 2667,
      "amellite": 2668,
      "63": 2669,
      "silic": 2670,
      "anite": 2671,
      "rib": 2672,
      "Ġproposed": 2673,
      "Ġplan": 2674,
      "oids": 2675,
      "inental": 2676,
      "lith": 2677,
      "Ġcrust": 2678,
      "Ġproper": 2679,
      "continuous": 2680,
      "Ġcomponent": 2681,
      "ĠEngland": 2682,
      "cor": 2683,
      "tway": 2684,
      "atively": 2685,
      "Ġterm": 2686,
      "ĠCamp": 2687,
      "Ġpel": 2688,
      "Ġtrilob": 2689,
      "IT": 2690,
      "road": 2691,
      "Ġshales": 2692,
      "Ġstratigraph": 2693,
      "Ġsiliciclastic": 2694,
      "ituent": 2695,
      "):": 2696,
      "carbon": 2697,
      "ier": 2698,
      "ues": 2699,
      "ĠTri": 2700,
      "ĠEquivalent": 2701,
      "ersley": 2702,
      "Ġextending": 2703,
      "Ġtopograph": 2704,
      "ohn": 2705,
      "her": 2706,
      "yre": 2707,
      "aroo": 2708,
      "alk": 2709,
      "ĠTo": 2710,
      "ĠDi": 2711,
      "Ġhal": 2712,
      "ĠStuart": 2713,
      "layered": 2714,
      "achlan": 2715,
      "Ġlaterally": 2716,
      "gal": 2717,
      "arenite": 2718,
      "ĠSE": 2719,
      "Ġindicates": 2720,
      "Ġlatitude": 2721,
      "ĠGreen": 2722,
      "Ġbanded": 2723,
      "500": 2724,
      "itional": 2725,
      "ĠNE": 2726,
      "Ġdire": 2727,
      "Ġdistinguish": 2728,
      "32": 2729,
      "lo": 2730,
      "Ġocc": 2731,
      "Ġmine": 2732,
      "Ġmonz": 2733,
      "ĠSchist": 2734,
      "ĠFine": 2735,
      "Ġ150": 2736,
      "ĠLachlan": 2737,
      "illite": 2738,
      "Ġsubunit": 2739,
      "Ġend": 2740,
      "Ġpreserved": 2741,
      "ittle": 2742,
      "ICP": 2743,
      "oria": 2744,
      "ata": 2745,
      "Ġso": 2746,
      "Ġlithological": 2747,
      "dominated": 2748,
      "Ġ?": 2749,
      "Ġpack": 2750,
      "ĠPb": 2751,
      "ĠDel": 2752,
      "grade": 2753,
      "Ġlavas": 2754,
      "Ġundifferentiated": 2755,
      "now": 2756,
      "ering": 2757,
      "Ġdifferent": 2758,
      "ĠPoor": 2759,
      "Ġgold": 2760,
      "onga": 2761,
      "sewhere": 2762,
      "Ġintrude": 2763,
      "89": 2764,
      "province": 2765,
      "Ġfew": 2766,
      "eter": 2767,
      "ĠTas": 2768,
      "ĠFirst": 2769,
      "ĠThom": 2770,
      "ift": 2771,
      "Ġdistribut": 2772,
      "Ġ2006": 2773,
      "Ġrecor": 2774,
      "Ġcrystal": 2775,
      "ordinate": 2776,
      "EN": 2777,
      "holes": 2778,
      "Ġlim": 2779,
      "ules": 2780,
      "Ġsteep": 2781,
      "Ġsystem": 2782,
      "ĠUnderlies": 2783,
      "olym": 2784,
      "ble": 2785,
      "Ġol": 2786,
      "ĠMun": 2787,
      "amm": 2788,
      "ĠPre": 2789,
      "lect": 2790,
      "ĠNT": 2791,
      "Ġchlorite": 2792,
      "Ġfolding": 2793,
      "Ġhigher": 2794,
      "ĠPerth": 2795,
      "ĠCape": 2796,
      "Ġbrachiopods": 2797,
      "tidal": 2798,
      "rop": 2799,
      "Ġuncertain": 2800,
      "Ġthinly": 2801,
      "ĠCarson": 2802,
      "65": 2803,
      "well": 2804,
      "Ġport": 2805,
      "ĠGabbro": 2806,
      "Ġtot": 2807,
      "ĠVale": 2808,
      "Ġgrad": 2809,
      "parse": 2810,
      "Ġappar": 2811,
      "Ġaccess": 2812,
      "Ġrespectively": 2813,
      "ress": 2814,
      "win": 2815,
      "Ġsill": 2816,
      "ĠClay": 2817,
      "ĠTwo": 2818,
      "ĠOtway": 2819,
      "Ġminerals": 2820,
      "ification": 2821,
      "alb": 2822,
      "Ġold": 2823,
      "ĠDefined": 2824,
      "Ġanalyses": 2825,
      "ĠMineralisation": 2826,
      "Ġdepth": 2827,
      "Ġtheir": 2828,
      "ĠGeneral": 2829,
      "ĠBull": 2830,
      "ĠPorph": 2831,
      "ieb": 2832,
      "pret": 2833,
      "ĠShown": 2834,
      "Ġphase": 2835,
      "Ġsilty": 2836,
      "42": 2837,
      "ycl": 2838,
      "ĠFor": 2839,
      "ives": 2840,
      "allel": 2841,
      "aterial": 2842,
      "Ġvarious": 2843,
      "Ġtypically": 2844,
      "Ġmarked": 2845,
      "elaide": 2846,
      "Ġmaterial": 2847,
      "ĠMic": 2848,
      "Ġlacustrine": 2849,
      "aba": 2850,
      "posite": 2851,
      "ĠAlteration": 2852,
      "Ġlayers": 2853,
      "ĠConstituents": 2854,
      "ĠRoberts": 2855,
      "bor": 2856,
      "Ġact": 2857,
      "Ġsubordinate": 2858,
      "Ġenvironments": 2859,
      "Ġestimated": 2860,
      "ĠSlate": 2861,
      "ĠAlbany": 2862,
      "yg": 2863,
      "Ġgrav": 2864,
      "aster": 2865,
      "Ġmid": 2866,
      "olated": 2867,
      "Ġlight": 2868,
      "gee": 2869,
      "ĠDeep": 2870,
      "Ġ2002": 2871,
      "ĠRegion": 2872,
      "GA": 2873,
      "ect": 2874,
      "hed": 2875,
      "atic": 2876,
      "Ġsst": 2877,
      "ĠSweet": 2878,
      "ĠGully": 2879,
      "Ġfurther": 2880,
      "Ġground": 2881,
      "umm": 2882,
      "sequence": 2883,
      "ĠConformable": 2884,
      "ĠSuperbasin": 2885,
      "Ġconstituent": 2886,
      "Ġtrace": 2887,
      "Ġgeochronology": 2888,
      "Ġlithologies": 2889,
      "43": 2890,
      "85": 2891,
      "Ġincre": 2892,
      "ĠMon": 2893,
      "ĠBu": 2894,
      "Ġhost": 2895,
      "ĠWar": 2896,
      "ements": 2897,
      "ĠVict": 2898,
      "matism": 2899,
      "Ġmagnetite": 2900,
      "uced": 2901,
      "Ġredefined": 2902,
      "Ġvariably": 2903,
      "Ġcharacterised": 2904,
      "fossil": 2905,
      "Ġ80": 2906,
      "ora": 2907,
      "ĠCu": 2908,
      "ington": 2909,
      "urple": 2910,
      "ĠWith": 2911,
      "Ġrem": 2912,
      "empor": 2913,
      "Ġseparated": 2914,
      "Ġconodonts": 2915,
      "ĠTasman": 2916,
      "app": 2917,
      "alm": 2918,
      "Ġclastic": 2919,
      "ĠThere": 2920,
      "Ġmeta": 2921,
      "Ġsuggested": 2922,
      "Ġsiliceous": 2923,
      "ĠHamersley": 2924,
      "work": 2925,
      "Ġbroad": 2926,
      "Ġpredominantly": 2927,
      "ĠNot": 2928,
      "ĠMesoproterozoic": 2929,
      "\".": 2930,
      "Al": 2931,
      "GDA": 2932,
      "Ġmuch": 2933,
      "otograph": 2934,
      "Ġstructure": 2935,
      "ppear": 2936,
      "Ġclose": 2937,
      "ticline": 2938,
      "ected": 2939,
      "Ġthough": 2940,
      "Ġmeg": 2941,
      "ĠSome": 2942,
      "leum": 2943,
      "Ġdiscontinuous": 2944,
      "ĠStation": 2945,
      "ize": 2946,
      "Ġunconformable": 2947,
      "muscovite": 2948,
      "Ġappear": 2949,
      "ĠBul": 2950,
      "uminous": 2951,
      "add": 2952,
      "Ġcorrelative": 2953,
      "Ġtuffaceous": 2954,
      "Ġ1000": 2955,
      "Ġ250": 2956,
      "ode": 2957,
      "isted": 2958,
      "Ġ1998": 2959,
      "Ġrecessive": 2960,
      "scale": 2961,
      "lithic": 2962,
      "69": 2963,
      "77": 2964,
      "88": 2965,
      "GD": 2966,
      "top": 2967,
      "eng": 2968,
      "Ġshear": 2969,
      "unta": 2970,
      "ders": 2971,
      "Ġforming": 2972,
      "Ġcorrelates": 2973,
      "Ġvariable": 2974,
      "Ġtypes": 2975,
      "Ġdesign": 2976,
      "Ġtotal": 2977,
      "ĠSk": 2978,
      "Ġprim": 2979,
      "iew": 2980,
      "Ġintra": 2981,
      "ictite": 2982,
      "eltaic": 2983,
      "led": 2984,
      "erial": 2985,
      "ĠMile": 2986,
      "ĠGenerally": 2987,
      "Ġ23": 2988,
      "Ġlocation": 2989,
      "green": 2990,
      "1970": 2991,
      "Ġrecrystall": 2992,
      "ĠAdelaide": 2993,
      "Ġconcord": 2994,
      "che": 2995,
      "Ġmm": 2996,
      "ĠFold": 2997,
      "Ġformer": 2998,
      "eef": 2999,
      "Ġdatum": 3000,
      "Ġvein": 3001,
      "inc": 3002,
      "Ġmass": 3003,
      "ĠSw": 3004,
      "ĠSst": 3005,
      "imber": 3006,
      "Ġarc": 3007,
      "Ġalkal": 3008,
      "iffic": 3009,
      "Ġ400": 3010,
      "Ġmagmatism": 3011,
      "1967": 3012,
      "Ġphases": 3013,
      "olymict": 3014,
      "ifficult": 3015,
      "Ch": 3016,
      "ba": 3017,
      "Ġdacite": 3018,
      "ĠAu": 3019,
      "Ġmapping": 3020,
      "ultramafic": 3021,
      "odg": 3022,
      "Ġinterpret": 3023,
      "ĠSubprovince": 3024,
      "Ġranges": 3025,
      "anna": 3026,
      "Ġsiltstones": 3027,
      "Ġdistinguished": 3028,
      "Ġxenoliths": 3029,
      "ĠTriassic": 3030,
      "AT": 3031,
      "be": 3032,
      "wn": 3033,
      "Ġmany": 3034,
      "rain": 3035,
      "Ġunknown": 3036,
      "ush": 3037,
      "AL": 3038,
      "ual": 3039,
      "Ġbrecc": 3040,
      "Ġdominant": 3041,
      "ĠTom": 3042,
      "Ġconf": 3043,
      "ĠAlice": 3044,
      "Ġextent": 3045,
      "Ġweighted": 3046,
      "Ġsurround": 3047,
      "Ġleucogranite": 3048,
      "Ġferruginous": 3049,
      "Ġdesignated": 3050,
      "Mc": 3051,
      "kose": 3052,
      "ĠMedium": 3053,
      "Ġpos": 3054,
      "Ġfan": 3055,
      "Ġapl": 3056,
      "ĠTr": 3057,
      "rack": 3058,
      "ĠAMG": 3059,
      "ĠRawlings": 3060,
      "ĠHatches": 3061,
      "opyroxene": 3062,
      "Ġchann": 3063,
      "Ġsubsurface": 3064,
      "Ġ79": 3065,
      "2001": 3066,
      "Black": 3067,
      "Wh": 3068,
      "aqu": 3069,
      "go": 3070,
      "amer": 3071,
      "ump": 3072,
      "ĠYar": 3073,
      "ditions": 3074,
      "ĠVictoria": 3075,
      "Ġposition": 3076,
      "base": 3077,
      "Ġsingle": 3078,
      "rounded": 3079,
      "Ġincl": 3080,
      "ĠAGD": 3081,
      "ĠDr": 3082,
      "Ġranging": 3083,
      "olei": 3084,
      "yric": 3085,
      "Ġdipping": 3086,
      "plete": 3087,
      "Prov": 3088,
      "Smith": 3089,
      "cur": 3090,
      "ĠCalc": 3091,
      "Ġpalyn": 3092,
      "ĠHalls": 3093,
      "ĠEm": 3094,
      "Ġcompar": 3095,
      "Ġchange": 3096,
      "ĠJohn": 3097,
      "ĠWilli": 3098,
      "to": 3099,
      "lymp": 3100,
      "ĠGa": 3101,
      "ĠTar": 3102,
      "ĠTuff": 3103,
      "ĠRE": 3104,
      "Ġear": 3105,
      "irre": 3106,
      "Ġwhole": 3107,
      "ĠArch": 3108,
      "Ġbasalts": 3109,
      "ĠPeak": 3110,
      "aterson": 3111,
      "retaceous": 3112,
      "Ġintersected": 3113,
      "ĠPossibly": 3114,
      "Ġrecorded": 3115,
      "Ġsurrounding": 3116,
      "ually": 3117,
      "oned": 3118,
      "enance": 3119,
      "Ġoften": 3120,
      "Ġfield": 3121,
      "resh": 3122,
      "Ġweathering": 3123,
      "Ġleucocratic": 3124,
      "ior": 3125,
      "ĠMurra": 3126,
      "olerite": 3127,
      "Ġap": 3128,
      "omal": 3129,
      "Ġconditions": 3130,
      "Ġinterlayered": 3131,
      "Ġyellow": 3132,
      "Ġsheets": 3133,
      "Ġporphyry": 3134,
      "brook": 3135,
      "Ġinformally": 3136,
      "ĠAssociated": 3137,
      "Ġreflect": 3138,
      "74": 3139,
      "bour": 3140,
      "met": 3141,
      "inter": 3142,
      "Ġmelt": 3143,
      "ĠGranites": 3144,
      "arsh": 3145,
      "ĠCross": 3146,
      "crete": 3147,
      "Ġbands": 3148,
      "Ġcreek": 3149,
      "ĠMy": 3150,
      "udu": 3151,
      "ulla": 3152,
      "Ġcomm": 3153,
      "Ġgrain": 3154,
      "Ġ70": 3155,
      "mond": 3156,
      "1974": 3157,
      "Ġrepresents": 3158,
      "ĠPalaeoproterozoic": 3159,
      "Ġprotolith": 3160,
      "Ġsparse": 3161,
      "rief": 3162,
      "ifer": 3163,
      "Ġ1995": 3164,
      "ization": 3165,
      "Ġmargins": 3166,
      "Ġtransgr": 3167,
      "ĠStage": 3168,
      "ĠLocally": 3169,
      "Ġabsent": 3170,
      "fingers": 3171,
      "thick": 3172,
      "arry": 3173,
      "ility": 3174,
      "owie": 3175,
      "Ġrev": 3176,
      "aven": 3177,
      "Ġunderlain": 3178,
      "Ġelsewhere": 3179,
      "Ġseric": 3180,
      "Ġresults": 3181,
      "iary": 3182,
      "let": 3183,
      "Ġ=": 3184,
      "ĠMary": 3185,
      "ĠPetro": 3186,
      "ogy": 3187,
      "ouse": 3188,
      "Ġprobable": 3189,
      "matitic": 3190,
      "Ġ1999": 3191,
      "Ġimmedi": 3192,
      "ogenic": 3193,
      "silicate": 3194,
      "Car": 3195,
      "oot": 3196,
      "ym": 3197,
      "Ġdominated": 3198,
      "Ġwidespread": 3199,
      "ĠDacite": 3200,
      "ĠLand": 3201,
      "ĠIron": 3202,
      "Ġsecond": 3203,
      "1965": 3204,
      "Ġimp": 3205,
      "Ġboulders": 3206,
      "ostratigraphic": 3207,
      "ĠMainly": 3208,
      "Fig": 3209,
      "anm": 3210,
      "icinity": 3211,
      "ĠMul": 3212,
      "Ġdacitic": 3213,
      "Ġwork": 3214,
      "otype": 3215,
      "Ġmicrogranite": 3216,
      "Ġfaults": 3217,
      "Ġcolour": 3218,
      "Ġstromatolitic": 3219,
      "hedral": 3220,
      "300": 3221,
      "Ġthose": 3222,
      "Ġbi": 3223,
      "ention": 3224,
      "leys": 3225,
      "ĠHol": 3226,
      "Ġcontinental": 3227,
      "ĠChert": 3228,
      "ben": 3229,
      "formation": 3230,
      "gi": 3231,
      "zite": 3232,
      "ĠMel": 3233,
      "quences": 3234,
      "Ġ1982": 3235,
      "ĠOutcrop": 3236,
      "Ġphyllite": 3237,
      "ved": 3238,
      "Ġbasis": 3239,
      "Ġ2010": 3240,
      "aka": 3241,
      "yrite": 3242,
      "lands": 3243,
      "1963": 3244,
      "ĠNeoproterozoic": 3245,
      "An": 3246,
      "cal": 3247,
      "iatus": 3248,
      "rem": 3249,
      "Ġnarrow": 3250,
      "Ġreplac": 3251,
      "bert": 3252,
      "Ġvicinity": 3253,
      "ĠSupersequence": 3254,
      "Ġdyke": 3255,
      "ĠMinor": 3256,
      "ĠEvents": 3257,
      "Ġtherefore": 3258,
      "Ġandesitic": 3259,
      "84": 3260,
      "ĠMassive": 3261,
      "Ġlack": 3262,
      "ateau": 3263,
      "ĠOffic": 3264,
      "lacial": 3265,
      "imestones": 3266,
      "Ġ2007": 3267,
      "Ġcorrelate": 3268,
      "Ġ1981": 3269,
      "ĠExposed": 3270,
      "Ġportion": 3271,
      "'.": 3272,
      "76": 3273,
      "95": 3274,
      "Sh": 3275,
      "cle": 3276,
      "Ġbore": 3277,
      "rang": 3278,
      "ĠLa": 3279,
      "Ġ31": 3280,
      "Ġcontinuous": 3281,
      "ĠArn": 3282,
      "1971": 3283,
      "burn": 3284,
      "Ġglacial": 3285,
      "Ġvalues": 3286,
      "Ġgravity": 3287,
      "73": 3288,
      "Ġent": 3289,
      "ĠPlatform": 3290,
      "ĠOlymp": 3291,
      "idote": 3292,
      "Ġarg": 3293,
      "ĠHodg": 3294,
      "romanga": 3295,
      "ĠVari": 3296,
      "iboo": 3297,
      "Ġsubsequ": 3298,
      "eneath": 3299,
      "istribut": 3300,
      "Ġlateral": 3301,
      "Ġerosion": 3302,
      "bourne": 3303,
      "ibooburra": 3304,
      "DH": 3305,
      "vale": 3306,
      "Ġirre": 3307,
      "Ġtab": 3308,
      "Ġdifficult": 3309,
      "ivis": 3310,
      "graph": 3311,
      "Ġ66": 3312,
      "Ġ600": 3313,
      "ĠJack": 3314,
      "ailed": 3315,
      "Ġstrata": 3316,
      "ĠCliff": 3317,
      "Ġtrack": 3318,
      "ĠMetas": 3319,
      "Ġplutons": 3320,
      "Ġhorizons": 3321,
      "41": 3322,
      "ames": 3323,
      "Ġgas": 3324,
      "Ġalluvial": 3325,
      "assigned": 3326,
      "Ġdrillholes": 3327,
      "Ġslate": 3328,
      "Ġpebbles": 3329,
      "Ġemplacement": 3330,
      "enberry": 3331,
      "ven": 3332,
      "ita": 3333,
      "reak": 3334,
      "Ġtime": 3335,
      "Ġpurple": 3336,
      "Ġfluvi": 3337,
      "ĠFe": 3338,
      "ĠPaterson": 3339,
      "Ġgranit": 3340,
      "rowth": 3341,
      "ermann": 3342,
      "Ġreferences": 3343,
      "ĠSequence": 3344,
      "ribut": 3345,
      "Ġirregular": 3346,
      "Nam": 3347,
      "rol": 3348,
      "ĠCap": 3349,
      "Ġdown": 3350,
      "ĠEromanga": 3351,
      "ulated": 3352,
      "ĠAndes": 3353,
      "Ġtrending": 3354,
      "Ġprovenance": 3355,
      "ĠDetrital": 3356,
      "Ġconglomerates": 3357,
      "nall": 3358,
      "Ġsuite": 3359,
      "Ġchem": 3360,
      "ĠCretaceous": 3361,
      "Ġpers": 3362,
      "ĠTe": 3363,
      "ĠHomestead": 3364,
      "ĠKur": 3365,
      "Ġ35": 3366,
      "Ġenc": 3367,
      "ĠArunta": 3368,
      "Ġ1976": 3369,
      "Ġseparate": 3370,
      "Ġoriginal": 3371,
      "Ġcurrent": 3372,
      "rindudu": 3373,
      "ength": 3374,
      "ILL": 3375,
      "iform": 3376,
      "ane": 3377,
      "itised": 3378,
      "Ġox": 3379,
      "olut": 3380,
      "upt": 3381,
      "Ġseal": 3382,
      "ĠMembers": 3383,
      "Ġscale": 3384,
      "Ġdetermin": 3385,
      "Ġplanar": 3386,
      "ygd": 3387,
      "98": 3388,
      "OW": 3389,
      "bar": 3390,
      "inite": 3391,
      "Ġspect": 3392,
      "Ġpalae": 3393,
      "ild": 3394,
      "omic": 3395,
      "gether": 3396,
      "Ġisolated": 3397,
      "ĠDiorite": 3398,
      "Ġ21": 3399,
      "Ġsequences": 3400,
      "ĠKoon": 3401,
      "ible": 3402,
      "Ġ2005": 3403,
      "Ġmica": 3404,
      "Ġsuggesting": 3405,
      "Ġhead": 3406,
      "ĠMor": 3407,
      "ĠCol": 3408,
      "ĠSW": 3409,
      "Ġpolymict": 3410,
      "ĠLawn": 3411,
      "Ġhiatus": 3412,
      "ĠBase": 3413,
      "1966": 3414,
      "Ġextensively": 3415,
      "Ġlesser": 3416,
      "ĠBowen": 3417,
      "fels": 3418,
      "ald": 3419,
      "ense": 3420,
      "Ġvol": 3421,
      "Ġcomposed": 3422,
      "ardt": 3423,
      "Ġuppermost": 3424,
      "Ġyoungest": 3425,
      "Ġsignature": 3426,
      "REE": 3427,
      "Ġimmediately": 3428,
      "ĠOfficer": 3429,
      "uth": 3430,
      "ĠMonz": 3431,
      "Ġplatform": 3432,
      "Ġac": 3433,
      "ĠTibooburra": 3434,
      "ĠRav": 3435,
      "ĠDrill": 3436,
      "ĠGrant": 3437,
      "Ġelong": 3438,
      "ĠDisconformably": 3439,
      "OR": 3440,
      "SHRIMP": 3441,
      "mass": 3442,
      "ye": 3443,
      "asp": 3444,
      "Ġbrief": 3445,
      "rey": 3446,
      "Ġtrough": 3447,
      "ĠLamb": 3448,
      "ĠWa": 3449,
      "lains": 3450,
      "akes": 3451,
      "ordi": 3452,
      "Ġ135": 3453,
      "Ġ1991": 3454,
      "ĠAnticline": 3455,
      "Ġplant": 3456,
      "ĠMinimum": 3457,
      "ofacies": 3458,
      "yroclast": 3459,
      "ĠBeach": 3460,
      "ĠTasmania": 3461,
      "Ġsph": 3462,
      "Ġtent": 3463,
      "ĠBi": 3464,
      "ĠBiotite": 3465,
      "Ġgrapt": 3466,
      "Ġ1992": 3467,
      "Ġmetasediments": 3468,
      "Ġundivided": 3469,
      "ĠEdm": 3470,
      "MR": 3471,
      "dish": 3472,
      "ĠTan": 3473,
      "ĠBrown": 3474,
      "Ġgranule": 3475,
      "Ġstatus": 3476,
      "ertiary": 3477,
      "1964": 3478,
      "ĠCarr": 3479,
      "ampton": 3480,
      "onto": 3481,
      "Ġdistribution": 3482,
      "af": 3483,
      "house": 3484,
      "nar": 3485,
      "Ġsil": 3486,
      "Ġblu": 3487,
      "Ġtribut": 3488,
      "ĠCore": 3489,
      "Ġlimb": 3490,
      "eline": 3491,
      "ĠDer": 3492,
      "ĠDistribut": 3493,
      "lays": 3494,
      "odacite": 3495,
      "ĠGroups": 3496,
      "1975": 3497,
      "ĠMetamorphosed": 3498,
      "Ġtexture": 3499,
      "oleiitic": 3500,
      "eol": 3501,
      "oog": 3502,
      "Ġsta": 3503,
      "Ġbeneath": 3504,
      "rete": 3505,
      "Ġdates": 3506,
      "istant": 3507,
      "Ġ1980": 3508,
      "Ġ36": 3509,
      "ornfels": 3510,
      "Ġ1993": 3511,
      "Ġtextures": 3512,
      "onazite": 3513,
      "Ġdetermined": 3514,
      "maline": 3515,
      "?)": 3516,
      "ler": 3517,
      "itz": 3518,
      "andra": 3519,
      "ĠMoon": 3520,
      "ĠChe": 3521,
      "omag": 3522,
      "ĠPen": 3523,
      "ĠDar": 3524,
      "adolerite": 3525,
      "escue": 3526,
      "1976": 3527,
      "1988": 3528,
      "ortescue": 3529,
      "ĠMetabasalt": 3530,
      "Ġassemblages": 3531,
      "Ġcomponents": 3532,
      "ĠSurat": 3533,
      "Ġsedimentation": 3534,
      "Cl": 3535,
      "Mor": 3536,
      "ha": 3537,
      "nes": 3538,
      "Ġoff": 3539,
      "ĠMarsh": 3540,
      "Ġfour": 3541,
      "sected": 3542,
      "Ġparticular": 3543,
      "Ġcoeval": 3544,
      "Ġ2017": 3545,
      "Ġ1963": 3546,
      "Ġ1965": 3547,
      "Ġlatter": 3548,
      "Ġparallel": 3549,
      "ĠMurray": 3550,
      "ordierite": 3551,
      "eer": 3552,
      "hardt": 3553,
      "kin": 3554,
      "warra": 3555,
      "Ġspor": 3556,
      "ĠCra": 3557,
      "ĠFluvial": 3558,
      "igan": 3559,
      "lake": 3560,
      "ounded": 3561,
      "umed": 3562,
      "ichhardt": 3563,
      "Ġ2016": 3564,
      "ĠRec": 3565,
      "ized": 3566,
      "Ġtectonic": 3567,
      "Ġlevel": 3568,
      "Ġconsistent": 3569,
      "Ġtrilobites": 3570,
      ".).": 3571,
      "ati": 3572,
      "ami": 3573,
      "ĠKositcin": 3574,
      "Ġdetails": 3575,
      "ĠSection": 3576,
      "Ġcleavage": 3577,
      "Ġaplite": 3578,
      "entioned": 3579,
      "72": 3580,
      "nal": 3581,
      "its": 3582,
      "ociation": 3583,
      "Ġ2003": 3584,
      "ermost": 3585,
      "Ġequival": 3586,
      "1982": 3587,
      "Ġusing": 3588,
      "Ġobtained": 3589,
      "ĠWells": 3590,
      "Ġdirect": 3591,
      "Ġgradational": 3592,
      "ĠWilliams": 3593,
      "96": 3594,
      "Ġthen": 3595,
      "Ġtidal": 3596,
      "ĠMarb": 3597,
      "Ġdo": 3598,
      "ĠFair": 3599,
      "elded": 3600,
      "ĠPredominantly": 3601,
      "ĠAcc": 3602,
      "Ġrema": 3603,
      "ĠHo": 3604,
      "ĠInform": 3605,
      "Ġ2013": 3606,
      "ioturb": 3607,
      "respon": 3608,
      "Ġmetabasalt": 3609,
      "Ġ1971": 3610,
      "Ġamygd": 3611,
      "ĠStrat": 3612,
      "ĠAndesite": 3613,
      "Sp": 3614,
      "VER": 3615,
      "ĠCal": 3616,
      "ĠRen": 3617,
      "Ġproxim": 3618,
      "ago": 3619,
      "Ġ2001": 3620,
      "Ġfolds": 3621,
      "aint": 3622,
      "energy": 3623,
      "Ġindicating": 3624,
      "ĠBirrindudu": 3625,
      "Ġlogs": 3626,
      "Ġoccas": 3627,
      "Ġgroundmass": 3628,
      "Ġrecrystallised": 3629,
      "71": 3630,
      "pa": 3631,
      "olid": 3632,
      "ĠGDA": 3633,
      "Ġlisted": 3634,
      "ĠPlain": 3635,
      "ĠDist": 3636,
      "try": 3637,
      "Ġoriginally": 3638,
      "Ġ2011": 3639,
      "Ġ2004": 3640,
      "Ġsuch": 3641,
      "Ġmarginal": 3642,
      "Ġripple": 3643,
      "Ġthought": 3644,
      "ĠEdmund": 3645,
      "eth": 3646,
      "ields": 3647,
      "laminated": 3648,
      "Ġmeas": 3649,
      "ets": 3650,
      "Ġlength": 3651,
      "amunga": 3652,
      "ĠPool": 3653,
      "ĠAfter": 3654,
      "ĠRoper": 3655,
      "abric": 3656,
      "ĠWool": 3657,
      "ivity": 3658,
      "Ġcomposite": 3659,
      "Ġnortheastern": 3660,
      "ĠOrth": 3661,
      "Ġ1500": 3662,
      "ottom": 3663,
      "Ġcomprising": 3664,
      "Namara": 3665,
      "64": 3666,
      "lla": 3667,
      "pik": 3668,
      "right": 3669,
      "anded": 3670,
      "ica": 3671,
      "ĠCam": 3672,
      "ĠCorn": 3673,
      "ĠTur": 3674,
      "ĠTertiary": 3675,
      "ĠWin": 3676,
      "ĠThin": 3677,
      "Ġ2012": 3678,
      "iverse": 3679,
      "1969": 3680,
      "Ġfaulting": 3681,
      "Ġgneissic": 3682,
      "ĠAbout": 3683,
      "Ġcoastal": 3684,
      "Ġpackage": 3685,
      "Ġmegac": 3686,
      "ĠDistribution": 3687,
      "cut": 3688,
      "oong": 3689,
      "Ġrework": 3690,
      "1980": 3691,
      "Ġintercal": 3692,
      "Ġlocalities": 3693,
      "Ġ2015": 3694,
      "Ġ130": 3695,
      "Ġ1994": 3696,
      "Ġimages": 3697,
      "ydney": 3698,
      "amerian": 3699,
      "51": 3700,
      "other": 3701,
      "waters": 3702,
      "unker": 3703,
      "unya": 3704,
      "Ġfresh": 3705,
      "Ġfabric": 3706,
      "ĠDun": 3707,
      "ĠEs": 3708,
      "ountry": 3709,
      "forming": 3710,
      "berra": 3711,
      "illow": 3712,
      "ĠUnconformable": 3713,
      "Ġ1978": 3714,
      "Ġ800": 3715,
      "Ġ1964": 3716,
      "Ġelev": 3717,
      "mbol": 3718,
      "Ġdiamictite": 3719,
      "Ġfollowing": 3720,
      "Ġhalf": 3721,
      "Ġmelting": 3722,
      "IE": 3723,
      "TA": 3724,
      "uction": 3725,
      "Ġmonazite": 3726,
      "ĠCle": 3727,
      "ĠGunn": 3728,
      "ĠFol": 3729,
      "ĠBung": 3730,
      "ĠBend": 3731,
      "Ġlamin": 3732,
      "alled": 3733,
      "Ġpeak": 3734,
      "conformity": 3735,
      "Ġindicated": 3736,
      "Ġtypical": 3737,
      "Ġlayered": 3738,
      "urnam": 3739,
      "ticle": 3740,
      "Ġapatite": 3741,
      "ĠKoonenberry": 3742,
      "Ġparticularly": 3743,
      "93": 3744,
      "onian": 3745,
      "inopyroxene": 3746,
      "unna": 3747,
      "ters": 3748,
      "ĠHole": 3749,
      "ibr": 3750,
      "ĠCooper": 3751,
      "Ġ78": 3752,
      "Ġ1997": 3753,
      "Ġ1975": 3754,
      "ĠZircon": 3755,
      "ĠRoe": 3756,
      "Ġtuffs": 3757,
      "ĠWhim": 3758,
      "Ġnumber": 3759,
      "Ġsubunits": 3760,
      "ines": 3761,
      "aloidal": 3762,
      "rod": 3763,
      "ĠMull": 3764,
      "Ġpublished": 3765,
      "eton": 3766,
      "ĠBreccia": 3767,
      "ĠBMR": 3768,
      "ĠAs": 3769,
      "imated": 3770,
      "ĠDome": 3771,
      "Ġaltern": 3772,
      "ĠHILL": 3773,
      "ĠRepres": 3774,
      "1995": 3775,
      "Ġreddish": 3776,
      "Ġedge": 3777,
      "92": 3778,
      "ties": 3779,
      "inj": 3780,
      "ern": 3781,
      "enogranite": 3782,
      "ĠMDA": 3783,
      "ĠCow": 3784,
      "ĠSimilar": 3785,
      "ĠBund": 3786,
      "ented": 3787,
      "verage": 3788,
      "ĠOther": 3789,
      "laves": 3790,
      "ird": 3791,
      "Ġexpl": 3792,
      "bedding": 3793,
      "ĠConn": 3794,
      "ĠStar": 3795,
      "Ġ1962": 3796,
      "Ġvariet": 3797,
      "ĠSpring": 3798,
      "Ġsubdivided": 3799,
      "Ġprimary": 3800,
      "Ġequivalents": 3801,
      "Ph": 3802,
      "lass": 3803,
      "pelt": 3804,
      "tz": 3805,
      "uites": 3806,
      "Ġultramafic": 3807,
      "arie": 3808,
      "ĠMitch": 3809,
      "Ġ180": 3810,
      "ĠRich": 3811,
      "ĠNone": 3812,
      "ĠUnd": 3813,
      "ĠJun": 3814,
      "1968": 3815,
      "1993": 3816,
      "ennant": 3817,
      "Ġrelative": 3818,
      "mediate": 3819,
      "ĠHodgkinson": 3820,
      "05": 3821,
      "2000": 3822,
      "OO": 3823,
      "cess": 3824,
      "facies": 3825,
      "aneous": 3826,
      "ash": 3827,
      "ĠSydney": 3828,
      "oured": 3829,
      "phyric": 3830,
      "ems": 3831,
      "Ġ1996": 3832,
      "Ġ1974": 3833,
      "1998": 3834,
      "Ġamount": 3835,
      "vey": 3836,
      "Ġlargely": 3837,
      "Ġmarks": 3838,
      "Ġhydrocarbon": 3839,
      "Ġbriefly": 3840,
      "1000": 3841,
      "mad": 3842,
      "ucon": 3843,
      "Ġcould": 3844,
      "ĠGas": 3845,
      "Ġdominantly": 3846,
      "ĠRhy": 3847,
      "ĠHut": 3848,
      "ĠEst": 3849,
      "Ġcontent": 3850,
      "rows": 3851,
      "Ġformally": 3852,
      "lower": 3853,
      "anks": 3854,
      "ĠTerra": 3855,
      "Ġcharacteristic": 3856,
      "ĠBlue": 3857,
      "Ġturbiditic": 3858,
      "Ġstromatolites": 3859,
      "ĠThomson": 3860,
      "ĠArnhem": 3861,
      "loo": 3862,
      "the": 3863,
      "thor": 3864,
      "arded": 3865,
      "ĠFortescue": 3866,
      "Ġlies": 3867,
      "eland": 3868,
      "Ġhole": 3869,
      "Ġhornfels": 3870,
      "Ġ75": 3871,
      "apart": 3872,
      "Ġsymbol": 3873,
      "Ġheadwaters": 3874,
      "itree": 3875,
      "ĠTime": 3876,
      "ĠPrevious": 3877,
      "Ġcomplete": 3878,
      "avitree": 3879,
      "ief": 3880,
      "Ġ1970": 3881,
      "oola": 3882,
      "oko": 3883,
      "ervois": 3884,
      "ĠApproximately": 3885,
      "Ġepidote": 3886,
      "Ġapparently": 3887,
      "emporaneous": 3888,
      "oan": 3889,
      "tical": 3890,
      "uce": 3891,
      "Ġmentioned": 3892,
      "Ġpress": 3893,
      "Ġtown": 3894,
      "ĠTree": 3895,
      "aby": 3896,
      "ume": 3897,
      "ummond": 3898,
      "Ġanomal": 3899,
      "Ġcontinu": 3900,
      "ĠIncluded": 3901,
      "endale": 3902,
      "ĠRocky": 3903,
      "Ġalkali": 3904,
      "Ġtributary": 3905,
      "back": 3906,
      "date": 3907,
      "sup": 3908,
      "volcanic": 3909,
      "ining": 3910,
      "Ġcycl": 3911,
      "Ġcalled": 3912,
      "ĠAg": 3913,
      "ĠAbb": 3914,
      "laucon": 3915,
      "Ġresistant": 3916,
      "ĠChar": 3917,
      "Ġgreywacke": 3918,
      "greg": 3919,
      "Ġ139": 3920,
      "Ġsands": 3921,
      "Ġwells": 3922,
      "Ġcrystallization": 3923,
      "Ġopen": 3924,
      "ĠWaterhole": 3925,
      "ĠMetasediments": 3926,
      "Ġenclaves": 3927,
      "ĠOrthogneiss": 3928,
      "urnamona": 3929,
      "Ġ00": 3930,
      "ĠSy": 3931,
      "ĠSyn": 3932,
      "ĠTillite": 3933,
      "vers": 3934,
      "ids": 3935,
      "Ġalmost": 3936,
      "ots": 3937,
      "usion": 3938,
      "Ġthickly": 3939,
      "ĠKing": 3940,
      "Ġmarker": 3941,
      "Ġsouthwestern": 3942,
      "Ġformal": 3943,
      "1978": 3944,
      "ĠIntrusive": 3945,
      "ĠCarter": 3946,
      "ĠInterbedded": 3947,
      "ĠClarke": 3948,
      "Ġinterpretation": 3949,
      ".)": 3950,
      "97": 3951,
      "NE": 3952,
      "gin": 3953,
      "rew": 3954,
      "Ġflu": 3955,
      "Ġtour": 3956,
      "elson": 3957,
      "ĠAsh": 3958,
      "ivine": 3959,
      "ubb": 3960,
      "ĠKalk": 3961,
      "elli": 3962,
      "Ġcobble": 3963,
      "ensity": 3964,
      "ĠJones": 3965,
      "ĠJervois": 3966,
      "Ġformerly": 3967,
      "Ġ1966": 3968,
      "Ġ1983": 3969,
      "ĠMcNamara": 3970,
      "Ġrap": 3971,
      "Ġcliff": 3972,
      "Ġerod": 3973,
      "Ġbraided": 3974,
      "enetic": 3975,
      "ĠPrec": 3976,
      "De": 3977,
      "OC": 3978,
      "ator": 3979,
      "anda": 3980,
      "asper": 3981,
      "Ġbur": 3982,
      "ĠFlin": 3983,
      "Ġ117": 3984,
      "leen": 3985,
      "ĠOld": 3986,
      "ĠVery": 3987,
      "chy": 3988,
      "Ġcopper": 3989,
      "athleen": 3990,
      "Ġ1967": 3991,
      "Ġeven": 3992,
      "Ġ90": 3993,
      "Ġdevelopment": 3994,
      "Ġperi": 3995,
      "Ġhorizon": 3996,
      "Ġpetroleum": 3997,
      "Ġfiner": 3998,
      "Ġoldest": 3999,
      "Ġrevised": 4000,
      "ĠOlympic": 4001,
      "83": 4002,
      "Ġ140": 4003,
      "Ġlimestones": 4004,
      "Ġgood": 4005,
      "Ġseam": 4006,
      "Ġextr": 4007,
      "Ġproport": 4008,
      "arag": 4009,
      "ooly": 4010,
      "aken": 4011,
      "Ġmudstones": 4012,
      "aminta": 4013,
      "Ġ1979": 4014,
      "ĠProspect": 4015,
      "ĠBonya": 4016,
      "ĠBonapart": 4017,
      "ĠWarramunga": 4018,
      "ĠPetermann": 4019,
      "Ġvolcanism": 4020,
      "White": 4021,
      "62": 4022,
      "67": 4023,
      "In": 4024,
      "aerial": 4025,
      "Ġsize": 4026,
      "ollen": 4027,
      "Ġauth": 4028,
      "ĠTab": 4029,
      "ray": 4030,
      "ĠDen": 4031,
      "Ġnod": 4032,
      "uddy": 4033,
      "ĠNSW": 4034,
      "Ġrest": 4035,
      "Ġgrading": 4036,
      "layford": 4037,
      "1972": 4038,
      "1991": 4039,
      "ĠDeposition": 4040,
      "1981": 4041,
      "ĠRocks": 4042,
      "Ġdiagr": 4043,
      "ĠGSQ": 4044,
      "Ġproperties": 4045,
      "Ġpelitic": 4046,
      "Ġstratigraphically": 4047,
      "Ġentire": 4048,
      "Ġelongate": 4049,
      "Ġamygdaloidal": 4050,
      "ĠFlinders": 4051,
      "87": 4052,
      "Co": 4053,
      "ae": 4054,
      "bell": 4055,
      "part": 4056,
      "wa": 4057,
      "attern": 4058,
      "Ġtholeiitic": 4059,
      "ross": 4060,
      "ĠMill": 4061,
      "Ġfar": 4062,
      "ingarra": 4063,
      "ĠPort": 4064,
      "ower": 4065,
      "abb": 4066,
      "Ġnominated": 4067,
      "ĠWA": 4068,
      "1992": 4069,
      "1994": 4070,
      "ofeldspathic": 4071,
      "Ġgreenstone": 4072,
      "ĠSilver": 4073,
      "ĠLeuc": 4074,
      "ĠHighway": 4075,
      "ylon": 4076,
      "Ġdiag": 4077,
      "Ġpolymictic": 4078,
      "ints": 4079,
      "erang": 4080,
      "Ġbest": 4081,
      "Ġbioturb": 4082,
      "ĠCr": 4083,
      "ĠCall": 4084,
      "olds": 4085,
      "Ġpyroclast": 4086,
      "ĠGr": 4087,
      "ster": 4088,
      "ĠDa": 4089,
      "ĠLarge": 4090,
      "ĠEll": 4091,
      "ĠKe": 4092,
      "Ġ55": 4093,
      "ĠShaw": 4094,
      "ĠCarpent": 4095,
      "ĠStrong": 4096,
      "ĠAdamellite": 4097,
      "uchess": 4098,
      "Ġsubdivis": 4099,
      "ĠPalaeozoic": 4100,
      "ES": 4101,
      "apor": 4102,
      "gar": 4103,
      "qtz": 4104,
      "rated": 4105,
      "atile": 4106,
      "ening": 4107,
      "strat": 4108,
      "ĠPan": 4109,
      "Ġvaries": 4110,
      "chison": 4111,
      "Ġ2019": 4112,
      "ĠCoarse": 4113,
      "Ġ1990": 4114,
      "IMS": 4115,
      "Ġcrystals": 4116,
      "Ġgreenish": 4117,
      "ĠGraben": 4118,
      "Ġturbidites": 4119,
      "Ġestimate": 4120,
      "ĠDetailed": 4121,
      "ĠHeavitree": 4122,
      "Ġcrustal": 4123,
      "ĠNTGS": 4124,
      "ĠDrummond": 4125,
      "Ġtentatively": 4126,
      "Ġsporad": 4127,
      "prov": 4128,
      "ataka": 4129,
      "Ġcountry": 4130,
      "Ġtim": 4131,
      "ĠMany": 4132,
      "ĠGiles": 4133,
      "ĠTra": 4134,
      "aming": 4135,
      "ĠPa": 4136,
      "idual": 4137,
      "ĠWon": 4138,
      "ĠHf": 4139,
      "ĠThey": 4140,
      "astle": 4141,
      "Ġshelly": 4142,
      "insula": 4143,
      "Ġ34": 4144,
      "hip": 4145,
      "Ġ1968": 4146,
      "Ġintersection": 4147,
      "Ġcentre": 4148,
      "Page": 4149,
      "UC": 4150,
      "nost": 4151,
      "pin": 4152,
      "ĠMoor": 4153,
      "ĠSm": 4154,
      "ĠGun": 4155,
      "Ġav": 4156,
      "ĠTem": 4157,
      "ĠTennant": 4158,
      "ĠFalls": 4159,
      "Ġ120": 4160,
      "ĠKenn": 4161,
      "Ġwho": 4162,
      "Ġupwards": 4163,
      "Ġ2018": 4164,
      "weighted": 4165,
      "Ġstor": 4166,
      "Ġstation": 4167,
      "ailable": 4168,
      "liers": 4169,
      "Ġ1972": 4170,
      "Ġrepresentative": 4171,
      "ixed": 4172,
      "Ġdiameter": 4173,
      "Ġchannel": 4174,
      "Ġeroded": 4175,
      "cm": 4176,
      "oal": 4177,
      "Â°": 4178,
      "Ġthrust": 4179,
      "Ġcream": 4180,
      "ĠGum": 4181,
      "ĠGund": 4182,
      "Ġaqu": 4183,
      "ĠPonto": 4184,
      "ĠDy": 4185,
      "ĠLittle": 4186,
      "Ġarticle": 4187,
      "Ġrim": 4188,
      "rior": 4189,
      "ĠKathleen": 4190,
      "Ġupward": 4191,
      "Ġgravel": 4192,
      "ĠSher": 4193,
      "Ġevents": 4194,
      "1984": 4195,
      "Ġconsisting": 4196,
      "Ġrarely": 4197,
      "Ġjo": 4198,
      "Ġconcordant": 4199,
      "eolian": 4200,
      "ged": 4201,
      "tle": 4202,
      "uro": 4203,
      "ats": 4204,
      "edes": 4205,
      "andoned": 4206,
      "Ġback": 4207,
      "Ġtors": 4208,
      "ston": 4209,
      "Ġhill": 4210,
      "ocky": 4211,
      "ĠCharacter": 4212,
      "Ġ1973": 4213,
      "Ġisotope": 4214,
      "ĠConstance": 4215,
      "ĠPossible": 4216,
      "borough": 4217,
      "imberley": 4218,
      "Figure": 4219,
      "82": 4220,
      "Ag": 4221,
      "ĠPres": 4222,
      "asts": 4223,
      "Ġintermediate": 4224,
      "ĠCommon": 4225,
      "Ġ2014": 4226,
      "Ġ45": 4227,
      "2020": 4228,
      "Ġ2009": 4229,
      "Ġgeological": 4230,
      "Ġintruding": 4231,
      "idgee": 4232,
      "ĠLocal": 4233,
      "ĠLitholog": 4234,
      "Ġconglomeratic": 4235,
      "Ġopaqu": 4236,
      "Ġblocks": 4237,
      "ĠDelamerian": 4238,
      "ĠPoorly": 4239,
      "ĠMunson": 4240,
      "Ġsilcrete": 4241,
      "ĠEstimated": 4242,
      "99": 4243,
      "ED": 4244,
      "SE": 4245,
      "mara": 4246,
      "uw": 4247,
      "Ġcode": 4248,
      "Ġpred": 4249,
      "Ġpillow": 4250,
      "Ġpattern": 4251,
      "ĠBo": 4252,
      "osph": 4253,
      "ĠDuchess": 4254,
      "Ġnature": 4255,
      "ĠWang": 4256,
      "ĠHere": 4257,
      "1959": 4258,
      "ady": 4259,
      "sey": 4260,
      "Ġ2020": 4261,
      "Ġnorthwestern": 4262,
      "ĠSturt": 4263,
      "ĠLeichhardt": 4264,
      "ĠWithnall": 4265,
      "Ġgraptolites": 4266,
      "Ġtourmaline": 4267,
      "Rb": 4268,
      "eper": 4269,
      "ini": 4270,
      "ano": 4271,
      "esis": 4272,
      "Ġsk": 4273,
      "ionally": 4274,
      "Ġcement": 4275,
      "Ġtaken": 4276,
      "ĠMod": 4277,
      "ĠGil": 4278,
      "Ġair": 4279,
      "etal": 4280,
      "ĠTyp": 4281,
      "ĠBig": 4282,
      "Ġuncon": 4283,
      "conomic": 4284,
      "Ġpartial": 4285,
      "Ġany": 4286,
      "ĠJur": 4287,
      "2002": 4288,
      "Ġsimilarities": 4289,
      "iocene": 4290,
      "phibolite": 4291,
      "ĠMarine": 4292,
      "Ġherein": 4293,
      "ĠWebb": 4294,
      "magnetic": 4295,
      "Ġsteeply": 4296,
      "ĠPorphyry": 4297,
      "61": 4298,
      "Le": 4299,
      "Wil": 4300,
      "fol": 4301,
      "put": 4302,
      "edah": 4303,
      "Ġmed": 4304,
      "ĠTal": 4305,
      "ĠFitz": 4306,
      "eld": 4307,
      "ĠPlayford": 4308,
      "ĠOor": 4309,
      "ĠEyre": 4310,
      "Ġash": 4311,
      "ĠUl": 4312,
      "Ġinterfingers": 4313,
      "Ġshore": 4314,
      "angee": 4315,
      "ĠYou": 4316,
      "Ġ137": 4317,
      "Ġlithofacies": 4318,
      "Ġoccurred": 4319,
      "2008": 4320,
      "Ġcalcite": 4321,
      "Ġ1989": 4322,
      "ĠBroad": 4323,
      "ĠMurphy": 4324,
      "Ġlinear": 4325,
      "ĠYoung": 4326,
      "otographs": 4327,
      "Ġsubsequently": 4328,
      "ĠBonaparte": 4329,
      "*/": 4330,
      "600": 4331,
      "ki": 4332,
      "ridge": 4333,
      "wen": 4334,
      "atory": 4335,
      "Ġsw": 4336,
      "Ġsul": 4337,
      "Ġbuff": 4338,
      "Ġmes": 4339,
      "Ġcr": 4340,
      "ĠMal": 4341,
      "Ġprevious": 4342,
      "etown": 4343,
      "Ġwave": 4344,
      "Ġglaucon": 4345,
      "ĠNar": 4346,
      "ĠMad": 4347,
      "odior": 4348,
      "ĠThree": 4349,
      "oond": 4350,
      "1986": 4351,
      "Ġanalysed": 4352,
      "Ġundul": 4353,
      "Ġsupers": 4354,
      "Ġturbidite": 4355,
      "Ġtopography": 4356,
      "ĠTanami": 4357,
      "omagnetic": 4358,
      "Ġremains": 4359,
      "',": 4360,
      "UR": 4361,
      "araba": 4362,
      "ĠColl": 4363,
      "ĠCurnamona": 4364,
      "Ġpyritic": 4365,
      "Ġdiverse": 4366,
      "ĠTrans": 4367,
      "ĠBog": 4368,
      "Ġgrowth": 4369,
      "Ġren": 4370,
      "Ġka": 4371,
      "graphy": 4372,
      "deformed": 4373,
      "agoon": 4374,
      "1973": 4375,
      "1977": 4376,
      "1979": 4377,
      "1997": 4378,
      "Ġgneisses": 4379,
      "ways": 4380,
      "Ġcorrespon": 4381,
      "Ġtransition": 4382,
      "Ġtransitional": 4383,
      "ĠCorella": 4384,
      "Ġorthogneiss": 4385,
      "oulburn": 4386,
      "Ġproximal": 4387,
      "Ġmeasured": 4388,
      "NS": 4389,
      "gory": 4390,
      "min": 4391,
      "order": 4392,
      "ises": 4393,
      "Ġprior": 4394,
      "ĠGal": 4395,
      "Ġ(~": 4396,
      "Ġtogether": 4397,
      "Ġlar": 4398,
      "omp": 4399,
      "ĠPlains": 4400,
      "upper": 4401,
      "ĠRad": 4402,
      "udstone": 4403,
      "irk": 4404,
      "irm": 4405,
      "Ġves": 4406,
      "Ġexh": 4407,
      "Ġrough": 4408,
      "new": 4409,
      "Ġsourced": 4410,
      "Ġmetag": 4411,
      "ĠCarnar": 4412,
      "Ġtrends": 4413,
      "ĠCanberra": 4414,
      "Ġstratigraphy": 4415,
      "Ġsoil": 4416,
      "ĠCarnarvon": 4417,
      "flow": 4418,
      "Ġsus": 4419,
      "Ġcordierite": 4420,
      "ĠCrow": 4421,
      "ĠSam": 4422,
      "Ġfish": 4423,
      "Ġax": 4424,
      "Ġwacke": 4425,
      "ĠBack": 4426,
      "ĠPert": 4427,
      "ranch": 4428,
      "heedy": 4429,
      "ĠLP": 4430,
      "ĠHel": 4431,
      "ĠBasins": 4432,
      "Ġexcept": 4433,
      "araheedy": 4434,
      "Ġ67": 4435,
      "ĠCool": 4436,
      "angan": 4437,
      "Ġ1969": 4438,
      "Ġcarbonates": 4439,
      "Ġ1986": 4440,
      "omorphs": 4441,
      "Ġmetamorphics": 4442,
      "Ġrepresented": 4443,
      "Ġcorals": 4444,
      "ooma": 4445,
      "Ġconcent": 4446,
      "ĠPeninsula": 4447,
      "400": 4448,
      "DD": 4449,
      "Gre": 4450,
      "born": 4451,
      "inised": 4452,
      "alkal": 4453,
      "eded": 4454,
      "ander": 4455,
      "Ġmant": 4456,
      "ĠBl": 4457,
      "ĠBell": 4458,
      "oma": 4459,
      "urst": 4460,
      "Ġunp": 4461,
      "Ġsee": 4462,
      "Ġseams": 4463,
      "ĠGeochron": 4464,
      "escribed": 4465,
      "Ġoutcropping": 4466,
      "liest": 4467,
      "1961": 4468,
      "Ġ1988": 4469,
      "Ġevapor": 4470,
      "atherine": 4471,
      "Ġpresented": 4472,
      "Ġclinopyroxene": 4473,
      "Ġlayering": 4474,
      "ĠWilson": 4475,
      "ĠContact": 4476,
      "ĠRavendale": 4477,
      "ĠConnors": 4478,
      "04": 4479,
      "Zn": 4480,
      "ai": 4481,
      "io": 4482,
      "oration": 4483,
      "Ġsitu": 4484,
      "Ġclast": 4485,
      "ĠMall": 4486,
      "uny": 4487,
      "Ġpop": 4488,
      "ĠFish": 4489,
      "owell": 4490,
      "oclase": 4491,
      "ĠDark": 4492,
      "ĠNow": 4493,
      "Ġreassigned": 4494,
      "usions": 4495,
      "thermal": 4496,
      "Ġ350": 4497,
      "Ġ54": 4498,
      "Ġgraph": 4499,
      "akie": 4500,
      "Ġintense": 4501,
      "ĠArkose": 4502,
      "Ġextend": 4503,
      "vely": 4504,
      "Ġmapsheets": 4505,
      "Ġolivine": 4506,
      "Ġelevated": 4507,
      "700": 4508,
      "800": 4509,
      "NW": 4510,
      "Nd": 4511,
      "Or": 4512,
      "run": 4513,
      "Ġthus": 4514,
      "ĠCup": 4515,
      "Ġdivided": 4516,
      "ĠBry": 4517,
      "enticular": 4518,
      "ĠDaly": 4519,
      "ĠNeg": 4520,
      "ĠWand": 4521,
      "umul": 4522,
      "theridge": 4523,
      "avy": 4524,
      "Ġcoars": 4525,
      "Ġgraded": 4526,
      "Ġgrades": 4527,
      "ĠOverlying": 4528,
      "latitude": 4529,
      "aped": 4530,
      "Ġregarded": 4531,
      "Ġ1987": 4532,
      "arris": 4533,
      "Ġfraction": 4534,
      "lora": 4535,
      "onnell": 4536,
      "Ġtopographic": 4537,
      "Ġaccessory": 4538,
      "fossiliferous": 4539,
      "Space": 4540,
      "Ġintercalated": 4541,
      "Ġpopul": 4542,
      "Kositcin": 4543,
      "inas": 4544,
      "thon": 4545,
      "Ġplain": 4546,
      "Ġdeltaic": 4547,
      "Ġaeolian": 4548,
      "ĠTable": 4549,
      "Ġwelded": 4550,
      "ĠAges": 4551,
      "osity": 4552,
      "ĠWarra": 4553,
      "ĠHor": 4554,
      "Ġ2023": 4555,
      "ĠCoast": 4556,
      "endix": 4557,
      "nera": 4558,
      "Ġerosional": 4559,
      "âĢĻ": 4560,
      "Ġproperty": 4561,
      "Ġcompared": 4562,
      "ĠJurassic": 4563,
      "LE": 4564,
      "az": 4565,
      "ape": 4566,
      "bs": 4567,
      "fac": 4568,
      "glomerate": 4569,
      "ja": 4570,
      "plain": 4571,
      "wyn": 4572,
      "arch": 4573,
      "ĠMbr": 4574,
      "ĠSch": 4575,
      "ĠFelsic": 4576,
      "igen": 4577,
      "Ġalb": 4578,
      "ĠIts": 4579,
      "ĠMap": 4580,
      "ĠMapped": 4581,
      "ickman": 4582,
      "Ġ33": 4583,
      "Ġsoutheastern": 4584,
      "rystic": 4585,
      "Ġdisp": 4586,
      "Ġ134": 4587,
      "Ġdips": 4588,
      "laggy": 4589,
      "Ġcalcarenite": 4590,
      "Ġsyenogranite": 4591,
      "ĠUnderlain": 4592,
      "....": 4593,
      "pentinite": 4594,
      "northwest": 4595,
      "ĠClarence": 4596,
      "ĠGSV": 4597,
      "Ġspecies": 4598,
      "avenport": 4599,
      "01": 4600,
      "Re": 4601,
      "det": 4602,
      "eet": 4603,
      "nary": 4604,
      "edge": 4605,
      "Ġmac": 4606,
      "ĠMiocene": 4607,
      "ĠDu": 4608,
      "Ġnames": 4609,
      "ĠNeef": 4610,
      "ogran": 4611,
      "ĠWind": 4612,
      "ĠEp": 4613,
      "Ġvalley": 4614,
      "ĠKid": 4615,
      "quartzite": 4616,
      "ĠJul": 4617,
      "Ġmetal": 4618,
      "ismic": 4619,
      "ritus": 4620,
      "Ġcorrelations": 4621,
      "ĠSupersedes": 4622,
      "Ġconsider": 4623,
      "ĠConsid": 4624,
      "Ġironstone": 4625,
      "Ġcleaved": 4626,
      "corpor": 4627,
      "Ġargill": 4628,
      "ĠLamboo": 4629,
      "91": 4630,
      "oole": 4631,
      "itter": 4632,
      "ester": 4633,
      "asing": 4634,
      "ĠSmall": 4635,
      "ĠTor": 4636,
      "Ġlam": 4637,
      "ĠHar": 4638,
      "Ġdeg": 4639,
      "pson": 4640,
      "ĠKimberley": 4641,
      "ells": 4642,
      "Ġabandoned": 4643,
      "Ġstorm": 4644,
      "ordon": 4645,
      "Ġnoted": 4646,
      "Ġ1984": 4647,
      "1987": 4648,
      "Ġtecton": 4649,
      "Ġtrue": 4650,
      "Ġbelong": 4651,
      "ooka": 4652,
      "Ġgroups": 4653,
      "ĠCampbell": 4654,
      "Ġdistinguishing": 4655,
      "ĠNegri": 4656,
      "ĠX": 4657,
      "alus": 4658,
      "Ġfig": 4659,
      "Ġgently": 4660,
      "urally": 4661,
      "very": 4662,
      "ĠDavenport": 4663,
      "igg": 4664,
      "ĠII": 4665,
      "ĠEr": 4666,
      "eman": 4667,
      "ĠKan": 4668,
      "Ġ37": 4669,
      "dey": 4670,
      "isspelt": 4671,
      "Ġfinely": 4672,
      "Ġdip": 4673,
      "ĠSeveral": 4674,
      "Ġsignificantly": 4675,
      "Ġemplaced": 4676,
      "ĠMicrogranite": 4677,
      "Moreton": 4678,
      "ĠRepresents": 4679,
      "aean": 4680,
      "ias": 4681,
      "iers": 4682,
      "ergy": 4683,
      "atta": 4684,
      "aring": 4685,
      "aria": 4686,
      "Ġbreak": 4687,
      "ĠGy": 4688,
      "ĠGoulburn": 4689,
      "stra": 4690,
      "Ġaug": 4691,
      "ĠTam": 4692,
      "ĠFanning": 4693,
      "ĠBel": 4694,
      "ĠRare": 4695,
      "ĠDon": 4696,
      "Ġhad": 4697,
      "Ġreach": 4698,
      "Ġdeeper": 4699,
      "Ġcomb": 4700,
      "Ġenergy": 4701,
      "ĠArthur": 4702,
      "1985": 4703,
      "1989": 4704,
      "Ġadamellite": 4705,
      "Ġelements": 4706,
      "Ġcores": 4707,
      "Ġstudies": 4708,
      "Ġobsc": 4709,
      "Ġhiatuses": 4710,
      "Ġdoes": 4711,
      "Ġrapid": 4712,
      "450": 4713,
      "900": 4714,
      "AP": 4715,
      "gie": 4716,
      "yne": 4717,
      "Ġinc": 4718,
      "Ġpyroxene": 4719,
      "Ġaer": 4720,
      "ĠBer": 4721,
      "ĠOne": 4722,
      "umber": 4723,
      "Ġvary": 4724,
      "opes": 4725,
      "Ġorgan": 4726,
      "ayrun": 4727,
      "Ġ68": 4728,
      "Ġ700": 4729,
      "Ġdetritus": 4730,
      "agmatic": 4731,
      "plit": 4732,
      "woona": 4733,
      "Ġ1961": 4734,
      "1996": 4735,
      "Ġ1985": 4736,
      "Ġclayey": 4737,
      "ĠPlot": 4738,
      "ogeneous": 4739,
      "ĠOnly": 4740,
      "Ġflood": 4741,
      "ĠBenmara": 4742,
      "curs": 4743,
      "Ġblue": 4744,
      "Ġdirectly": 4745,
      "ĠStratigraphic": 4746,
      "Ġperiod": 4747,
      "ayrunnera": 4748,
      "The": 4749,
      "loc": 4750,
      "samm": 4751,
      "ĠSedimentary": 4752,
      "Ġpyrite": 4753,
      "rath": 4754,
      "ĠLang": 4755,
      "iding": 4756,
      "Ġhy": 4757,
      "ĠMafic": 4758,
      "Ġret": 4759,
      "utite": 4760,
      "ĠBased": 4761,
      "Ġbefore": 4762,
      "ĠGeochem": 4763,
      "Ġvia": 4764,
      "ĠOff": 4765,
      "arby": 4766,
      "ĠSubd": 4767,
      "Ġ133": 4768,
      "Ġ136": 4769,
      "Ġsmaller": 4770,
      "ĠParent": 4771,
      "ceptib": 4772,
      "Ġmigmatitic": 4773,
      "Ġcomprise": 4774,
      "anmi": 4775,
      "olidated": 4776,
      "Ġavailable": 4777,
      "Doug": 4778,
      "Wal": 4779,
      "cent": 4780,
      "iple": 4781,
      "pro": 4782,
      "rick": 4783,
      "Ġ/": 4784,
      "Ġqtz": 4785,
      "atataka": 4786,
      "ended": 4787,
      "Ġmylon": 4788,
      "Ġpot": 4789,
      "ĠGA": 4790,
      "Ġdun": 4791,
      "ĠBurra": 4792,
      "ida": 4793,
      "artin": 4794,
      "phire": 4795,
      "ota": 4796,
      "Ġvarian": 4797,
      "Ġupl": 4798,
      "Ġgeology": 4799,
      "ophyre": 4800,
      "Ġslope": 4801,
      "Ġschists": 4802,
      "Ġplaced": 4803,
      "ĠRedefined": 4804,
      "mbay": 4805,
      "ĠMurchison": 4806,
      "Ġmonzonite": 4807,
      "ĠBuaraba": 4808,
      "Ġsericite": 4809,
      "Ġoffshore": 4810,
      "IEB": 4811,
      "Ġtowns": 4812,
      "Ġcycles": 4813,
      "Ġroughly": 4814,
      "Ġmantle": 4815,
      "inasleigh": 4816,
      "includ": 4817,
      "itut": 4818,
      "Ġinher": 4819,
      "etre": 4820,
      "ĠTa": 4821,
      "imm": 4822,
      "ĠDDH": 4823,
      "abile": 4824,
      "ĠWer": 4825,
      "ĠWol": 4826,
      "ĠIll": 4827,
      "ĠHay": 4828,
      "Ġseen": 4829,
      "Ġsubaerial": 4830,
      "ĠAlong": 4831,
      "eraluminous": 4832,
      "amba": 4833,
      "ĠAnakie": 4834,
      "1983": 4835,
      "ollis": 4836,
      "Ġjust": 4837,
      "Ġdeeply": 4838,
      "northeast": 4839,
      "Ġinflu": 4840,
      "Ġoccurrence": 4841,
      "Ġoccurrences": 4842,
      "ĠTomkinson": 4843,
      "Ġsecondary": 4844,
      "Ġstage": 4845,
      "Ġproportion": 4846,
      "ĠConsidered": 4847,
      "Glen": 4848,
      "IB": 4849,
      "ION": 4850,
      "Sweet": 4851,
      "ject": 4852,
      "enced": 4853,
      "Ġaverage": 4854,
      "rah": 4855,
      "hea": 4856,
      "igator": 4857,
      "Ġcontr": 4858,
      "Ġonshore": 4859,
      "Ġ32": 4860,
      "ĠSharp": 4861,
      "Ġsources": 4862,
      "arks": 4863,
      "inae": 4864,
      "2003": 4865,
      "2006": 4866,
      "1999": 4867,
      "ophysics": 4868,
      "ydon": 4869,
      "ĠRestricted": 4870,
      "Ġtransgression": 4871,
      "Ġamounts": 4872,
      "maden": 4873,
      "ĠCharacterised": 4874,
      "ĠYouanmi": 4875,
      "Ġrenamed": 4876,
      "bank": 4877,
      "eric": 4878,
      "ĠMe": 4879,
      "ĠMo": 4880,
      "ĠCur": 4881,
      "ĠSA": 4882,
      "ĠTow": 4883,
      "ilee": 4884,
      "Ġlenticular": 4885,
      "ĠRem": 4886,
      "ĠNon": 4887,
      "ĠHall": 4888,
      "Ġsea": 4889,
      "Ġshor": 4890,
      "ĠDead": 4891,
      "Ġdisconformity": 4892,
      "ynolds": 4893,
      "ĠMarl": 4894,
      "Ġmicrocline": 4895,
      "Ġconodont": 4896,
      "ĠPaleoproterozoic": 4897,
      "southwest": 4898,
      "Ġmigmatite": 4899,
      "Ġnearby": 4900,
      "iebo": 4901,
      "Ġgranitoids": 4902,
      "ĠMonzodiorite": 4903,
      "ĠChew": 4904,
      "ĠGunnedah": 4905,
      "Ġanomalies": 4906,
      "Br": 4907,
      "LAT": 4908,
      "ely": 4909,
      "glacial": 4910,
      "ked": 4911,
      "mm": 4912,
      "uran": 4913,
      "won": 4914,
      "inch": 4915,
      "ĠMond": 4916,
      "Ġpass": 4917,
      "Ġdra": 4918,
      "Ġaure": 4919,
      "Ġ116": 4920,
      "Ġlittle": 4921,
      "amma": 4922,
      "ĠPotential": 4923,
      "ividual": 4924,
      "astems": 4925,
      "seud": 4926,
      "aves": 4927,
      "Ġchlor": 4928,
      "Ġ56": 4929,
      "ermal": 4930,
      "lates": 4931,
      "Ġ131": 4932,
      "ourse": 4933,
      "ĠWhit": 4934,
      "Ġ142": 4935,
      "ottled": 4936,
      "ĠPlumb": 4937,
      "ĠWyloo": 4938,
      "Ġacid": 4939,
      "Ġoccasional": 4940,
      "ĠPrecambrian": 4941,
      "Ġundulating": 4942,
      "Ġsusceptib": 4943,
      "alkaline": 4944,
      "Ġmacro": 4945,
      "\",": 4946,
      "81": 4947,
      "feldspathic": 4948,
      "mere": 4949,
      "oat": 4950,
      "plagioclase": 4951,
      "ring": 4952,
      "yer": 4953,
      "Ġoolitic": 4954,
      "Ġflaggy": 4955,
      "ĠTi": 4956,
      "ĠBI": 4957,
      "ĠBoth": 4958,
      "ele": 4959,
      "ĠPalyn": 4960,
      "ĠLy": 4961,
      "ĠLou": 4962,
      "ĠND": 4963,
      "ĠWonn": 4964,
      "iana": 4965,
      "rell": 4966,
      "Ġ65": 4967,
      "ĠJer": 4968,
      "Ġenrich": 4969,
      "Ġresult": 4970,
      "ĠExtens": 4971,
      "aines": 4972,
      "ainter": 4973,
      "Ġrecent": 4974,
      "ronous": 4975,
      "Ġelement": 4976,
      "Ġaggreg": 4977,
      "ĠRobert": 4978,
      "Ġlimited": 4979,
      "Ġapparent": 4980,
      "Ġtabular": 4981,
      "thorpe": 4982,
      "ĠTypically": 4983,
      "150": 4984,
      "Ge": 4985,
      "IS": 4986,
      "Lat": 4987,
      "Un": 4988,
      "banded": 4989,
      "da": 4990,
      "ditional": 4991,
      "anford": 4992,
      "andan": 4993,
      "Ġthem": 4994,
      "ĠSun": 4995,
      "ĠSaint": 4996,
      "ilm": 4997,
      "ĠBarn": 4998,
      "ĠBitter": 4999,
      "ĠPainter": 5000,
      "ĠAral": 5001,
      "ĠLoch": 5002,
      "Ġnorm": 5003,
      "illed": 5004,
      "ĠKayrunnera": 5005,
      "derson": 5006,
      "ivers": 5007,
      "ĠAlroy": 5008,
      "Ġcontemporaneous": 5009,
      "ĠStan": 5010,
      "Ġassociation": 5011,
      "ritten": 5012,
      "Ġplateau": 5013,
      "oldiers": 5014,
      "Ġusually": 5015,
      "Ġregionally": 5016,
      "Ġrhyodacite": 5017,
      "ettle": 5018,
      "Ġclear": 5019,
      "Ġproduced": 5020,
      "ĠAlligator": 5021,
      "ĠDiastems": 5022,
      "Ġdeterminations": 5023,
      "Ġspectra": 5024,
      "ĠCarrara": 5025,
      "Ġauthors": 5026,
      "Ġvesicular": 5027,
      "ii": 5028,
      "ram": 5029,
      "uhedral": 5030,
      "aringa": 5031,
      "Ġthins": 5032,
      "Ġsyncline": 5033,
      "Ġdomin": 5034,
      "ĠBook": 5035,
      "ingate": 5036,
      "imanite": 5037,
      "urg": 5038,
      "idwood": 5039,
      "Ġarkose": 5040,
      "lad": 5041,
      "ĠEocene": 5042,
      "umice": 5043,
      "ĠVol": 5044,
      "adoon": 5045,
      "ĠKn": 5046,
      "ĠKatherine": 5047,
      "ibner": 5048,
      "Ġgreater": 5049,
      "Ġresemb": 5050,
      "agery": 5051,
      "oorlie": 5052,
      "Ġ138": 5053,
      "Ġ1800": 5054,
      "ĠIntersected": 5055,
      "errick": 5056,
      "Ġsuccessions": 5057,
      "Ġtrachy": 5058,
      "burton": 5059,
      "mpie": 5060,
      "veloped": 5061,
      "Ġfract": 5062,
      "ĠPerc": 5063,
      "ĠGeorgetown": 5064,
      "ĠParish": 5065,
      "Ġgeochronological": 5066,
      "ĠMesozoic": 5067,
      "ergold": 5068,
      "algoorlie": 5069,
      "ĠClaystone": 5070,
      "Ġconfirm": 5071,
      "Ġearliest": 5072,
      "graphic": 5073,
      "ibrary": 5074,
      "ĠAbbott": 5075,
      "aragneiss": 5076,
      "Ġnodules": 5077,
      "ĠStrongly": 5078,
      "nostic": 5079,
      "Ġargillaceous": 5080,
      "Wood": 5081,
      "bes": 5082,
      "calc": 5083,
      "ft": 5084,
      "rist": 5085,
      "uree": 5086,
      "Ġbival": 5087,
      "ĠShear": 5088,
      "ĠRI": 5089,
      "ĠLud": 5090,
      "ĠLimb": 5091,
      "abl": 5092,
      "Ġhyp": 5093,
      "laps": 5094,
      "Ġmax": 5095,
      "Ġrises": 5096,
      "Ġbecom": 5097,
      "ĠInferred": 5098,
      "Ġbasic": 5099,
      "Ġexclud": 5100,
      "Ġintertidal": 5101,
      "section": 5102,
      "Ġ52": 5103,
      "Ġdistal": 5104,
      "Ġphotographs": 5105,
      "arnock": 5106,
      "Ġclass": 5107,
      "Ġcompositions": 5108,
      "inni": 5109,
      "ĠOlary": 5110,
      "Ġsheared": 5111,
      "Ġintraclast": 5112,
      "Ġbreccias": 5113,
      "ĠREE": 5114,
      "Ġtransgressive": 5115,
      "ĠInformal": 5116,
      "ĠDenison": 5117,
      "Ġdiagram": 5118,
      "Ġtiming": 5119,
      "ĠUltramafic": 5120,
      "ĠBIF": 5121,
      "GE": 5122,
      "We": 5123,
      "cell": 5124,
      "ued": 5125,
      "van": 5126,
      "onk": 5127,
      "inted": 5128,
      "itial": 5129,
      "Ġmoll": 5130,
      "Ġmult": 5131,
      "Ġmixed": 5132,
      "ĠMund": 5133,
      "ola": 5134,
      "Ġpsamm": 5135,
      "Ġfac": 5136,
      "Ġ129": 5137,
      "elia": 5138,
      "ĠOpik": 5139,
      "Ġeach": 5140,
      "ogson": 5141,
      "ĠIr": 5142,
      "otte": 5143,
      "astrop": 5144,
      "ĠDeformed": 5145,
      "Ġgreat": 5146,
      "Ġstock": 5147,
      "aminaby": 5148,
      "Ġ1977": 5149,
      "ĠCorrelates": 5150,
      "Ġvariations": 5151,
      "ĠClon": 5152,
      "ipps": 5153,
      "ittieb": 5154,
      "Ġcompositional": 5155,
      "Ġcolum": 5156,
      "ĠDescribed": 5157,
      "ĠMountains": 5158,
      "Ġterrain": 5159,
      "Ġappearance": 5160,
      "ĠFairy": 5161,
      "ĠFitzroy": 5162,
      "Ġkaol": 5163,
      "Ġunpublished": 5164,
      "Ġtownship": 5165,
      "ittiebah": 5166,
      "%)": 5167,
      "Cu": 5168,
      "gu": 5169,
      "jara": 5170,
      "iner": 5171,
      "atures": 5172,
      "arg": 5173,
      "aro": 5174,
      "aled": 5175,
      "ĠMut": 5176,
      "ĠCen": 5177,
      "omes": 5178,
      "ĠPi": 5179,
      "ĠEuc": 5180,
      "ĠGeos": 5181,
      "neck": 5182,
      "crop": 5183,
      "angaroo": 5184,
      "Ġslopes": 5185,
      "ĠWillara": 5186,
      "portant": 5187,
      "Ġfaun": 5188,
      "ĠPlateau": 5189,
      "ĠCorb": 5190,
      "ostratotype": 5191,
      "Ġtrilobite": 5192,
      "fossils": 5193,
      "Ġbrecciated": 5194,
      "ĠEmu": 5195,
      "ĠArchaean": 5196,
      "Ġfluviatile": 5197,
      "olution": 5198,
      "Ġglauconitic": 5199,
      "ĠGympie": 5200,
      "Dougall": 5201,
      "ippsland": 5202,
      "07": 5203,
      "bah": 5204,
      "col": 5205,
      "equ": 5206,
      "onym": 5207,
      "aran": 5208,
      "encl": 5209,
      "ĠMol": 5210,
      "Ġpav": 5211,
      "ĠGood": 5212,
      "ĠToko": 5213,
      "ilite": 5214,
      "ĠBa": 5215,
      "ĠBarr": 5216,
      "ĠOak": 5217,
      "Ġeuhedral": 5218,
      "Ġhis": 5219,
      "ĠHUC": 5220,
      "elling": 5221,
      "ensis": 5222,
      "ĠCob": 5223,
      "ĠCoeval": 5224,
      "angle": 5225,
      "bbles": 5226,
      "prise": 5227,
      "Ġwhereas": 5228,
      "Ġcrystalline": 5229,
      "Ġmetasandstone": 5230,
      "coota": 5231,
      "ĠDiam": 5232,
      "ICPMS": 5233,
      "nalta": 5234,
      "Ġreworked": 5235,
      "ĠCommonly": 5236,
      "ĠRIVER": 5237,
      "curra": 5238,
      "gp": 5239,
      "metamorph": 5240,
      "uka": 5241,
      "zie": 5242,
      "ands": 5243,
      "Ġbioc": 5244,
      "ĠCut": 5245,
      "ĠCREE": 5246,
      "unds": 5247,
      "ĠGordon": 5248,
      "station": 5249,
      "ĠTb": 5250,
      "ĠFraser": 5251,
      "ĠPle": 5252,
      "ĠPink": 5253,
      "ĠWidespread": 5254,
      "Ġoverpr": 5255,
      "ĠKalgoorlie": 5256,
      "related": 5257,
      "Ġlowermost": 5258,
      "ĠCopper": 5259,
      "ratidal": 5260,
      "ĠGranitic": 5261,
      "Ġextrem": 5262,
      "Ġmineralogy": 5263,
      "inka": 5264,
      "burg": 5265,
      "ĠFaulted": 5266,
      "organ": 5267,
      "ĠBroome": 5268,
      "Ġbouldery": 5269,
      "eltawon": 5270,
      "Ġglaciation": 5271,
      "Ġmonzodiorite": 5272,
      "ĠForest": 5273,
      "Ġactivity": 5274,
      "Ġextrusive": 5275,
      "Ġpyroclastic": 5276,
      "Ġexhib": 5277,
      "Ġaeromagnetic": 5278,
      "ĠRobertson": 5279,
      "ĠCREEK": 5280,
      "eltawongee": 5281,
      "uy": 5282,
      "rounds": 5283,
      "Ġbath": 5284,
      "Ġcrin": 5285,
      "ĠMore": 5286,
      "ĠMack": 5287,
      "ĠCy": 5288,
      "Ġpor": 5289,
      "ĠGippsland": 5290,
      "stock": 5291,
      "ilomet": 5292,
      "ilutite": 5293,
      "ĠFurther": 5294,
      "ĠBun": 5295,
      "ĠBlake": 5296,
      "omencl": 5297,
      "rad": 5298,
      "ĠLyn": 5299,
      "Ġholes": 5300,
      "ĠHart": 5301,
      "Ġvit": 5302,
      "Ġexce": 5303,
      "Ġlocations": 5304,
      "Ġwhile": 5305,
      "pric": 5306,
      "Ġkilomet": 5307,
      "Ġ74": 5308,
      "ĠArgy": 5309,
      "imbr": 5310,
      "1800": 5311,
      "Ġdiscord": 5312,
      "Ġrepresenting": 5313,
      "coyne": 5314,
      "Ġdescriptions": 5315,
      "otentially": 5316,
      "Ġlithologically": 5317,
      "Ġhydrothermal": 5318,
      "ĠMostly": 5319,
      "ĠBraidwood": 5320,
      "Ġaffected": 5321,
      "ĠPorphyritic": 5322,
      "Ġinclusions": 5323,
      "ĠPertatataka": 5324,
      "Ġlaminae": 5325,
      "ĠChewings": 5326,
      ".-": 5327,
      "Ed": 5328,
      "New": 5329,
      "dis": 5330,
      "fe": 5331,
      "ient": 5332,
      "sorted": 5333,
      "ĠmE": 5334,
      "ĠCran": 5335,
      "Ġpseud": 5336,
      "Ġdiss": 5337,
      "Ġdifferentiated": 5338,
      "ĠTin": 5339,
      "ĠFly": 5340,
      "Ġ115": 5341,
      "ĠPed": 5342,
      "ĠPac": 5343,
      "ĠAL": 5344,
      "osic": 5345,
      "ranend": 5346,
      "Ġuniform": 5347,
      "ĠObs": 5348,
      "trial": 5349,
      "ĠWatt": 5350,
      "ĠEaraheedy": 5351,
      "emon": 5352,
      "romine": 5353,
      "Ġattribut": 5354,
      "ĠInd": 5355,
      "ĠKranend": 5356,
      "restrial": 5357,
      "ĠYarra": 5358,
      "ĠSte": 5359,
      "laty": 5360,
      "Ġregr": 5361,
      "Ġphosph": 5362,
      "Ġcherty": 5363,
      "Ġlatest": 5364,
      "ĠWild": 5365,
      "Ġhematite": 5366,
      "ĠWyatt": 5367,
      "allah": 5368,
      "bris": 5369,
      "Ġvalleys": 5370,
      "Ġreservoirs": 5371,
      "chean": 5372,
      "Ġalternating": 5373,
      "ĠKalkadoon": 5374,
      "faces": 5375,
      "ĠKidson": 5376,
      "alusite": 5377,
      "Ġinherited": 5378,
      "ĠKranendonk": 5379,
      "09": 5380,
      "aid": 5381,
      "gran": 5382,
      "me": 5383,
      "pons": 5384,
      "view": 5385,
      "ĠGras": 5386,
      "ĠFl": 5387,
      "ĠBal": 5388,
      "Ġ1200": 5389,
      "ocy": 5390,
      "Ġhosts": 5391,
      "ĠNear": 5392,
      "ĠNelson": 5393,
      "otal": 5394,
      "Ġseismic": 5395,
      "riable": 5396,
      "Ġbeach": 5397,
      "cher": 5398,
      "ayth": 5399,
      "ediment": 5400,
      "arah": 5401,
      "unda": 5402,
      "Ġ77": 5403,
      "1962": 5404,
      "Ġintrusives": 5405,
      "Ġdiscrete": 5406,
      "Ġschistose": 5407,
      "Ġfeature": 5408,
      "ĠSandstones": 5409,
      "Ġsupratidal": 5410,
      "continu": 5411,
      "Ġflank": 5412,
      "Ġvariety": 5413,
      "ĠMitchiebo": 5414,
      "ĠGascoyne": 5415,
      "Ġsubdivision": 5416,
      "Ġshoreline": 5417,
      "Au": 5418,
      "Cor": 5419,
      "El": 5420,
      "KIT": 5421,
      "described": 5422,
      "ning": 5423,
      "side": 5424,
      "ication": 5425,
      "ĠMer": 5426,
      "ĠMGA": 5427,
      "olved": 5428,
      "ĠBox": 5429,
      "rag": 5430,
      "Ġgrit": 5431,
      "lea": 5432,
      "ĠDominantly": 5433,
      "ĠLakes": 5434,
      "igal": 5435,
      "ĠWinn": 5436,
      "ĠWright": 5437,
      "Ġmapp": 5438,
      "istent": 5439,
      "uby": 5440,
      "Ġcomagmatic": 5441,
      "undant": 5442,
      "Ġencl": 5443,
      "matites": 5444,
      "ĠState": 5445,
      "ĠReynolds": 5446,
      "ĠAng": 5447,
      "1500": 5448,
      "Ġcrop": 5449,
      "1990": 5450,
      "olithic": 5451,
      "intji": 5452,
      "Ġsurfaces": 5453,
      "diac": 5454,
      "ĠMetadolerite": 5455,
      "inguish": 5456,
      "AND": 5457,
      "Ġcentred": 5458,
      "ĠMagmatic": 5459,
      "Ġoccup": 5460,
      "ĠThomas": 5461,
      "albot": 5462,
      "Ġconcordia": 5463,
      "curry": 5464,
      "ĠKennedy": 5465,
      "Ġrims": 5466,
      "ĠSamphire": 5467,
      "ĠWarrawoona": 5468,
      "Ġobscured": 5469,
      "kedra": 5470,
      "ĠWonnaminta": 5471,
      "ĠHUCKIT": 5472,
      "ĠHUCKITTA": 5473,
      "540": 5474,
      "Brown": 5475,
      "IG": 5476,
      "WN": 5477,
      "bo": 5478,
      "hampton": 5479,
      "uk": 5480,
      "went": 5481,
      "atives": 5482,
      "eds": 5483,
      "ĠmN": 5484,
      "Ġtight": 5485,
      "ĠMittiebah": 5486,
      "Ġpoint": 5487,
      "Ġft": 5488,
      "aman": 5489,
      "oney": 5490,
      "ĠDuck": 5491,
      "ĠOlder": 5492,
      "ĠHen": 5493,
      "ĠEver": 5494,
      "illara": 5495,
      "adidgee": 5496,
      "ĠThorn": 5497,
      "Ġ38": 5498,
      "avolcanic": 5499,
      "developed": 5500,
      "Ġrespons": 5501,
      "ĠReid": 5502,
      "Ġ94": 5503,
      "shaped": 5504,
      "Ġrather": 5505,
      "Ġestabl": 5506,
      "ĠResdate": 5507,
      "Ġepis": 5508,
      "ĠMagnetic": 5509,
      "Ġedition": 5510,
      "Ġbroadly": 5511,
      "Ġsparsely": 5512,
      "Ġborehole": 5513,
      "Ġaquifer": 5514,
      "ĠDyke": 5515,
      "Ġshoreface": 5516,
      "ĠCupala": 5517,
      "ĠCloncurry": 5518,
      "OG": 5519,
      "See": 5520,
      "iqu": 5521,
      "ris": 5522,
      "Ġ.": 5523,
      "ench": 5524,
      "Ġmottled": 5525,
      "ĠCurra": 5526,
      "ĠTeltawongee": 5527,
      "osa": 5528,
      "ĠDOW": 5529,
      "ĠEdiac": 5530,
      "istocene": 5531,
      "ĠDef": 5532,
      "Ġ450": 5533,
      "Ġsublithic": 5534,
      "awintji": 5535,
      "aternary": 5536,
      "ports": 5537,
      "Ġyet": 5538,
      "Ġfold": 5539,
      "ĠArchean": 5540,
      "uchea": 5541,
      "ources": 5542,
      "ĠCorrelative": 5543,
      "egend": 5544,
      "Ġsilica": 5545,
      "Ġparent": 5546,
      "ĠLAWN": 5547,
      "ĠdegreesS": 5548,
      "Ġripples": 5549,
      "Ġlimit": 5550,
      "ĠPetroleum": 5551,
      "Ġreplaced": 5552,
      "Ġgranitoid": 5553,
      "Ġsphene": 5554,
      "ĠDistinct": 5555,
      "ĠHutton": 5556,
      "ĠTerrace": 5557,
      "ubbly": 5558,
      "Ġalbite": 5559,
      "ogranites": 5560,
      "pricorn": 5561,
      "continued": 5562,
      "Ġmappable": 5563,
      "ĠDOWNS": 5564,
      "Early": 5565,
      "siltstone": 5566,
      "Ġuran": 5567,
      "alin": 5568,
      "Ġsite": 5569,
      "istern": 5570,
      "Ġbottom": 5571,
      "Ġcorn": 5572,
      "ĠMan": 5573,
      "ĠSI": 5574,
      "Ġperaluminous": 5575,
      "ĠPack": 5576,
      "rant": 5577,
      "ĠRow": 5578,
      "Ġundeformed": 5579,
      "Ġconfined": 5580,
      "ĠHer": 5581,
      "otite": 5582,
      "illing": 5583,
      "Ġthicker": 5584,
      "Ġorder": 5585,
      "ibb": 5586,
      "Ġforamin": 5587,
      "ĠCobb": 5588,
      "Ġ750": 5589,
      "Ġunderlie": 5590,
      "latina": 5591,
      "ĠRef": 5592,
      "ungle": 5593,
      "Ġimagery": 5594,
      "ĠExpos": 5595,
      "orsayth": 5596,
      "Ġconstraints": 5597,
      "ĠSurprise": 5598,
      "ĠWarris": 5599,
      "Ġfollowed": 5600,
      "Ġhalite": 5601,
      "borne": 5602,
      "appell": 5603,
      "Carter": 5604,
      "ĠCalver": 5605,
      "ĠOldest": 5606,
      "Ġcoarser": 5607,
      "Ġbivalves": 5608,
      "Bri": 5609,
      "Pl": 5610,
      "Wall": 5611,
      "mer": 5612,
      "ns": 5613,
      "ops": 5614,
      "pet": 5615,
      "with": 5616,
      "ĠMid": 5617,
      "ĠSoldiers": 5618,
      "olly": 5619,
      "Ġdelta": 5620,
      "ĠTalbot": 5621,
      "Ġlap": 5622,
      "upted": 5623,
      "Ġgastrop": 5624,
      "ĠLater": 5625,
      "cean": 5626,
      "ĠEtheridge": 5627,
      "ĠEinasleigh": 5628,
      "Ġdebris": 5629,
      "ĠVan": 5630,
      "ĠKy": 5631,
      "ĠKal": 5632,
      "Ġ39": 5633,
      "Ġquartzofeldspathic": 5634,
      "Ġgranular": 5635,
      "ĠAlmaden": 5636,
      "Ġdisconformable": 5637,
      "angular": 5638,
      "2004": 5639,
      "indi": 5640,
      "arsen": 5641,
      "2600": 5642,
      "Ġaged": 5643,
      "Ġextension": 5644,
      "Ġshowing": 5645,
      "ĠUnderlying": 5646,
      "ERM": 5647,
      "Ġortho": 5648,
      "ĠdegreesE": 5649,
      "galia": 5650,
      "Ġdirection": 5651,
      "Ġincreasing": 5652,
      "umpi": 5653,
      "ĠRichards": 5654,
      "Ġcliffs": 5655,
      "foliated": 5656,
      "Ġsulf": 5657,
      "ĠMonday": 5658,
      "520": 5659,
      "BUR": 5660,
      "Red": 5661,
      "deltaic": 5662,
      "garnet": 5663,
      "iol": 5664,
      "log": 5665,
      "rupt": 5666,
      "wford": 5667,
      "atson": 5668,
      "arst": 5669,
      "Ġtones": 5670,
      "ĠMurr": 5671,
      "unction": 5672,
      "sten": 5673,
      "Ġaerial": 5674,
      "ĠBound": 5675,
      "elite": 5676,
      "rap": 5677,
      "ĠAP": 5678,
      "abie": 5679,
      "ability": 5680,
      "tral": 5681,
      "ĠNum": 5682,
      "ĠNimb": 5683,
      "irc": 5684,
      "odal": 5685,
      "Ġrift": 5686,
      "Ġ360": 5687,
      "ĠJell": 5688,
      "Ġmetadolerite": 5689,
      "Ġintensity": 5690,
      "lied": 5691,
      "ungsten": 5692,
      "Ġ86": 5693,
      "Ġphot": 5694,
      "Ġprec": 5695,
      "yrob": 5696,
      "ĠAdaminaby": 5697,
      "ĠCroydon": 5698,
      "Ġidentical": 5699,
      "Ġplutonic": 5700,
      "ĠElkedra": 5701,
      "Ġaffinity": 5702,
      "ĠMonte": 5703,
      "Ġdetermination": 5704,
      "aspilite": 5705,
      "ĠMullera": 5706,
      "Ġexploration": 5707,
      "Photograph": 5708,
      "ĠModerate": 5709,
      "Ġlarger": 5710,
      "Ġconcentr": 5711,
      "ĠHardey": 5712,
      "including": 5713,
      "Ġaureole": 5714,
      "ĠBookingarra": 5715,
      "Ġmollusc": 5716,
      "metamorphosed": 5717,
      "Ġcorner": 5718,
      "Ad": 5719,
      "Ro": 5720,
      "han": 5721,
      "haw": 5722,
      "mark": 5723,
      "icarn": 5724,
      "eny": 5725,
      "enites": 5726,
      "Ġclays": 5727,
      "Ġincorpor": 5728,
      "ĠSpe": 5729,
      "Ġparagneiss": 5730,
      "ĠGnalta": 5731,
      "Ġdiffer": 5732,
      "ĠTent": 5733,
      "ils": 5734,
      "ĠPinn": 5735,
      "Ġgener": 5736,
      "Ġgeneral": 5737,
      "imens": 5738,
      "ĠOil": 5739,
      "irini": 5740,
      "illion": 5741,
      "Ġpartially": 5742,
      "graded": 5743,
      "deposit": 5744,
      "Ġcobbles": 5745,
      "lacustrine": 5746,
      "arak": 5747,
      "Ġ59": 5748,
      "Ġsubs": 5749,
      "Ġsubmarine": 5750,
      "Ġsubtidal": 5751,
      "ainozoic": 5752,
      "liz": 5753,
      "Ġplug": 5754,
      "igraphy": 5755,
      "2007": 5756,
      "Ġimportant": 5757,
      "Ġabundance": 5758,
      "Ġerupt": 5759,
      "ĠGravel": 5760,
      "ennard": 5761,
      "uchope": 5762,
      "Ġheavy": 5763,
      "Ġproduc": 5764,
      "oota": 5765,
      "formational": 5766,
      "Ġmegacrysts": 5767,
      "Devonian": 5768,
      "ĠGalilee": 5769,
      "Ġfractionated": 5770,
      "omenclature": 5771,
      "icarndy": 5772,
      "Qu": 5773,
      "Sta": 5774,
      "castle": 5775,
      "arine": 5776,
      "reg": 5777,
      "Ġtit": 5778,
      "ĠCainozoic": 5779,
      "Ġfer": 5780,
      "ila": 5781,
      "ĠBut": 5782,
      "Ġ110": 5783,
      "ĠPass": 5784,
      "ĠPogson": 5785,
      "ĠRAN": 5786,
      "Ġisochron": 5787,
      "ĠDal": 5788,
      "Ġhol": 5789,
      "Ġhard": 5790,
      "udd": 5791,
      "ĠNNW": 5792,
      "uts": 5793,
      "Ġrubbly": 5794,
      "ĠKangaroo": 5795,
      "Ġore": 5796,
      "Ġorange": 5797,
      "aving": 5798,
      "ryozo": 5799,
      "weather": 5800,
      "ĠQuaternary": 5801,
      "ĠArc": 5802,
      "asey": 5803,
      "Ġcorrelatives": 5804,
      "eneena": 5805,
      "Ġindist": 5806,
      "Ġrelief": 5807,
      "Ġvariation": 5808,
      "Ġpinkish": 5809,
      "Ġignimbr": 5810,
      "Ġfair": 5811,
      "unning": 5812,
      "Ġabsence": 5813,
      "enberg": 5814,
      "asterton": 5815,
      "Ġchannels": 5816,
      "ĠMelbourne": 5817,
      "rangways": 5818,
      "ĠAshburton": 5819,
      "Ġbioturbated": 5820,
      "odiorites": 5821,
      "Ġcombined": 5822,
      "ĠThornton": 5823,
      "Ġuranium": 5824,
      "580": 5825,
      "Sc": 5826,
      "fall": 5827,
      "gate": 5828,
      "ky": 5829,
      "sedimentary": 5830,
      "vent": 5831,
      "yps": 5832,
      "Ġi": 5833,
      "erd": 5834,
      "ros": 5835,
      "ioneer": 5836,
      "Ġbounded": 5837,
      "Ġbryozo": 5838,
      "Ġcard": 5839,
      "ĠMorgan": 5840,
      "ĠShe": 5841,
      "ĠSug": 5842,
      "olgie": 5843,
      "Ġpubl": 5844,
      "ĠBald": 5845,
      "lected": 5846,
      "ĠRoss": 5847,
      "ĠRose": 5848,
      "imodal": 5849,
      "ĠMajor": 5850,
      "ĠHaw": 5851,
      "Ġmade": 5852,
      "otann": 5853,
      "Ġanother": 5854,
      "dee": 5855,
      "Ġnorthwards": 5856,
      "ĠShoal": 5857,
      "Ġdefine": 5858,
      "luvium": 5859,
      "Ġmodel": 5860,
      "ĠWhere": 5861,
      "Ġsiltst": 5862,
      "Ġlayer": 5863,
      "Ġsupported": 5864,
      "Ġsubduction": 5865,
      "ĠSche": 5866,
      "Ġferruginised": 5867,
      "southeast": 5868,
      "ĠLander": 5869,
      "ĠJackson": 5870,
      "Ġstored": 5871,
      "ĠLithologies": 5872,
      "Ġorganic": 5873,
      "ĠCenozoic": 5874,
      "Ġpavements": 5875,
      "inguishable": 5876,
      "02": 5877,
      "::": 5878,
      "from": 5879,
      "gow": 5880,
      "vels": 5881,
      "inton": 5882,
      "erker": 5883,
      "aree": 5884,
      "itj": 5885,
      "Ġfriable": 5886,
      "stand": 5887,
      "amurt": 5888,
      "ĠRuby": 5889,
      "ĠDav": 5890,
      "ĠDund": 5891,
      "ĠLarsen": 5892,
      "Ġeconomic": 5893,
      "ĠWarb": 5894,
      "emper": 5895,
      "odus": 5896,
      "Ġdecre": 5897,
      "ĠGeorge": 5898,
      "ieved": 5899,
      "dekin": 5900,
      "Ġmarble": 5901,
      "ovian": 5902,
      "reviated": 5903,
      "Ġindividual": 5904,
      "dipping": 5905,
      "Ġju": 5906,
      "ĠStavely": 5907,
      "ĠPeake": 5908,
      "ĠHighly": 5909,
      "Ġsubdued": 5910,
      "ĠAppendix": 5911,
      "arried": 5912,
      "ĠYoungest": 5913,
      "ĠYounger": 5914,
      "ombolgie": 5915,
      "âĢĺ": 5916,
      "ĠMonk": 5917,
      "ĠWarumpi": 5918,
      "ĠJohnn": 5919,
      "ĠCliffs": 5920,
      "ĠWauchope": 5921,
      "ĠCorner": 5922,
      "roduced": 5923,
      "supported": 5924,
      "Ġcontrast": 5925,
      "ĠGeosyncline": 5926,
      "ĠArgylla": 5927,
      "Ġresponses": 5928,
      "Con": 5929,
      "UD": 5930,
      "bi": 5931,
      "fields": 5932,
      "light": 5933,
      "oarc": 5934,
      "Ġ,": 5935,
      "erton": 5936,
      "atana": 5937,
      "arlo": 5938,
      "Ġinv": 5939,
      "ĠMen": 5940,
      "ĠSuites": 5941,
      "Ġpumice": 5942,
      "ĠGrid": 5943,
      "omati": 5944,
      "ĠPE": 5945,
      "ranup": 5946,
      "ĠLov": 5947,
      "ĠMaules": 5948,
      "Ġreef": 5949,
      "ĠHope": 5950,
      "quarie": 5951,
      "ĠUN": 5952,
      "Ġ1959": 5953,
      "ĠKilli": 5954,
      "ifting": 5955,
      "Ġ58": 5956,
      "aker": 5957,
      "Ġunderg": 5958,
      "agan": 5959,
      "ĠStromat": 5960,
      "ordill": 5961,
      "ĠChil": 5962,
      "Ġyield": 5963,
      "Ġmudrock": 5964,
      "Ġ132": 5965,
      "oona": 5966,
      "Ġtrend": 5967,
      "ĠRockhampton": 5968,
      "Ġgives": 5969,
      "degreesE": 5970,
      "Ġconstraint": 5971,
      "Ġjunction": 5972,
      "ĠEdition": 5973,
      "ĠCapricorn": 5974,
      "ĠWeak": 5975,
      "ĠBrunker": 5976,
      "ergus": 5977,
      "Ġblocky": 5978,
      "Ġdistributed": 5979,
      "Ġincrease": 5980,
      "racks": 5981,
      "Ġvolume": 5982,
      "ĠBiranup": 5983,
      "ĠMarshall": 5984,
      "Ġ0000": 5985,
      "Ġdiagnostic": 5986,
      "ĠManya": 5987,
      "ĠMallina": 5988,
      "unyah": 5989,
      "Ġuplift": 5990,
      "ĠCorbett": 5991,
      "Ġkilometres": 5992,
      "Ġforaminif": 5993,
      "Ġlapilli": 5994,
      "03": 5995,
      "180": 5996,
      "AY": 5997,
      "Mun": 5998,
      "RIN": 5999,
      "aper": 6000,
      "nian": 6001,
      "sandstone": 6002,
      "solidated": 6003,
      "inal": 6004,
      "inds": 6005,
      "arite": 6006,
      "Ġmorph": 6007,
      "Ġcasts": 6008,
      "ĠMir": 6009,
      "ĠSilic": 6010,
      "ĠSampl": 6011,
      "str": 6012,
      "elected": 6013,
      "Ġgamma": 6014,
      "Ġgyps": 6015,
      "abber": 6016,
      "abeth": 6017,
      "ĠNd": 6018,
      "ĠNote": 6019,
      "ĠNational": 6020,
      "ĠNuchea": 6021,
      "ĠEth": 6022,
      "ĠEaster": 6023,
      "Ġoverall": 6024,
      "ĠKelly": 6025,
      "ĠAlthough": 6026,
      "ooth": 6027,
      "Ġstream": 6028,
      "ffre": 6029,
      "ĠYeneena": 6030,
      "ervatory": 6031,
      "ource": 6032,
      "Ġvertical": 6033,
      "ĠCarm": 6034,
      "tectonic": 6035,
      "gressive": 6036,
      "umba": 6037,
      "Ġsignatures": 6038,
      "Ġcored": 6039,
      "ĠLocated": 6040,
      "ĠSerpentinite": 6041,
      "Ġsystems": 6042,
      "ushall": 6043,
      "Ġsporadic": 6044,
      "ĠHorse": 6045,
      "IBK": 6046,
      "ĠLouden": 6047,
      "lizabeth": 6048,
      "GSWA": 6049,
      "Mills": 6050,
      "Middle": 6051,
      "cri": 6052,
      "don": 6053,
      "late": 6054,
      "Ġes": 6055,
      "inated": 6056,
      "inia": 6057,
      "aline": 6058,
      "itoid": 6059,
      "enc": 6060,
      "ĠCaves": 6061,
      "ĠGill": 6062,
      "ĠTown": 6063,
      "Ġwood": 6064,
      "ĠFlag": 6065,
      "entially": 6066,
      "elker": 6067,
      "ĠPal": 6068,
      "ĠPost": 6069,
      "lex": 6070,
      "verg": 6071,
      "ows": 6072,
      "ĠLu": 6073,
      "trict": 6074,
      "ĠNarra": 6075,
      "ĠNgalia": 6076,
      "ĠWoor": 6077,
      "Ġ220": 6078,
      "Ġshould": 6079,
      "ĠUnknown": 6080,
      "ants": 6081,
      "lomer": 6082,
      "Ġ2021": 6083,
      "Ġabrupt": 6084,
      "Ġ42": 6085,
      "rowie": 6086,
      "ĠChrist": 6087,
      "arily": 6088,
      "1960": 6089,
      "amination": 6090,
      "Ġstratotype": 6091,
      "Ġconstitut": 6092,
      "Ġbelts": 6093,
      "ĠBurdekin": 6094,
      "Ġproduct": 6095,
      "Ġcurrently": 6096,
      "ITS": 6097,
      "aqueous": 6098,
      "goose": 6099,
      "ĠRELAT": 6100,
      "ĠPetrography": 6101,
      "Ġmegacrystic": 6102,
      "Ġentirely": 6103,
      "anganese": 6104,
      "Ġbatholith": 6105,
      "ĠScheibner": 6106,
      "amurtee": 6107,
      "ĠMonkland": 6108,
      "ĠUNITS": 6109,
      "elkerri": 6110,
      "ĠRELATED": 6111,
      "08": 6112,
      "Coll": 6113,
      "LD": 6114,
      "MO": 6115,
      "augh": 6116,
      "cs": 6117,
      "sub": 6118,
      "yle": 6119,
      "onia": 6120,
      "atton": 6121,
      "altered": 6122,
      "Ġbank": 6123,
      "ĠCamb": 6124,
      "ĠSP": 6125,
      "olworth": 6126,
      "unc": 6127,
      "ĠGard": 6128,
      "ĠTob": 6129,
      "osing": 6130,
      "Ġgave": 6131,
      "hean": 6132,
      "uri": 6133,
      "Ġisland": 6134,
      "ĠDerrick": 6135,
      "Ġeff": 6136,
      "igocene": 6137,
      "udal": 6138,
      "ĠNor": 6139,
      "ĠNarrow": 6140,
      "ĠWis": 6141,
      "ivation": 6142,
      "ĠHornblende": 6143,
      "ĠEmbay": 6144,
      "Ġrug": 6145,
      "orphyritic": 6146,
      "therly": 6147,
      "ians": 6148,
      "defined": 6149,
      "Ġchalc": 6150,
      "Ġ64": 6151,
      "xton": 6152,
      "ĠYan": 6153,
      "ĠStans": 6154,
      "ewis": 6155,
      "ambo": 6156,
      "ĠArrows": 6157,
      "Ġporphyrob": 6158,
      "135": 6159,
      "ĠMcC": 6160,
      "ooloo": 6161,
      "ĠFms": 6162,
      "ached": 6163,
      "Ġapplied": 6164,
      "Ġdrilling": 6165,
      "Ġsimilarity": 6166,
      "Ġconstituents": 6167,
      "Ġlevels": 6168,
      "maroo": 6169,
      "Ġextensional": 6170,
      "ticlin": 6171,
      "Ġmicrof": 6172,
      "ĠCarbonate": 6173,
      "Ġpercent": 6174,
      "mbric": 6175,
      "illage": 6176,
      "MGA": 6177,
      "ordinates": 6178,
      "Ġfining": 6179,
      "ĠMacquarie": 6180,
      "Ġterrestrial": 6181,
      "ARA": 6182,
      "ĠDerim": 6183,
      "ĠMarble": 6184,
      "ĠSturtian": 6185,
      "ĠTamworth": 6186,
      "ĠPercival": 6187,
      "ĠLimbunya": 6188,
      "ĠEucla": 6189,
      "ĠPleistocene": 6190,
      "Ġattributed": 6191,
      "arloaf": 6192,
      "ĠArrowsmith": 6193,
      "Ben": 6194,
      "Hickman": 6195,
      "Ne": 6196,
      "bie": 6197,
      "gle": 6198,
      "king": 6199,
      "kosic": 6200,
      "mas": 6201,
      "mudstone": 6202,
      "poor": 6203,
      "ucc": 6204,
      "ĠâĢĺ": 6205,
      "inform": 6206,
      "inoan": 6207,
      "esbury": 6208,
      "Ġandalusite": 6209,
      "Ġmeth": 6210,
      "rea": 6211,
      "Ġturn": 6212,
      "ĠMu": 6213,
      "ĠCad": 6214,
      "ĠFour": 6215,
      "ĠBor": 6216,
      "ĠByn": 6217,
      "ĠBuck": 6218,
      "ĠBarrow": 6219,
      "ĠBranch": 6220,
      "amber": 6221,
      "raf": 6222,
      "ĠLolworth": 6223,
      "Ġhilly": 6224,
      "ĠHun": 6225,
      "ulite": 6226,
      "Ġriver": 6227,
      "ĠView": 6228,
      "Ġshort": 6229,
      "inski": 6230,
      "Ġ2025": 6231,
      "2015": 6232,
      "Ġ51": 6233,
      "angemall": 6234,
      "ĠCoor": 6235,
      "Ġmetap": 6236,
      "ĠReplac": 6237,
      "Ġyear": 6238,
      "1300": 6239,
      "ĠMcG": 6240,
      "ĠNewcastle": 6241,
      "ĠInterfingers": 6242,
      "Ġstructurally": 6243,
      "Ġrail": 6244,
      "ographic": 6245,
      "Ġcollected": 6246,
      "Ġclearly": 6247,
      "Ġcovered": 6248,
      "âĢĵ": 6249,
      "almers": 6250,
      "ĠYarrol": 6251,
      "Ġfluvio": 6252,
      "ĠInformally": 6253,
      "ĠLeucogranite": 6254,
      "ĠCarpentaria": 6255,
      "ĠOoradidgee": 6256,
      "Ġreaches": 6257,
      "Ġaggregates": 6258,
      "andanus": 6259,
      "ĠMutawintji": 6260,
      "ĠEdiacaran": 6261,
      "oarchean": 6262,
      "indsay": 6263,
      "EL": 6264,
      "Long": 6265,
      "df": 6266,
      "dates": 6267,
      "mead": 6268,
      "pole": 6269,
      "pdf": 6270,
      "wick": 6271,
      "encer": 6272,
      "rook": 6273,
      "ĠMartin": 6274,
      "ĠGir": 6275,
      "ĠLily": 6276,
      "Ġarch": 6277,
      "Ġeas": 6278,
      "ĠNam": 6279,
      "ĠNamb": 6280,
      "ĠWag": 6281,
      "Ġread": 6282,
      "law": 6283,
      "ĠHed": 6284,
      "ously": 6285,
      "rove": 6286,
      "Ġbec": 6287,
      "ĠKombolgie": 6288,
      "icho": 6289,
      "Ġlocalised": 6290,
      "Ġprof": 6291,
      "2023": 6292,
      "parallel": 6293,
      "ĠCobar": 6294,
      "awallah": 6295,
      "mature": 6296,
      "ango": 6297,
      "Ġassumed": 6298,
      "Ġmuddy": 6299,
      "imbra": 6300,
      "annot": 6301,
      "2005": 6302,
      "Ġ1640": 6303,
      "iginal": 6304,
      "ĠAmphibolite": 6305,
      "degreesS": 6306,
      "Ġamphibole": 6307,
      "common": 6308,
      "magmatic": 6309,
      "ĠGolden": 6310,
      "ĠSwamp": 6311,
      "ĠMarburg": 6312,
      "ĠAccess": 6313,
      "llawarra": 6314,
      "Ġopaque": 6315,
      "Ġsituated": 6316,
      "ĠSubdivided": 6317,
      "Ġgastropods": 6318,
      "Ġindistinguishable": 6319,
      "ĠThorntonia": 6320,
      "125": 6321,
      "Nar": 6322,
      "central": 6323,
      "course": 6324,
      "ira": 6325,
      "iate": 6326,
      "iations": 6327,
      "jat": 6328,
      "mic": 6329,
      "sw": 6330,
      "yland": 6331,
      "zinski": 6332,
      "Ġerr": 6333,
      "orne": 6334,
      "Ġocean": 6335,
      "Ġinput": 6336,
      "ĠCoo": 6337,
      "ĠSalt": 6338,
      "Ġfiss": 6339,
      "Ġwid": 6340,
      "Ġwould": 6341,
      "ĠBest": 6342,
      "Ġlabile": 6343,
      "elan": 6344,
      "igit": 6345,
      "ĠWonga": 6346,
      "ĠHarris": 6347,
      "ĠElatina": 6348,
      "ullen": 6349,
      "odacitic": 6350,
      "odzinski": 6351,
      "Ġ3000": 6352,
      "ĠYand": 6353,
      "awa": 6354,
      "agodzinski": 6355,
      "early": 6356,
      "ĠStrangways": 6357,
      "Ġgeomorphic": 6358,
      "ĠChappell": 6359,
      "ĠZn": 6360,
      "ĠSupersuites": 6361,
      "Ġ900": 6362,
      "ĠProbable": 6363,
      "Ġsurrounded": 6364,
      "Ġradio": 6365,
      "Ġremain": 6366,
      "clear": 6367,
      "Ġreworking": 6368,
      "ĠRhyodacite": 6369,
      "ĠCarpentarian": 6370,
      "ĠGilbert": 6371,
      "Ġsuperseded": 6372,
      "Green": 6373,
      "Ġpopulations": 6374,
      "Ġdisplay": 6375,
      "ĠRemarks": 6376,
      "ĠNDIBK": 6377,
      "coloured": 6378,
      "Briens": 6379,
      "Ġmolluscs": 6380,
      "Ġeffect": 6381,
      "Buck": 6382,
      "Cal": 6383,
      "Mar": 6384,
      "US": 6385,
      "ax": 6386,
      "auna": 6387,
      "dational": 6388,
      "meral": 6389,
      "nie": 6390,
      "oen": 6391,
      "sian": 6392,
      "uil": 6393,
      "ording": 6394,
      "itisation": 6395,
      "enesis": 6396,
      "Ġborder": 6397,
      "ĠCistern": 6398,
      "Ġpenet": 6399,
      "ĠBark": 6400,
      "Ġ128": 6401,
      "ingo": 6402,
      "eletal": 6403,
      "lev": 6404,
      "ĠLennard": 6405,
      "ĠOwen": 6406,
      "iga": 6407,
      "abuka": 6408,
      "Ġhom": 6409,
      "trim": 6410,
      "ĠNorn": 6411,
      "ĠEqu": 6412,
      "ĠElizabeth": 6413,
      "ummar": 6414,
      "odes": 6415,
      "ĠKul": 6416,
      "Ġrocky": 6417,
      "opf": 6418,
      "erserker": 6419,
      "ĠConod": 6420,
      "antoo": 6421,
      "Ġprocess": 6422,
      "assium": 6423,
      "issett": 6424,
      "lue": 6425,
      "ĠYard": 6426,
      "agabbro": 6427,
      "ĠStev": 6428,
      "plic": 6429,
      "ambie": 6430,
      "inage": 6431,
      "ails": 6432,
      "Ġ1780": 6433,
      "Ġdistance": 6434,
      "Ġapproxim": 6435,
      "Ġdrilled": 6436,
      "ochthon": 6437,
      "oft": 6438,
      "Ġprovides": 6439,
      "Ġagglomerate": 6440,
      "Ġseparately": 6441,
      "ĠWalter": 6442,
      "units": 6443,
      "ĠAbundant": 6444,
      "Ġresulted": 6445,
      "Ġinformation": 6446,
      "Ġoccurring": 6447,
      "ĠSwarm": 6448,
      "interpreted": 6449,
      "anmantoo": 6450,
      "Ġsubsequent": 6451,
      "Ġtabulated": 6452,
      "Ġspher": 6453,
      "ĠAccident": 6454,
      "Ġvarieties": 6455,
      "ĠPaine": 6456,
      "uwah": 6457,
      "Ġsusceptibility": 6458,
      "ĠBarnicarndy": 6459,
      "ĠAralka": 6460,
      "ettlement": 6461,
      "cellent": 6462,
      "guano": 6463,
      "Ġvitric": 6464,
      "ĠMenamurtee": 6465,
      "ummarised": 6466,
      "ĠStevens": 6467,
      "(?)": 6468,
      "Am": 6469,
      "South": 6470,
      "Willi": 6471,
      "equivalent": 6472,
      "oak": 6473,
      "ruse": 6474,
      "wan": 6475,
      "aru": 6476,
      "alia": 6477,
      "Ġthermal": 6478,
      "Ġsince": 6479,
      "rox": 6480,
      "Ġmi": 6481,
      "Ġmetam": 6482,
      "Ġcannot": 6483,
      "Ġtungsten": 6484,
      "ĠMing": 6485,
      "ĠCA": 6486,
      "ĠSplit": 6487,
      "Ġdomes": 6488,
      "ete": 6489,
      "ĠPage": 6490,
      "ĠPrin": 6491,
      "ĠRift": 6492,
      "urated": 6493,
      "ĠDivided": 6494,
      "ĠLibrary": 6495,
      "ĠNa": 6496,
      "ĠNi": 6497,
      "ĠWhe": 6498,
      "ĠWhy": 6499,
      "quir": 6500,
      "ulc": 6501,
      "berton": 6502,
      "ubble": 6503,
      "Ġbasins": 6504,
      "Ġinterm": 6505,
      "Ġquartzo": 6506,
      "Ġzoned": 6507,
      "ĠComposite": 6508,
      "Ġ63": 6509,
      "Ġ650": 6510,
      "ĠShergold": 6511,
      "Ġdistrict": 6512,
      "ĠRivers": 6513,
      "anged": 6514,
      "angala": 6515,
      "Ġmetavolcanic": 6516,
      "ewah": 6517,
      "ynd": 6518,
      "ĠRead": 6519,
      "ĠReferred": 6520,
      "lik": 6521,
      "Ġ84": 6522,
      "Ġ1600": 6523,
      "basins": 6524,
      "ĠCoalfield": 6525,
      "Ġvolcaniclastics": 6526,
      "295": 6527,
      "eyer": 6528,
      "ultz": 6529,
      "Ġaccret": 6530,
      "Ġaccumul": 6531,
      "ĠCentralian": 6532,
      "comp": 6533,
      "ĠAssociation": 6534,
      "pecially": 6535,
      "ĠRegional": 6536,
      "ĠParker": 6537,
      "Ġgeochemically": 6538,
      "Ġbrachiopod": 6539,
      "Ġprotoliths": 6540,
      "sequently": 6541,
      "reyonga": 6542,
      "Ġnormal": 6543,
      "ĠObservatory": 6544,
      "Ġyears": 6545,
      "Ġrailway": 6546,
      "ochthonous": 6547,
      "Ġaccretion": 6548,
      "06": 6549,
      "130": 6550,
      "AS": 6551,
      "Bar": 6552,
      "Donnell": 6553,
      "Par": 6554,
      "bel": 6555,
      "bella": 6556,
      "bottom": 6557,
      "fish": 6558,
      "mie": 6559,
      "ori": 6560,
      "orter": 6561,
      "along": 6562,
      "itta": 6563,
      "roll": 6564,
      "Ġcy": 6565,
      "ĠMills": 6566,
      "ĠCasey": 6567,
      "ĠSim": 6568,
      "ungee": 6569,
      "Ġfive": 6570,
      "Ġaut": 6571,
      "etian": 6572,
      "ĠTawallah": 6573,
      "ilamb": 6574,
      "ĠFran": 6575,
      "ĠFluvi": 6576,
      "elton": 6577,
      "omew": 6578,
      "ouran": 6579,
      "raction": 6580,
      "ĠAlex": 6581,
      "level": 6582,
      "ĠLIEB": 6583,
      "ĠOx": 6584,
      "igo": 6585,
      "Ġhence": 6586,
      "Ġhaving": 6587,
      "Ġ280": 6588,
      "ĠIm": 6589,
      "Ġonto": 6590,
      "Ġbearing": 6591,
      "ĠKimb": 6592,
      "Ġcomp": 6593,
      "Ġ46": 6594,
      "Ġ47": 6595,
      "2017": 6596,
      "Ġ69": 6597,
      "Ġsubst": 6598,
      "undle": 6599,
      "Ġdissected": 6600,
      "rowne": 6601,
      "Ġintroduced": 6602,
      "ĠMcDougall": 6603,
      "ĠBedding": 6604,
      "Ġplace": 6605,
      "ĠEdith": 6606,
      "ĠWyborn": 6607,
      "...": 6608,
      "Ġ2500": 6609,
      "ĠOligocene": 6610,
      "Ġintraformational": 6611,
      "ĠMyally": 6612,
      "ĠMelville": 6613,
      "etsch": 6614,
      "ĠCamden": 6615,
      "Ġjoins": 6616,
      "ĠKnob": 6617,
      "ocyath": 6618,
      "ĠDistinctive": 6619,
      "ĠSugarloaf": 6620,
      "opfner": 6621,
      "ĠLIEBIG": 6622,
      "635": 6623,
      "AMG": 6624,
      "Mul": 6625,
      "ND": 6626,
      "War": 6627,
      "bounded": 6628,
      "cip": 6629,
      "ffer": 6630,
      "gs": 6631,
      "growth": 6632,
      "uous": 6633,
      "this": 6634,
      "orama": 6635,
      "areous": 6636,
      "itidal": 6637,
      "andes": 6638,
      "Ġsix": 6639,
      "rected": 6640,
      "ĠMool": 6641,
      "ĠGlac": 6642,
      "ĠTy": 6643,
      "Ġwritten": 6644,
      "ĠBent": 6645,
      "ĠPeg": 6646,
      "ĠAreyonga": 6647,
      "Ġglass": 6648,
      "head": 6649,
      "ĠRushall": 6650,
      "ĠDominated": 6651,
      "ĠDrack": 6652,
      "Ġarkosic": 6653,
      "Ġem": 6654,
      "Ġnor": 6655,
      "Ġheter": 6656,
      "ĠNoon": 6657,
      "ĠMath": 6658,
      "Ġrepet": 6659,
      "derry": 6660,
      "Ġwhen": 6661,
      "Ġquartzites": 6662,
      "aved": 6663,
      "ĠDeformation": 6664,
      "Ġmarl": 6665,
      "Ġmaroon": 6666,
      "Ġ43": 6667,
      "Ġ48": 6668,
      "assy": 6669,
      "undred": 6670,
      "ĠJaspilite": 6671,
      "ĠYass": 6672,
      "angar": 6673,
      "grouped": 6674,
      "ĠChalmers": 6675,
      "ĠRev": 6676,
      "Ġplot": 6677,
      "2009": 6678,
      "lagoe": 6679,
      "shale": 6680,
      "Ġbelieved": 6681,
      "Ġjasper": 6682,
      "kalara": 6683,
      "yroxenite": 6684,
      "ĠSurface": 6685,
      "ĠBruce": 6686,
      "aird": 6687,
      "exposed": 6688,
      "ARR": 6689,
      "Ġaffin": 6690,
      "ĠGreenstone": 6691,
      "Ġsillimanite": 6692,
      "ĠRegionally": 6693,
      "Ġclosely": 6694,
      "ĠVariable": 6695,
      "Ġoxides": 6696,
      "ĠDrillhole": 6697,
      "ĠMitchell": 6698,
      "Ġhornfelsed": 6699,
      "aeocyath": 6700,
      "ĠDaub": 6701,
      "Ġskeletal": 6702,
      "Ġmylonitic": 6703,
      "ilmenite": 6704,
      "Ġkaolin": 6705,
      "Ġpseudomorphs": 6706,
      "Ġconcentrations": 6707,
      "Ġignimbrites": 6708,
      "ĠLoves": 6709,
      "ĠChillagoe": 6710,
      "ĠEmbayment": 6711,
      "meralda": 6712,
      "ilambone": 6713,
      "140": 6714,
      "Cross": 6715,
      "SA": 6716,
      "booka": 6717,
      "gk": 6718,
      "hen": 6719,
      "hoe": 6720,
      "tings": 6721,
      "vens": 6722,
      "wing": 6723,
      "Ġif": 6724,
      "edham": 6725,
      "ispor": 6726,
      "ĠMop": 6727,
      "ĠCaul": 6728,
      "ĠClastic": 6729,
      "Ġdemon": 6730,
      "etter": 6731,
      "ĠTre": 6732,
      "ĠForsayth": 6733,
      "ĠBurn": 6734,
      "entine": 6735,
      "Ġ125": 6736,
      "Ġlast": 6737,
      "Ġlagoon": 6738,
      "ingwood": 6739,
      "elitic": 6740,
      "elago": 6741,
      "omaly": 6742,
      "ĠRew": 6743,
      "urna": 6744,
      "Ġreport": 6745,
      "berc": 6746,
      "isting": 6747,
      "ĠKarn": 6748,
      "ĠThrust": 6749,
      "Ġshell": 6750,
      "elled": 6751,
      "ounty": 6752,
      "anton": 6753,
      "Ġchanges": 6754,
      "ĠCoon": 6755,
      "ovement": 6756,
      "ĠQld": 6757,
      "agic": 6758,
      "agle": 6759,
      "Ġ1300": 6760,
      "ĠAnd": 6761,
      "Ġthinning": 6762,
      "1850": 6763,
      "Ġ160": 6764,
      "Ġindicative": 6765,
      "ophyric": 6766,
      "Ġraised": 6767,
      "Ġtrunc": 6768,
      "ĠMarinoan": 6769,
      "ĠBrock": 6770,
      "cret": 6771,
      "Ġresulting": 6772,
      "ĠPhilli": 6773,
      "overed": 6774,
      "likely": 6775,
      "carbonate": 6776,
      "Ġalkaline": 6777,
      "Ġoccasionally": 6778,
      "Ġsporadically": 6779,
      "Ġopaques": 6780,
      "Ġskarn": 6781,
      "Ġmesas": 6782,
      "ĠGeochemical": 6783,
      "ĠMolong": 6784,
      "Ġorthoquartzite": 6785,
      "Ġplugs": 6786,
      "Ġforaminifera": 6787,
      "Ġaffinities": 6788,
      "*)": 6789,
      "?]": 6790,
      "Neef": 6791,
      "Pre": 6792,
      "Rg": 6793,
      "Warr": 6794,
      "ea": 6795,
      "hat": 6796,
      "jinni": 6797,
      "long": 6798,
      "pir": 6799,
      "porphyritic": 6800,
      "tt": 6801,
      "wich": 6802,
      "Â±": 6803,
      "Â¿": 6804,
      "inelli": 6805,
      "arct": 6806,
      "andard": 6807,
      "Ġbul": 6808,
      "Ġclu": 6809,
      "Ġcracks": 6810,
      "Ġtens": 6811,
      "ĠSi": 6812,
      "ĠGE": 6813,
      "ĠGl": 6814,
      "ĠGiv": 6815,
      "stall": 6816,
      "Ġ(<": 6817,
      "etic": 6818,
      "etts": 6819,
      "ĠTuree": 6820,
      "ĠBind": 6821,
      "ĠBilly": 6822,
      "ouch": 6823,
      "ĠPat": 6824,
      "ĠAS": 6825,
      "ĠRace": 6826,
      "oclin": 6827,
      "ĠLagoon": 6828,
      "idala": 6829,
      "ĠnT": 6830,
      "Ġalgal": 6831,
      "quit": 6832,
      "ĠEu": 6833,
      "ĠUran": 6834,
      "1952": 6835,
      "ĠKer": 6836,
      "cho": 6837,
      "ifex": 6838,
      "Ġinterfing": 6839,
      "dshaw": 6840,
      "2010": 6841,
      "Ġthicknesses": 6842,
      "ervas": 6843,
      "Ġ85": 6844,
      "ampians": 6845,
      "ĠGregory": 6846,
      "ĠCrook": 6847,
      "ĠParts": 6848,
      "ĠPartridge": 6849,
      "coarse": 6850,
      "ĠUnderwent": 6851,
      "rasnian": 6852,
      "Ġwidely": 6853,
      "Ġsampled": 6854,
      "ĠScott": 6855,
      "Ġquarry": 6856,
      "ĠWalloon": 6857,
      "ĠBullock": 6858,
      "Ġincreases": 6859,
      "Ġremn": 6860,
      "thickness": 6861,
      "ĠLands": 6862,
      "ĠVariably": 6863,
      "Ġburrows": 6864,
      "igenic": 6865,
      "ĠOffenberg": 6866,
      "ĠJericho": 6867,
      "ĠExtensive": 6868,
      "Ġfaunas": 6869,
      "Ġdissem": 6870,
      "ircular": 6871,
      "Ġtitanite": 6872,
      "ĠJohnnys": 6873,
      "Ġgypsum": 6874,
      "KE": 6875,
      "LA": 6876,
      "Mur": 6877,
      "^-": 6878,
      "host": 6879,
      "uter": 6880,
      "wil": 6881,
      "Ġess": 6882,
      "inolite": 6883,
      "orium": 6884,
      "arind": 6885,
      "alga": 6886,
      "alpa": 6887,
      "Ġsem": 6888,
      "robe": 6889,
      "Ġmillion": 6890,
      "ĠClasts": 6891,
      "Ġpotentially": 6892,
      "ĠGlass": 6893,
      "Ġdid": 6894,
      "ilitic": 6895,
      "ĠField": 6896,
      "ĠFlor": 6897,
      "ĠFergus": 6898,
      "ĠBetween": 6899,
      "amphibolite": 6900,
      "ĠPli": 6901,
      "ĠRook": 6902,
      "terrane": 6903,
      "ĠLink": 6904,
      "ĠOcc": 6905,
      "Ġnomenclature": 6906,
      "ĠNawa": 6907,
      "utton": 6908,
      "used": 6909,
      "Ġrati": 6910,
      "Ġ1947": 6911,
      "ĠVelkerri": 6912,
      "ĠGee": 6913,
      "Ġanomaly": 6914,
      "ĠUnimbra": 6915,
      "Ġ57": 6916,
      "1040": 6917,
      "ĠExtends": 6918,
      "Ġplots": 6919,
      "Ġ87": 6920,
      "Ġmicrog": 6921,
      "Ġ1730": 6922,
      "ĠRob": 6923,
      "ĠSuperterrane": 6924,
      "Ġsilicification": 6925,
      "Ġaddition": 6926,
      "Ġadditional": 6927,
      "238": 6928,
      "Ġuse": 6929,
      "errida": 6930,
      "ĠMetagabbro": 6931,
      "Ġtherein": 6932,
      "ĠSurvey": 6933,
      "ĠBurstall": 6934,
      "brate": 6935,
      "Ġorthoclase": 6936,
      "Ġprospects": 6937,
      "Ġtermed": 6938,
      "ĠWithin": 6939,
      "Ġclastics": 6940,
      "Ġcommun": 6941,
      "Ġgrainstone": 6942,
      "ĠMulga": 6943,
      "Ġchemical": 6944,
      "ĠDarwin": 6945,
      "supers": 6946,
      "Ġpredomin": 6947,
      "Ġintensely": 6948,
      "esterly": 6949,
      "Ġincised": 6950,
      "Ġvariant": 6951,
      "Ġclassification": 6952,
      "ĠWinnall": 6953,
      "ĠNimbuwah": 6954,
      "Ġprecise": 6955,
      "depositional": 6956,
      "ventional": 6957,
      "ĠDundas": 6958,
      "Ġespecially": 6959,
      "ĠBynguano": 6960,
      "Ġradioel": 6961,
      "ĠBentley": 6962,
      "ĠMathinna": 6963,
      "arindji": 6964,
      "-)": 6965,
      "Blake": 6966,
      "Str": 6967,
      "Wy": 6968,
      "aem": 6969,
      "bial": 6970,
      "cuss": 6971,
      "diorite": 6972,
      "gers": 6973,
      "hn": 6974,
      "hang": 6975,
      "jarra": 6976,
      "nd": 6977,
      "set": 6978,
      "td": 6979,
      "town": 6980,
      "inmaroo": 6981,
      "Ġme": 6982,
      "rect": 6983,
      "Ġcap": 6984,
      "ĠCook": 6985,
      "Ġpell": 6986,
      "ĠGoon": 6987,
      "Ġfans": 6988,
      "stream": 6989,
      "ĠBot": 6990,
      "ĠBush": 6991,
      "ĠBerserker": 6992,
      "Ġlead": 6993,
      "ĠPul": 6994,
      "ĠPot": 6995,
      "ĠPalm": 6996,
      "ĠPioneer": 6997,
      "Ġgive": 6998,
      "ĠRank": 6999,
      "Ġunclear": 7000,
      "ĠDore": 7001,
      "ĠLikely": 7002,
      "Ġconce": 7003,
      "ĠIps": 7004,
      "ĠEmplac": 7005,
      "ickerton": 7006,
      "190": 7007,
      "adise": 7008,
      "ĠKool": 7009,
      "chlorite": 7010,
      "ichelago": 7011,
      "oster": 7012,
      "ĠUnfossiliferous": 7013,
      "Ġcoordinates": 7014,
      "ĠComstock": 7015,
      "Ġ62": 7016,
      "Ġsubgroup": 7017,
      "Ġsubhedral": 7018,
      "hyd": 7019,
      "ĠCox": 7020,
      "ĠStatus": 7021,
      "131": 7022,
      "1330": 7023,
      "veley": 7024,
      "Ġslight": 7025,
      "ĠLowmead": 7026,
      "Ġscar": 7027,
      "olling": 7028,
      "Ġallanite": 7029,
      "ĠWillouran": 7030,
      "urned": 7031,
      "Ġcoloured": 7032,
      "gaard": 7033,
      "pletonian": 7034,
      "Ġcutting": 7035,
      "ĠLithic": 7036,
      "Ġlineation": 7037,
      "uleatt": 7038,
      "rindina": 7039,
      "magnetite": 7040,
      "ĠPreiss": 7041,
      "Ġpalynology": 7042,
      "Ġearth": 7043,
      "ĠCrawford": 7044,
      "ĠFoliated": 7045,
      "Ġlaminations": 7046,
      "oolya": 7047,
      "Ġbioturbation": 7048,
      "Ġcemented": 7049,
      "Ġunconsolidated": 7050,
      "Ord": 7051,
      "Ġdegree": 7052,
      "Ġfigure": 7053,
      "Ġaugite": 7054,
      "Ġvarying": 7055,
      "probably": 7056,
      "Ġpotassium": 7057,
      "ladstone": 7058,
      "Ġbecomes": 7059,
      "ĠDiamictite": 7060,
      "ĠCalvert": 7061,
      "emperature": 7062,
      "Ġwidth": 7063,
      "ĠIpswich": 7064,
      "3000": 7065,
      "CE": 7066,
      "Hf": 7067,
      "NT": 7068,
      "jem": 7069,
      "oke": 7070,
      "wide": 7071,
      "Ġilmenite": 7072,
      "oral": 7073,
      "aloc": 7074,
      "eda": 7075,
      "itive": 7076,
      "Ġthird": 7077,
      "Ġsalt": 7078,
      "Ġsett": 7079,
      "Ġmon": 7080,
      "ĠMas": 7081,
      "ĠMeg": 7082,
      "ĠCk": 7083,
      "ĠCas": 7084,
      "ĠCot": 7085,
      "ĠCAL": 7086,
      "ĠSn": 7087,
      "ĠGate": 7088,
      "ĠGrim": 7089,
      "ĠGorter": 7090,
      "stead": 7091,
      "Ġdiff": 7092,
      "Ġwack": 7093,
      "ĠFr": 7094,
      "ĠFar": 7095,
      "ĠFre": 7096,
      "ĠBy": 7097,
      "ĠBoom": 7098,
      "ingb": 7099,
      "ĠPap": 7100,
      "ĠAc": 7101,
      "Ġwithout": 7102,
      "Ġaligned": 7103,
      "lakes": 7104,
      "quh": 7105,
      "irke": 7106,
      "ĠKings": 7107,
      "chin": 7108,
      "derived": 7109,
      "Ġcoinc": 7110,
      "ĠDear": 7111,
      "2011": 7112,
      "eralla": 7113,
      "ignificant": 7114,
      "ĠSubgp": 7115,
      "Ġmagma": 7116,
      "ominta": 7117,
      "Ġ1870": 7118,
      "1600": 7119,
      "arsons": 7120,
      "Ġ1590": 7121,
      "Ġslump": 7122,
      "ĠMines": 7123,
      "ĠGreat": 7124,
      "Ġprovide": 7125,
      "ONG": 7126,
      "ĠGrav": 7127,
      "covery": 7128,
      "Ġsuper": 7129,
      "Ġstromatolite": 7130,
      "ostratigraphy": 7131,
      "ĠSpur": 7132,
      "ĠSpencer": 7133,
      "ĠForbes": 7134,
      "Ġremov": 7135,
      "Ġyellowish": 7136,
      "hao": 7137,
      "ĠBendoc": 7138,
      "ĠHILLS": 7139,
      "Ġrests": 7140,
      "ĠWonominta": 7141,
      "Ġstorage": 7142,
      "ĠHelen": 7143,
      "umbera": 7144,
      "arnockite": 7145,
      "ĠWattie": 7146,
      "ĠEverard": 7147,
      "Ġestablished": 7148,
      "ĠNumerous": 7149,
      "ĠSPRIN": 7150,
      "ĠReplaces": 7151,
      "Ġeasily": 7152,
      "Williams": 7153,
      "ĠDaubeny": 7154,
      "Ġdisseminated": 7155,
      "irkegaard": 7156,
      "Bur": 7157,
      "Mo": 7158,
      "Opik": 7159,
      "Per": 7160,
      "Ranford": 7161,
      "bow": 7162,
      "hjem": 7163,
      "no": 7164,
      "tong": 7165,
      "anian": 7166,
      "thorn": 7167,
      "enlock": 7168,
      "ĠCand": 7169,
      "ĠChem": 7170,
      "ĠCounty": 7171,
      "Ġpervas": 7172,
      "ĠGatton": 7173,
      "Ġ(-": 7174,
      "Ġ(?": 7175,
      "ationally": 7176,
      "ĠTotal": 7177,
      "ĠBill": 7178,
      "Ġlo": 7179,
      "Ġlink": 7180,
      "ĠPr": 7181,
      "ĠPad": 7182,
      "ĠPoole": 7183,
      "osquit": 7184,
      "lee": 7185,
      "ĠRg": 7186,
      "ĠRos": 7187,
      "imited": 7188,
      "Ġhundred": 7189,
      "ĠWade": 7190,
      "ĠHan": 7191,
      "ĠHuleatt": 7192,
      "ĠVine": 7193,
      "derbooka": 7194,
      "inson": 7195,
      "Ġkarst": 7196,
      "aya": 7197,
      "Ġ657": 7198,
      "undi": 7199,
      "Ġstone": 7200,
      "ĠJungle": 7201,
      "Ġ748": 7202,
      "ewart": 7203,
      "ĠRecor": 7204,
      "Ġdoler": 7205,
      "greenschist": 7206,
      "ĠArrowie": 7207,
      "ungk": 7208,
      "Ġrecord": 7209,
      "Ġ170": 7210,
      "Ġevident": 7211,
      "achronous": 7212,
      "tebrate": 7213,
      "eget": 7214,
      "basalt": 7215,
      "ĠAmungee": 7216,
      "Ġtraces": 7217,
      "ennian": 7218,
      "complete": 7219,
      "ĠAssigned": 7220,
      "attle": 7221,
      "Ġsynonym": 7222,
      "ĠLithgow": 7223,
      "oxide": 7224,
      "Ġolive": 7225,
      "Ġinterpretations": 7226,
      "ĠJohnson": 7227,
      "amingie": 7228,
      "Ġevaporitic": 7229,
      "ĠSchultz": 7230,
      "Ġundergone": 7231,
      "Ġmorphology": 7232,
      "informal": 7233,
      "rafura": 7234,
      "Ġarchaeocyath": 7235,
      "Ġsubstant": 7236,
      "ĠKarnu": 7237,
      "ĠPliocene": 7238,
      "Ġsettings": 7239,
      "Ġwackest": 7240,
      "ĠSPRINGS": 7241,
      "osquito": 7242,
      ".;": 7243,
      "350": 7244,
      "LP": 7245,
      "Late": 7246,
      "Nelson": 7247,
      "OD": 7248,
      "Pe": 7249,
      "but": 7250,
      "ks": 7251,
      "mid": 7252,
      "nn": 7253,
      "off": 7254,
      "Ġill": 7255,
      "enp": 7256,
      "Ġsim": 7257,
      "Ġslaty": 7258,
      "isco": 7259,
      "Ġinliers": 7260,
      "ĠMung": 7261,
      "ĠCate": 7262,
      "ĠSna": 7263,
      "Ġpis": 7264,
      "ĠGar": 7265,
      "ĠGladstone": 7266,
      "stown": 7267,
      "ĠBall": 7268,
      "ĠBreak": 7269,
      "amennian": 7270,
      "rapt": 7271,
      "imes": 7272,
      "Ġisoclin": 7273,
      "ĠDou": 7274,
      "ĠLess": 7275,
      "ĠLight": 7276,
      "ĠLimestones": 7277,
      "ĠLindsay": 7278,
      "abra": 7279,
      "Ġneg": 7280,
      "ĠWingate": 7281,
      "umeralla": 7282,
      "therian": 7283,
      "Ġshape": 7284,
      "ĠComposit": 7285,
      "Ġpropos": 7286,
      "ĠCoen": 7287,
      "ĠCove": 7288,
      "ĠArumbera": 7289,
      "Ġlithostratigraphic": 7290,
      "Ġpreserv": 7291,
      "ront": 7292,
      "Ġimage": 7293,
      "anya": 7294,
      "inguished": 7295,
      "Ġrhyodacitic": 7296,
      "etty": 7297,
      "ĠBurrell": 7298,
      "ĠBowgan": 7299,
      "Ġpetrographic": 7300,
      "Ġcurrents": 7301,
      "ING": 7302,
      "herent": 7303,
      "ĠTogether": 7304,
      "Ġpackages": 7305,
      "nowy": 7306,
      "Ġaccessible": 7307,
      "ummocky": 7308,
      "Ġearlier": 7309,
      "Ġargillite": 7310,
      "Ġpersistent": 7311,
      "Ġoxid": 7312,
      "ĠDarling": 7313,
      "Clar": 7314,
      "ĠRecessive": 7315,
      "ĠDistinguished": 7316,
      "ĠEsk": 7317,
      "ĠEsmeralda": 7318,
      "EST": 7319,
      "Ġpatterns": 7320,
      "omains": 7321,
      "igenous": 7322,
      "locally": 7323,
      "etreat": 7324,
      "Ġmultiple": 7325,
      "Ġpsammitic": 7326,
      "Ġregression": 7327,
      "ĠModerately": 7328,
      "arakurna": 7329,
      "ĠEthabuka": 7330,
      "ĠStansbury": 7331,
      "Ġrepetition": 7332,
      "ĠMopunga": 7333,
      ".(": 7334,
      "Del": 7335,
      "Fe": 7336,
      "Lake": 7337,
      "ael": 7338,
      "bound": 7339,
      "haven": 7340,
      "las": 7341,
      "logy": 7342,
      "main": 7343,
      "mica": 7344,
      "not": 7345,
      "nia": 7346,
      "wise": 7347,
      "wyer": 7348,
      "Ġ`": 7349,
      "inction": 7350,
      "inces": 7351,
      "erts": 7352,
      "erina": 7353,
      "ality": 7354,
      "itially": 7355,
      "enzie": 7356,
      "ision": 7357,
      "ĠMark": 7358,
      "ĠMisspelt": 7359,
      "ĠGin": 7360,
      "ĠTand": 7361,
      "Ġwt": 7362,
      "ĠFrew": 7363,
      "ĠBP": 7364,
      "Ġ1100": 7365,
      "Ġlign": 7366,
      "rab": 7367,
      "osol": 7368,
      "lew": 7369,
      "ĠDunn": 7370,
      "ĠLes": 7371,
      "ĠOs": 7372,
      "abon": 7373,
      "udite": 7374,
      "ogari": 7375,
      "lair": 7376,
      "ĠHilt": 7377,
      "ĠHugh": 7378,
      "ĠHaines": 7379,
      "uli": 7380,
      "ĠUr": 7381,
      "ĠUs": 7382,
      "1955": 7383,
      "Ġ1958": 7384,
      "ĠGeophysics": 7385,
      "Ġvis": 7386,
      "adj": 7387,
      "adgi": 7388,
      "ppermost": 7389,
      "Ġinternal": 7390,
      "opter": 7391,
      "press": 7392,
      "Ġanticline": 7393,
      "ĠDev": 7394,
      "relley": 7395,
      "Ġchanged": 7396,
      "Ġ41": 7397,
      "Ġ49": 7398,
      "Ġ654": 7399,
      "edial": 7400,
      "Ġmagmas": 7401,
      "ĠGranulite": 7402,
      "Ġdolarenite": 7403,
      "ĠAnt": 7404,
      "ĠAntrim": 7405,
      "1710": 7406,
      "Ġmodified": 7407,
      "atherbed": 7408,
      "1140": 7409,
      "ĠSeam": 7410,
      "ĠSecond": 7411,
      "Ġseriate": 7412,
      "ĠSilcrete": 7413,
      "Ġbanding": 7414,
      "Ġlaterite": 7415,
      "Ġspat": 7416,
      "ĠWyangala": 7417,
      "ĠBeetal": 7418,
      "ĠFossiliferous": 7419,
      "which": 7420,
      "Ġintersect": 7421,
      "ĠBathurst": 7422,
      "pleted": 7423,
      "Ġcovers": 7424,
      "Ġportions": 7425,
      "ĠCalcilutite": 7426,
      "Carson": 7427,
      "Ġworkers": 7428,
      "ĠHooper": 7429,
      "ĠTurner": 7430,
      "Ġfluorite": 7431,
      "ĠLithologically": 7432,
      "Ġaxis": 7433,
      "ĠBlissett": 7434,
      "ĠBryah": 7435,
      "ĠJulie": 7436,
      "Ġinfluence": 7437,
      "Ġenriched": 7438,
      "Ġhypers": 7439,
      "Ġdiscordant": 7440,
      "ordillo": 7441,
      "cript": 7442,
      "ĠGardiner": 7443,
      "Ġrugged": 7444,
      "Ġporphyroblasts": 7445,
      "rolled": 7446,
      "Ġessentially": 7447,
      "superscript": 7448,
      "ĠBeetaloo": 7449,
      "550": 7450,
      "Dun": 7451,
      "Gr": 7452,
      "Os": 7453,
      "Pilbara": 7454,
      "TIMS": 7455,
      "YS": 7456,
      "ny": 7457,
      "pers": 7458,
      "rum": 7459,
      "seric": 7460,
      "void": 7461,
      "aniel": 7462,
      "anden": 7463,
      "ĠMont": 7464,
      "ĠCurr": 7465,
      "ĠSource": 7466,
      "unther": 7467,
      "Ġpick": 7468,
      "Ġpage": 7469,
      "ĠGu": 7470,
      "ĠGond": 7471,
      "ĠTM": 7472,
      "ĠTen": 7473,
      "ĠTowns": 7474,
      "Ġwedge": 7475,
      "entle": 7476,
      "ĠParsons": 7477,
      "Ġunfossiliferous": 7478,
      "ĠDong": 7479,
      "ĠDay": 7480,
      "ĠDarri": 7481,
      "ĠLo": 7482,
      "ĠLewis": 7483,
      "ĠOp": 7484,
      "Ġalluvium": 7485,
      "ĠWor": 7486,
      "ĠWana": 7487,
      "irri": 7488,
      "irway": 7489,
      "1957": 7490,
      "opyrite": 7491,
      "Ġanticlin": 7492,
      "ĠComp": 7493,
      "207": 7494,
      "2012": 7495,
      "arapin": 7496,
      "alton": 7497,
      "Ġgranophyre": 7498,
      "Ġsubaqueous": 7499,
      "ission": 7500,
      "ĠJames": 7501,
      "aged": 7502,
      "ĠGranitoid": 7503,
      "erman": 7504,
      "Ġgeophysics": 7505,
      "inah": 7506,
      "Ġextended": 7507,
      "Ġ82": 7508,
      "Ġdior": 7509,
      "ĠMcK": 7510,
      "Ġ152": 7511,
      "ypes": 7512,
      "ĠWilk": 7513,
      "ĠStairway": 7514,
      "ĠAtt": 7515,
      "white": 7516,
      "Ġdetermine": 7517,
      "ĠGreywacke": 7518,
      "ĠBridge": 7519,
      "ĠResources": 7520,
      "ĠWarrina": 7521,
      "Ġflanks": 7522,
      "Ġpetrography": 7523,
      "ĠLateral": 7524,
      "ĠLatitude": 7525,
      "ĠPetrel": 7526,
      "ĠSkye": 7527,
      "Ġmasses": 7528,
      "ĠEmsian": 7529,
      "ĠMulg": 7530,
      "Ġbiostratigraphic": 7531,
      "venile": 7532,
      "ĠCollier": 7533,
      "ĠRavens": 7534,
      "VERT": 7535,
      "ĠBungonia": 7536,
      "Ġlamination": 7537,
      "Ġ7859": 7538,
      "ĠJunee": 7539,
      "abbage": 7540,
      "ĠBroadly": 7541,
      "ĠMadura": 7542,
      "ĠCoastal": 7543,
      "Webb": 7544,
      "Ġepisode": 7545,
      "ĠExposures": 7546,
      "Plumb": 7547,
      "ERMAN": 7548,
      "erdin": 7549,
      "ĠGillen": 7550,
      "aughan": 7551,
      "ĠMcGrath": 7552,
      "ĠNambeet": 7553,
      "Ġreadily": 7554,
      "Ġoceanic": 7555,
      "compass": 7556,
      "Ġaccretionary": 7557,
      "ĠKimban": 7558,
      "airdner": 7559,
      "ĠCategory": 7560,
      "ĠHiltaba": 7561,
      "arapinta": 7562,
      "750": 7563,
      "Bu": 7564,
      "IL": 7565,
      "My": 7566,
      "Ren": 7567,
      "West": 7568,
      "duct": 7569,
      "fine": 7570,
      "high": 7571,
      "lon": 7572,
      "oil": 7573,
      "pit": 7574,
      "rens": 7575,
      "onic": 7576,
      "arat": 7577,
      "Ġsomew": 7578,
      "roote": 7579,
      "isen": 7580,
      "ising": 7581,
      "Ġbetter": 7582,
      "Ġmedial": 7583,
      "Ġcav": 7584,
      "ĠMuck": 7585,
      "ĠCock": 7586,
      "Ġpp": 7587,
      "Ġpods": 7588,
      "Ġplains": 7589,
      "Ġflakes": 7590,
      "sta": 7591,
      "Ġtoo": 7592,
      "ilities": 7593,
      "ĠBrowne": 7594,
      "Ġ122": 7595,
      "ingham": 7596,
      "rained": 7597,
      "ĠArea": 7598,
      "verse": 7599,
      "ĠDated": 7600,
      "ĠLam": 7601,
      "ĠLtd": 7602,
      "abk": 7603,
      "Ġhummocky": 7604,
      "ograpt": 7605,
      "atea": 7606,
      "ĠWarn": 7607,
      "ĠWeld": 7608,
      "Ġretained": 7609,
      "ĠUppermost": 7610,
      "cannia": 7611,
      "Ġoverla": 7612,
      "tag": 7613,
      "rip": 7614,
      "rift": 7615,
      "ĠKu": 7616,
      "ĠKanmantoo": 7617,
      "Ġ44": 7618,
      "2016": 7619,
      "Ġ550": 7620,
      "Ġ660": 7621,
      "Ġ73": 7622,
      "rystal": 7623,
      "aggi": 7624,
      "oora": 7625,
      "ynam": 7626,
      "Ġpresumed": 7627,
      "3010": 7628,
      "Ġindurated": 7629,
      "Ġnearshore": 7630,
      "Ġ1700": 7631,
      "160": 7632,
      "Ġcalcrete": 7633,
      "indra": 7634,
      "easley": 7635,
      "Ġcapped": 7636,
      "Ġfeldspars": 7637,
      "ontal": 7638,
      "ĠRedbank": 7639,
      "ĠStaff": 7640,
      "Ġgabbroic": 7641,
      "ĠBowthorn": 7642,
      "Ġsyncl": 7643,
      "ĠPeter": 7644,
      "ĠPaleozoic": 7645,
      "ĠOlgers": 7646,
      "Ġprospective": 7647,
      "ĠPooramingie": 7648,
      "addle": 7649,
      "ĠAdelaidean": 7650,
      "metric": 7651,
      "ĠCaptains": 7652,
      "ĠKuridala": 7653,
      "ĠMorton": 7654,
      "injarra": 7655,
      "ĠSybella": 7656,
      "ĠTempletonian": 7657,
      "Ġcorresponds": 7658,
      "Ġpopulation": 7659,
      "ĠKanandra": 7660,
      "ĠLudlow": 7661,
      "ĠGrasmere": 7662,
      "alinji": 7663,
      "BURY": 7664,
      "Ġholostratotype": 7665,
      "vergne": 7666,
      "Ġprofile": 7667,
      "ylandt": 7668,
      "Ġintermitt": 7669,
      "Ġbulk": 7670,
      "ĠDoreen": 7671,
      "ĠCALVERT": 7672,
      "Ġsomewhat": 7673,
      "Bon": 7674,
      "Blue": 7675,
      "Cook": 7676,
      "Hatches": 7677,
      "John": 7678,
      "LAND": 7679,
      "ME": 7680,
      "effre": 7681,
      "karo": 7682,
      "pot": 7683,
      "pollen": 7684,
      "sized": 7685,
      "wire": 7686,
      "ony": 7687,
      "onation": 7688,
      "inian": 7689,
      "inner": 7690,
      "inifex": 7691,
      "ertain": 7692,
      "ores": 7693,
      "andy": 7694,
      "Ġsoft": 7695,
      "Ġbimodal": 7696,
      "requ": 7697,
      "Ġcertain": 7698,
      "ĠMis": 7699,
      "ĠCat": 7700,
      "ĠSund": 7701,
      "ĠSuggest": 7702,
      "ĠSignificant": 7703,
      "Ġpaper": 7704,
      "ĠGly": 7705,
      "ĠGem": 7706,
      "ĠTol": 7707,
      "ĠTara": 7708,
      "Ġ118": 7709,
      "Ġ114": 7710,
      "Ġlegend": 7711,
      "elian": 7712,
      "amar": 7713,
      "ĠPrim": 7714,
      "ĠArafura": 7715,
      "Ġgrounds": 7716,
      "heit": 7717,
      "ĠRum": 7718,
      "ĠRetreat": 7719,
      "Ġungrouped": 7720,
      "owrie": 7721,
      "ĠLimited": 7722,
      "trill": 7723,
      "ivi": 7724,
      "ĠIrindina": 7725,
      "ĠEylandt": 7726,
      "poss": 7727,
      "umann": 7728,
      "ussey": 7729,
      "1956": 7730,
      "Ġthickest": 7731,
      "ĠVinc": 7732,
      "ĠKar": 7733,
      "chn": 7734,
      "ĠVolcaniclastic": 7735,
      "Ġ653": 7736,
      "ĠShady": 7737,
      "ĠCoomp": 7738,
      "Ġ71": 7739,
      "ĠYerrida": 7740,
      "awson": 7741,
      "awarra": 7742,
      "yser": 7743,
      "1085": 7744,
      "lena": 7745,
      "ĠRelatively": 7746,
      "Ġhighest": 7747,
      "ailway": 7748,
      "ritarch": 7749,
      "unging": 7750,
      "ungie": 7751,
      "170": 7752,
      "Ġ1960": 7753,
      "ĠIntrusion": 7754,
      "Ġstratiform": 7755,
      "Ġmineralization": 7756,
      "olithos": 7757,
      "Ġevolved": 7758,
      "Ġsuites": 7759,
      "Ġdiscussion": 7760,
      "ĠExpl": 7761,
      "Ġprecurs": 7762,
      "Ġaccomp": 7763,
      "ĠWilly": 7764,
      "Ġobserv": 7765,
      "ĠStructural": 7766,
      "ĠPlut": 7767,
      "Ġcomplexes": 7768,
      "arrier": 7769,
      "ĠWarren": 7770,
      "ĠElsewhere": 7771,
      "ĠAlbian": 7772,
      "Thom": 7773,
      "Ġnewly": 7774,
      "ENBURY": 7775,
      "ĠDruce": 7776,
      "ĠIronstone": 7777,
      "Ġfabrics": 7778,
      "ĠRoebourne": 7779,
      "ĠBundock": 7780,
      "veyard": 7781,
      "Ġsubdivisions": 7782,
      "Ġintersections": 7783,
      "Ġgraphitic": 7784,
      "Ġretrog": 7785,
      "Ġpasses": 7786,
      "Ġconfirmed": 7787,
      "Ġexhibit": 7788,
      "ĠFlood": 7789,
      "ragian": 7790,
      "Ġenclosing": 7791,
      "Ġbryozoans": 7792,
      "Ġjuvenile": 7793,
      "ĠWiso": 7794,
      "Ġbecome": 7795,
      "Ġerror": 7796,
      "ĠBarkly": 7797,
      "Ġapproximate": 7798,
      "Ġcycle": 7799,
      "Ġemerg": 7800,
      "ĠGivetian": 7801,
      "Ġsemi": 7802,
      "Ġnegative": 7803,
      "untherungie": 7804,
      "Ġcavities": 7805,
      "ĠCoompana": 7806,
      "Col": 7807,
      "Gold": 7808,
      "Jack": 7809,
      "Powell": 7810,
      "Sk": 7811,
      "Sil": 7812,
      "Ti": 7813,
      "both": 7814,
      "gon": 7815,
      "iwo": 7816,
      "mor": 7817,
      "riv": 7818,
      "Ġ:": 7819,
      "Ġlying": 7820,
      "anbah": 7821,
      "thr": 7822,
      "alic": 7823,
      "Ġsummarised": 7824,
      "Ġsabk": 7825,
      "roken": 7826,
      "isheit": 7827,
      "Ġbadd": 7828,
      "Ġcf": 7829,
      "Ġtin": 7830,
      "Ġinlier": 7831,
      "ĠMichelago": 7832,
      "ĠCurt": 7833,
      "ĠSel": 7834,
      "ĠGove": 7835,
      "Ġdome": 7836,
      "ĠBol": 7837,
      "ĠBil": 7838,
      "ĠBoond": 7839,
      "enty": 7840,
      "eley": 7841,
      "geour": 7842,
      "ĠPowell": 7843,
      "ĠAh": 7844,
      "ĠAqu": 7845,
      "ĠAug": 7846,
      "urch": 7847,
      "owder": 7848,
      "owindra": 7849,
      "ĠLab": 7850,
      "ĠLDD": 7851,
      "ĠLONG": 7852,
      "ĠOotann": 7853,
      "idotite": 7854,
      "Ġeg": 7855,
      "udes": 7856,
      "ĠNull": 7857,
      "ĠWide": 7858,
      "ĠWopfner": 7859,
      "laou": 7860,
      "ĠHENBURY": 7861,
      "emp": 7862,
      "ulate": 7863,
      "rombie": 7864,
      "Ġexcellent": 7865,
      "Ġ330": 7866,
      "opor": 7867,
      "opic": 7868,
      "ighton": 7869,
      "dea": 7870,
      "Ġcoherent": 7871,
      "antjat": 7872,
      "Ġoutstation": 7873,
      "Ġchap": 7874,
      "ĠCoats": 7875,
      "akin": 7876,
      "ratta": 7877,
      "eeves": 7878,
      "ĠGranophyre": 7879,
      "ĠGranodiorites": 7880,
      "Ġmetre": 7881,
      "ĠRelated": 7882,
      "ahill": 7883,
      "aporite": 7884,
      "erville": 7885,
      "1780": 7886,
      "endall": 7887,
      "ĠSepar": 7888,
      "ĠGrades": 7889,
      "Ġjoint": 7890,
      "Ġgrouped": 7891,
      "rimgeour": 7892,
      "ometimes": 7893,
      "ĠParadise": 7894,
      "ondon": 7895,
      "ĠIdentified": 7896,
      "ĠWalpole": 7897,
      "ĠDiscovery": 7898,
      "ĠScot": 7899,
      "Ġcompositionally": 7900,
      "alyi": 7901,
      "ĠGoldfields": 7902,
      "Ġactinolite": 7903,
      "Ġrecrystallisation": 7904,
      "ATION": 7905,
      "Ġinclined": 7906,
      "Ġpalynof": 7907,
      "Ġimpure": 7908,
      "Ġboreholes": 7909,
      "ĠTectonic": 7910,
      "ĠKurinelli": 7911,
      "oogaroo": 7912,
      "Ġcompletely": 7913,
      "ĠTabber": 7914,
      "ĠTalga": 7915,
      "Ġaxial": 7916,
      "thony": 7917,
      "Ġaugen": 7918,
      "Ġdunes": 7919,
      "ĠTowers": 7920,
      "Ġtrachyte": 7921,
      "Ġextremely": 7922,
      "ĠCymbric": 7923,
      "ĠCranfield": 7924,
      "Ġoccupies": 7925,
      "Ġmethod": 7926,
      "Ġhomogeneous": 7927,
      "yndall": 7928,
      "growths": 7929,
      "ĠCaulfield": 7930,
      "bercrombie": 7931,
      "enpelli": 7932,
      "iwok": 7933,
      "Ġbaddeley": 7934,
      "Ġchapter": 7935,
      "Ġbaddeleyite": 7936,
      "Berg": 7937,
      "Can": 7938,
      "Fanning": 7939,
      "Lower": 7940,
      "North": 7941,
      "Port": 7942,
      "Rich": 7943,
      "ST": 7944,
      "Ste": 7945,
      "With": 7946,
      "bl": 7947,
      "barr": 7948,
      "core": 7949,
      "digit": 7950,
      "irel": 7951,
      "kers": 7952,
      "nad": 7953,
      "oes": 7954,
      "oik": 7955,
      "rh": 7956,
      "rong": 7957,
      "sk": 7958,
      "zircon": 7959,
      "Ġyr": 7960,
      "oru": 7961,
      "itar": 7962,
      "itable": 7963,
      "Ġsumm": 7964,
      "Ġmight": 7965,
      "Ġtempor": 7966,
      "ĠMug": 7967,
      "ĠMoss": 7968,
      "ĠCave": 7969,
      "ĠCoul": 7970,
      "ĠSilt": 7971,
      "ĠSix": 7972,
      "ĠGairdner": 7973,
      "ĠTang": 7974,
      "ĠFamennian": 7975,
      "ĠBart": 7976,
      "ĠBarb": 7977,
      "ĠBuff": 7978,
      "ĠBool": 7979,
      "ĠBlan": 7980,
      "ĠBickerton": 7981,
      "Ġ126": 7982,
      "ĠProminent": 7983,
      "ĠRailway": 7984,
      "owanna": 7985,
      "ocent": 7986,
      "ĠOenpelli": 7987,
      "Ġhaem": 7988,
      "ĠNan": 7989,
      "ĠNund": 7990,
      "ogabbro": 7991,
      "peated": 7992,
      "formerly": 7993,
      "Ġ1957": 7994,
      "ologically": 7995,
      "ĠKura": 7996,
      "Ġinterst": 7997,
      "Ġlowest": 7998,
      "2025": 7999
    },
    "merges": [
      [
        "o",
        "n"
      ],
      [
        "i",
        "n"
      ],
      [
        "a",
        "n"
      ],
      [
        "t",
        "h"
      ],
      [
        "e",
        "r"
      ],
      [
        "o",
        "r"
      ],
      [
        "a",
        "t"
      ],
      [
        "a",
        "r"
      ],
      [
        "a",
        "l"
      ],
      [
        "e",
        "d"
      ],
      [
        "i",
        "t"
      ],
      [
        "Ġ",
        "th"
      ],
      [
        "e",
        "s"
      ],
      [
        "an",
        "d"
      ],
      [
        "i",
        "c"
      ],
      [
        "e",
        "n"
      ],
      [
        "Ġ",
        "s"
      ],
      [
        "Ġ",
        "o"
      ],
      [
        "r",
        "o"
      ],
      [
        "Ġth",
        "e"
      ],
      [
        "a",
        "s"
      ],
      [
        "i",
        "on"
      ],
      [
        "Ġ",
        "and"
      ],
      [
        "i",
        "s"
      ],
      [
        "Ġ",
        "b"
      ],
      [
        "Ġ",
        "m"
      ],
      [
        "r",
        "e"
      ],
      [
        "Ġ",
        "c"
      ],
      [
        "Ġ",
        "t"
      ],
      [
        "Ġo",
        "f"
      ],
      [
        "Ġ",
        "in"
      ],
      [
        "Ġ",
        "M"
      ],
      [
        "l",
        "y"
      ],
      [
        "Ġ",
        "C"
      ],
      [
        "Ġ",
        "S"
      ],
      [
        "it",
        "e"
      ],
      [
        "o",
        "l"
      ],
      [
        "u",
        "n"
      ],
      [
        "Ġ",
        "p"
      ],
      [
        "Ġ",
        "G"
      ],
      [
        "Ġ",
        "f"
      ],
      [
        "s",
        "t"
      ],
      [
        "Ġ",
        "("
      ],
      [
        "Ġ",
        "d"
      ],
      [
        "or",
        "m"
      ],
      [
        "Ġ",
        "a"
      ],
      [
        "e",
        "t"
      ],
      [
        "at",
        "ion"
      ],
      [
        "Ġt",
        "o"
      ],
      [
        "Ġ",
        "T"
      ],
      [
        "Ġ",
        "w"
      ],
      [
        "i",
        "l"
      ],
      [
        "Ġ",
        "F"
      ],
      [
        "Ġ",
        "B"
      ],
      [
        "en",
        "t"
      ],
      [
        "Ġ",
        "1"
      ],
      [
        "Ġ",
        "l"
      ],
      [
        "in",
        "g"
      ],
      [
        "e",
        "l"
      ],
      [
        "a",
        "m"
      ],
      [
        "o",
        "m"
      ],
      [
        "o",
        "u"
      ],
      [
        "on",
        "e"
      ],
      [
        "g",
        "e"
      ],
      [
        "Ġ",
        "P"
      ],
      [
        "r",
        "a"
      ],
      [
        "i",
        "th"
      ],
      [
        "orm",
        "ation"
      ],
      [
        "Ġ",
        "A"
      ],
      [
        "0",
        "0"
      ],
      [
        "u",
        "p"
      ],
      [
        "o",
        "s"
      ],
      [
        "r",
        "an"
      ],
      [
        "Ġ",
        "g"
      ],
      [
        "st",
        "one"
      ],
      [
        "h",
        "e"
      ],
      [
        "l",
        "e"
      ],
      [
        "Ġ",
        "R"
      ],
      [
        "ĠF",
        "ormation"
      ],
      [
        "a",
        "c"
      ],
      [
        "i",
        "m"
      ],
      [
        "t",
        "er"
      ],
      [
        "u",
        "r"
      ],
      [
        "v",
        "er"
      ],
      [
        "Ġ",
        "is"
      ],
      [
        "Ġ",
        "un"
      ],
      [
        "o",
        "w"
      ],
      [
        "o",
        "c"
      ],
      [
        "Ġ",
        "D"
      ],
      [
        ")",
        "."
      ],
      [
        "Ġ",
        "L"
      ],
      [
        "Ġ",
        "O"
      ],
      [
        "i",
        "d"
      ],
      [
        "Ġ",
        "ar"
      ],
      [
        "Ġ",
        "e"
      ],
      [
        "i",
        "g"
      ],
      [
        "c",
        "e"
      ],
      [
        "ar",
        "t"
      ],
      [
        "p",
        "h"
      ],
      [
        "Ġw",
        "ith"
      ],
      [
        "a",
        "b"
      ],
      [
        "Ġ",
        "n"
      ],
      [
        "c",
        "t"
      ],
      [
        "Ġ",
        "al"
      ],
      [
        "Ġ",
        "h"
      ],
      [
        "Ġb",
        "y"
      ],
      [
        "u",
        "d"
      ],
      [
        "t",
        "r"
      ],
      [
        "Ġ",
        "N"
      ],
      [
        "Ġc",
        "on"
      ],
      [
        "o",
        "g"
      ],
      [
        "at",
        "e"
      ],
      [
        "Ġar",
        "e"
      ],
      [
        "Ġ",
        "W"
      ],
      [
        "i",
        "v"
      ],
      [
        "Ġ",
        "2"
      ],
      [
        "Ġ",
        "I"
      ],
      [
        "ro",
        "up"
      ],
      [
        "ĠM",
        "a"
      ],
      [
        "Ġ",
        "re"
      ],
      [
        "l",
        "a"
      ],
      [
        "Ġ",
        "H"
      ],
      [
        "p",
        "e"
      ],
      [
        "q",
        "u"
      ],
      [
        "Ġ",
        "E"
      ],
      [
        "es",
        "t"
      ],
      [
        "ic",
        "k"
      ],
      [
        "Ġm",
        "a"
      ],
      [
        "i",
        "es"
      ],
      [
        "Ġ",
        "as"
      ],
      [
        "and",
        "stone"
      ],
      [
        "e",
        "m"
      ],
      [
        "u",
        "t"
      ],
      [
        "re",
        "e"
      ],
      [
        "u",
        "l"
      ],
      [
        "o",
        "un"
      ],
      [
        "p",
        "os"
      ],
      [
        "o",
        "t"
      ],
      [
        "es",
        "s"
      ],
      [
        "i",
        "r"
      ],
      [
        "in",
        "e"
      ],
      [
        "ĠT",
        "he"
      ],
      [
        "ro",
        "m"
      ],
      [
        "u",
        "m"
      ],
      [
        "Ġs",
        "e"
      ],
      [
        "o",
        "d"
      ],
      [
        "ou",
        "s"
      ],
      [
        "at",
        "ed"
      ],
      [
        "Ġd",
        "e"
      ],
      [
        "ĠG",
        "roup"
      ],
      [
        "ree",
        "k"
      ],
      [
        "ĠC",
        "reek"
      ],
      [
        "Ġun",
        "it"
      ],
      [
        "u",
        "s"
      ],
      [
        "f",
        "orm"
      ],
      [
        "b",
        "er"
      ],
      [
        "Ġ",
        "r"
      ],
      [
        "il",
        "l"
      ],
      [
        "c",
        "on"
      ],
      [
        "ĠB",
        "as"
      ],
      [
        "ran",
        "ite"
      ],
      [
        "as",
        "t"
      ],
      [
        "Ġf",
        "rom"
      ],
      [
        "or",
        "ph"
      ],
      [
        "Ġ",
        "U"
      ],
      [
        "1",
        "9"
      ],
      [
        "y",
        "pe"
      ],
      [
        "al",
        "l"
      ],
      [
        "c",
        "an"
      ],
      [
        "is",
        "t"
      ],
      [
        "Ġo",
        "ver"
      ],
      [
        "ol",
        "can"
      ],
      [
        "Ġ1",
        "9"
      ],
      [
        "ol",
        "og"
      ],
      [
        "al",
        "ly"
      ],
      [
        "Ġth",
        "ick"
      ],
      [
        "Ġ",
        "on"
      ],
      [
        "in",
        "ed"
      ],
      [
        "ct",
        "ion"
      ],
      [
        "olcan",
        "ic"
      ],
      [
        "on",
        "g"
      ],
      [
        "Ġ",
        "et"
      ],
      [
        "u",
        "b"
      ],
      [
        "t",
        "a"
      ],
      [
        "th",
        "er"
      ],
      [
        "r",
        "i"
      ],
      [
        "Ġa",
        "ge"
      ],
      [
        "ro",
        "v"
      ],
      [
        "c",
        "k"
      ],
      [
        "Ġ",
        "V"
      ],
      [
        "art",
        "z"
      ],
      [
        "Ġb",
        "e"
      ],
      [
        "Ġ",
        "at"
      ],
      [
        "c",
        "l"
      ],
      [
        "pos",
        "it"
      ],
      [
        "ĠG",
        "e"
      ],
      [
        "ĠI",
        "n"
      ],
      [
        "em",
        "ber"
      ],
      [
        "Ġ",
        "v"
      ],
      [
        "Ġb",
        "as"
      ],
      [
        "a",
        "d"
      ],
      [
        "iv",
        "e"
      ],
      [
        "ĠBas",
        "in"
      ],
      [
        "p",
        "s"
      ],
      [
        "ab",
        "ly"
      ],
      [
        "Ġ",
        "K"
      ],
      [
        "Ġe",
        "x"
      ],
      [
        "Ġs",
        "ou"
      ],
      [
        "p",
        "p"
      ],
      [
        "it",
        "ic"
      ],
      [
        "ĠT",
        "h"
      ],
      [
        "c",
        "h"
      ],
      [
        "i",
        "f"
      ],
      [
        "Ġ",
        "ro"
      ],
      [
        "Ġse",
        "ction"
      ],
      [
        "Ġin",
        "ter"
      ],
      [
        "Ġl",
        "oc"
      ],
      [
        "i",
        "an"
      ],
      [
        "it",
        "y"
      ],
      [
        "Ġs",
        "h"
      ],
      [
        "s",
        "e"
      ],
      [
        "ic",
        "al"
      ],
      [
        "al",
        "e"
      ],
      [
        "d",
        "ed"
      ],
      [
        "d",
        "er"
      ],
      [
        "ĠS",
        "andstone"
      ],
      [
        "el",
        "l"
      ],
      [
        "t",
        "ed"
      ],
      [
        "c",
        "c"
      ],
      [
        "n",
        "ess"
      ],
      [
        "+",
        "/"
      ],
      [
        "+/",
        "-"
      ],
      [
        "qu",
        "artz"
      ],
      [
        "in",
        "s"
      ],
      [
        "ic",
        "h"
      ],
      [
        "n",
        "e"
      ],
      [
        "ĠM",
        "ember"
      ],
      [
        "Ġs",
        "andstone"
      ],
      [
        "in",
        "ce"
      ],
      [
        "5",
        "0"
      ],
      [
        "Ġp",
        "art"
      ],
      [
        "rov",
        "ince"
      ],
      [
        "Ġro",
        "ck"
      ],
      [
        "Ġw",
        "h"
      ],
      [
        "et",
        "am"
      ],
      [
        "Ġ",
        "3"
      ],
      [
        "o",
        "p"
      ],
      [
        "p",
        "r"
      ],
      [
        "etam",
        "orph"
      ],
      [
        "Ġ",
        "or"
      ],
      [
        "d",
        "s"
      ],
      [
        "Ġare",
        "a"
      ],
      [
        "Ġc",
        "om"
      ],
      [
        "il",
        "t"
      ],
      [
        "Ġ",
        "quartz"
      ],
      [
        "Ġ",
        "k"
      ],
      [
        "Ġ",
        "an"
      ],
      [
        "ig",
        "h"
      ],
      [
        "00",
        "0"
      ],
      [
        "cl",
        "ud"
      ],
      [
        "a",
        "v"
      ],
      [
        "oun",
        "t"
      ],
      [
        "b",
        "ed"
      ],
      [
        "ĠO",
        "f"
      ],
      [
        "Ġde",
        "posit"
      ],
      [
        "form",
        "ably"
      ],
      [
        "or",
        "e"
      ],
      [
        "or",
        "th"
      ],
      [
        "g",
        "ra"
      ],
      [
        "ent",
        "s"
      ],
      [
        "Ġm",
        "in"
      ],
      [
        "r",
        "y"
      ],
      [
        "ĠV",
        "olcanic"
      ],
      [
        "er",
        "s"
      ],
      [
        "he",
        "et"
      ],
      [
        "en",
        "ce"
      ],
      [
        "ĠG",
        "ranite"
      ],
      [
        "o",
        "st"
      ],
      [
        "i",
        "e"
      ],
      [
        "ation",
        "s"
      ],
      [
        "Ġ",
        "up"
      ],
      [
        "er",
        "e"
      ],
      [
        "ĠA",
        "ge"
      ],
      [
        "ĠC",
        "on"
      ],
      [
        "l",
        "ies"
      ],
      [
        "p",
        "le"
      ],
      [
        "d",
        "e"
      ],
      [
        "i",
        "b"
      ],
      [
        "er",
        "ate"
      ],
      [
        "ar",
        "y"
      ],
      [
        "Ġb",
        "ed"
      ],
      [
        "la",
        "in"
      ],
      [
        "ĠU",
        "n"
      ],
      [
        "Ġc",
        "o"
      ],
      [
        "Ġ",
        "z"
      ],
      [
        "u",
        "g"
      ],
      [
        "an",
        "t"
      ],
      [
        "ilt",
        "stone"
      ],
      [
        "or",
        "ite"
      ],
      [
        ")",
        ","
      ],
      [
        "Ġloc",
        "al"
      ],
      [
        "am",
        "e"
      ],
      [
        "os",
        "s"
      ],
      [
        "oun",
        "d"
      ],
      [
        "v",
        "i"
      ],
      [
        "l",
        "om"
      ],
      [
        "ĠP",
        "rovince"
      ],
      [
        "i",
        "a"
      ],
      [
        "c",
        "ro"
      ],
      [
        "ĠC",
        "om"
      ],
      [
        "k",
        "e"
      ],
      [
        "Ġf",
        "or"
      ],
      [
        "Ġo",
        "ut"
      ],
      [
        "olog",
        "ical"
      ],
      [
        "Ġs",
        "tr"
      ],
      [
        "a",
        "y"
      ],
      [
        "ĠM",
        "ount"
      ],
      [
        "Ġrock",
        "s"
      ],
      [
        "ion",
        "al"
      ],
      [
        "ĠD",
        "e"
      ],
      [
        "ter",
        "n"
      ],
      [
        "Ġt",
        "ype"
      ],
      [
        "re",
        "l"
      ],
      [
        "l",
        "ac"
      ],
      [
        "Ġp",
        "ro"
      ],
      [
        "Ġm",
        "ar"
      ],
      [
        "ĠVolcanic",
        "s"
      ],
      [
        "p",
        "er"
      ],
      [
        "Ġ2",
        "0"
      ],
      [
        "f",
        "er"
      ],
      [
        "Ġa",
        "b"
      ],
      [
        "Ġc",
        "h"
      ],
      [
        "Ġl",
        "ow"
      ],
      [
        "Ġ",
        "4"
      ],
      [
        "Ġg",
        "re"
      ],
      [
        "Ġk",
        "m"
      ],
      [
        "Ġth",
        "is"
      ],
      [
        "en",
        "s"
      ],
      [
        "ed",
        "im"
      ],
      [
        "as",
        "s"
      ],
      [
        "im",
        "est"
      ],
      [
        "i",
        "orite"
      ],
      [
        "2",
        "0"
      ],
      [
        "ar",
        "a"
      ],
      [
        "it",
        "es"
      ],
      [
        "g",
        "es"
      ],
      [
        "Ġ",
        "5"
      ],
      [
        "al",
        "t"
      ],
      [
        "ir",
        "con"
      ],
      [
        "lom",
        "erate"
      ],
      [
        "Ġn",
        "orth"
      ],
      [
        "es",
        "c"
      ],
      [
        "s",
        "o"
      ],
      [
        "Ġ",
        "6"
      ],
      [
        "Ġ",
        "000"
      ],
      [
        "i",
        "ot"
      ],
      [
        "Ġg",
        "ra"
      ],
      [
        "Ġin",
        "tr"
      ],
      [
        "Ġin",
        "clud"
      ],
      [
        "olog",
        "y"
      ],
      [
        "Ġlocal",
        "ity"
      ],
      [
        "gra",
        "ined"
      ],
      [
        "ow",
        "n"
      ],
      [
        ".",
        ","
      ],
      [
        "imest",
        "one"
      ],
      [
        "i",
        "ver"
      ],
      [
        "ab",
        "le"
      ],
      [
        "p",
        "re"
      ],
      [
        "an",
        "ge"
      ],
      [
        "ĠT",
        "ype"
      ],
      [
        "Ġg",
        "ran"
      ],
      [
        "Ġs",
        "ub"
      ],
      [
        "Ġz",
        "ircon"
      ],
      [
        "ar",
        "b"
      ],
      [
        "is",
        "s"
      ],
      [
        "ĠA",
        "l"
      ],
      [
        "h",
        "y"
      ],
      [
        "r",
        "es"
      ],
      [
        "P",
        "b"
      ],
      [
        "on",
        "s"
      ],
      [
        "x",
        "t"
      ],
      [
        "Ġcon",
        "t"
      ],
      [
        "or",
        "rel"
      ],
      [
        "w",
        "e"
      ],
      [
        "o",
        "o"
      ],
      [
        "ĠS",
        "h"
      ],
      [
        "ĠGe",
        "ological"
      ],
      [
        "un",
        "d"
      ],
      [
        "p",
        "ar"
      ],
      [
        "esc",
        "ri"
      ],
      [
        "u",
        "ite"
      ],
      [
        "Ġs",
        "iltstone"
      ],
      [
        "iot",
        "ite"
      ],
      [
        "ĠTh",
        "ick"
      ],
      [
        "h",
        "i"
      ],
      [
        "ed",
        "i"
      ],
      [
        "e",
        "ous"
      ],
      [
        "er",
        "al"
      ],
      [
        "Ġs",
        "t"
      ],
      [
        "ig",
        "n"
      ],
      [
        "ro",
        "g"
      ],
      [
        "x",
        "im"
      ],
      [
        "l",
        "u"
      ],
      [
        "u",
        "re"
      ],
      [
        "Ġ",
        "J"
      ],
      [
        "Ġ",
        "en"
      ],
      [
        "ĠS",
        "ub"
      ],
      [
        "ĠC",
        "o"
      ],
      [
        "Ġsou",
        "th"
      ],
      [
        "Ġ",
        "7"
      ],
      [
        "l",
        "ast"
      ],
      [
        "f",
        "f"
      ],
      [
        "ly",
        "ing"
      ],
      [
        "oc",
        "k"
      ],
      [
        "Ġ",
        "it"
      ],
      [
        "Ġwh",
        "ich"
      ],
      [
        "ry",
        "st"
      ],
      [
        "Ġd",
        "is"
      ],
      [
        "od",
        "iorite"
      ],
      [
        "etamorph",
        "ic"
      ],
      [
        "a",
        "k"
      ],
      [
        "Ġsou",
        "r"
      ],
      [
        "Ġthick",
        "ness"
      ],
      [
        "ther",
        "n"
      ],
      [
        "Ġd",
        "et"
      ],
      [
        "ĠR",
        "iver"
      ],
      [
        "Ġth",
        "at"
      ],
      [
        "con",
        "formably"
      ],
      [
        "Ġb",
        "ound"
      ],
      [
        "s",
        "on"
      ],
      [
        "Ġ",
        "Y"
      ],
      [
        "ĠThick",
        "ness"
      ],
      [
        "r",
        "at"
      ],
      [
        "Ġmin",
        "or"
      ],
      [
        "ĠH",
        "ill"
      ],
      [
        "o",
        "v"
      ],
      [
        "r",
        "al"
      ],
      [
        "a",
        "w"
      ],
      [
        "Ġr",
        "es"
      ],
      [
        "ations",
        "hi"
      ],
      [
        "y",
        "s"
      ],
      [
        "Ġ",
        "Q"
      ],
      [
        "pos",
        "ed"
      ],
      [
        "ol",
        "ite"
      ],
      [
        "Ġun",
        "der"
      ],
      [
        "Ġout",
        "cro"
      ],
      [
        "Ġb",
        "ut"
      ],
      [
        "Ġf",
        "ine"
      ],
      [
        "a",
        "g"
      ],
      [
        "Ġ",
        "ran"
      ],
      [
        "ple",
        "x"
      ],
      [
        "1",
        "00"
      ],
      [
        "Ġbed",
        "s"
      ],
      [
        "ĠS",
        "up"
      ],
      [
        "m",
        "at"
      ],
      [
        "Ġover",
        "lain"
      ],
      [
        "ro",
        "w"
      ],
      [
        "Ġg",
        "ranite"
      ],
      [
        "ĠR",
        "ange"
      ],
      [
        "Ġsour",
        "ce"
      ],
      [
        "Ġv",
        "olcanic"
      ],
      [
        "m",
        "ent"
      ],
      [
        "Ġf",
        "orm"
      ],
      [
        "is",
        "h"
      ],
      [
        "on",
        "es"
      ],
      [
        "s",
        "s"
      ],
      [
        "e",
        "ar"
      ],
      [
        "am",
        "ed"
      ],
      [
        "Ġ2",
        "00"
      ],
      [
        "ith",
        "ology"
      ],
      [
        "pre",
        "ted"
      ],
      [
        "el",
        "ds"
      ],
      [
        "edi",
        "um"
      ],
      [
        "Ġ",
        "-"
      ],
      [
        "e",
        "e"
      ],
      [
        "ta",
        "ins"
      ],
      [
        "ir",
        "on"
      ],
      [
        "ĠQ",
        "u"
      ],
      [
        "t",
        "s"
      ],
      [
        "Ġunit",
        "s"
      ],
      [
        "ur",
        "es"
      ],
      [
        "ol",
        "e"
      ],
      [
        "r",
        "ed"
      ],
      [
        "Ġh",
        "as"
      ],
      [
        "ĠS",
        "t"
      ],
      [
        "d",
        "ing"
      ],
      [
        "at",
        "er"
      ],
      [
        "Ġcon",
        "g"
      ],
      [
        "Ġma",
        "g"
      ],
      [
        "1",
        "0"
      ],
      [
        "Ġal",
        "so"
      ],
      [
        "ou",
        "t"
      ],
      [
        "arb",
        "on"
      ],
      [
        "ne",
        "iss"
      ],
      [
        "y",
        "r"
      ],
      [
        "ĠO",
        "ver"
      ],
      [
        "t",
        "on"
      ],
      [
        "rog",
        "en"
      ],
      [
        "ĠG",
        "ran"
      ],
      [
        "Ġd",
        "escri"
      ],
      [
        "ess",
        "ion"
      ],
      [
        "Ġs",
        "edim"
      ],
      [
        "Ġ",
        "+/-"
      ],
      [
        "n",
        "et"
      ],
      [
        "or",
        "n"
      ],
      [
        "l",
        "en"
      ],
      [
        "is",
        "ed"
      ],
      [
        "ĠO",
        "rogen"
      ],
      [
        "an",
        "g"
      ],
      [
        "cc",
        "ur"
      ],
      [
        "Ġbe",
        "en"
      ],
      [
        "Ġm",
        "et"
      ],
      [
        "or",
        "d"
      ],
      [
        "Ġf",
        "ormation"
      ],
      [
        "er",
        "m"
      ],
      [
        "we",
        "en"
      ],
      [
        "e",
        "w"
      ],
      [
        "re",
        "vi"
      ],
      [
        "oss",
        "il"
      ],
      [
        "o",
        "or"
      ],
      [
        "i",
        "al"
      ],
      [
        "ra",
        "ph"
      ],
      [
        "l",
        "at"
      ],
      [
        "Ġin",
        "t"
      ],
      [
        "u",
        "st"
      ],
      [
        "ationshi",
        "ps"
      ],
      [
        "ar",
        "d"
      ],
      [
        "or",
        "y"
      ],
      [
        "Ġup",
        "per"
      ],
      [
        "et",
        "ween"
      ],
      [
        "ar",
        "ies"
      ],
      [
        "p",
        "or"
      ],
      [
        "Ġw",
        "as"
      ],
      [
        "a",
        "ul"
      ],
      [
        "Ġover",
        "lies"
      ],
      [
        "o",
        "z"
      ],
      [
        "Ġ",
        "ge"
      ],
      [
        "revi",
        "ous"
      ],
      [
        "Ġm",
        "edium"
      ],
      [
        "av",
        "e"
      ],
      [
        "y",
        "n"
      ],
      [
        "g",
        "roup"
      ],
      [
        "Ġas",
        "s"
      ],
      [
        "ĠC",
        "h"
      ],
      [
        "a",
        "th"
      ],
      [
        "Ġb",
        "etween"
      ],
      [
        "ĠR",
        "e"
      ],
      [
        "om",
        "e"
      ],
      [
        "Ġde",
        "f"
      ],
      [
        "i",
        "ated"
      ],
      [
        "om",
        "in"
      ],
      [
        "ul",
        "ar"
      ],
      [
        "f",
        "ic"
      ],
      [
        "b",
        "b"
      ],
      [
        "Ġn",
        "ot"
      ],
      [
        "ĠN",
        "ame"
      ],
      [
        "p",
        "l"
      ],
      [
        "is",
        "ation"
      ],
      [
        "Ġ",
        "y"
      ],
      [
        "Ġgre",
        "y"
      ],
      [
        "w",
        "o"
      ],
      [
        "he",
        "m"
      ],
      [
        "Ġd",
        "ol"
      ],
      [
        "Ġe",
        "qu"
      ],
      [
        "Ġf",
        "ol"
      ],
      [
        "oz",
        "o"
      ],
      [
        "is",
        "m"
      ],
      [
        ")",
        ";"
      ],
      [
        "ĠE",
        "xt"
      ],
      [
        "ĠR",
        "el"
      ],
      [
        "Ġb",
        "iotite"
      ],
      [
        "ĠCom",
        "plex"
      ],
      [
        "l",
        "and"
      ],
      [
        "iv",
        "al"
      ],
      [
        "am",
        "b"
      ],
      [
        "bed",
        "ded"
      ],
      [
        "Ġm",
        "ud"
      ],
      [
        "m",
        "on"
      ],
      [
        "g",
        "re"
      ],
      [
        "ĠA",
        "r"
      ],
      [
        "ĠL",
        "ithology"
      ],
      [
        "Ġran",
        "ge"
      ],
      [
        "ar",
        "k"
      ],
      [
        "8",
        "0"
      ],
      [
        "p",
        "t"
      ],
      [
        "at",
        "es"
      ],
      [
        "i",
        "el"
      ],
      [
        "in",
        "a"
      ],
      [
        "Ġbound",
        "aries"
      ],
      [
        "al",
        "c"
      ],
      [
        "Ġ1",
        "3"
      ],
      [
        "ac",
        "t"
      ],
      [
        "Ġh",
        "igh"
      ],
      [
        "ozo",
        "ic"
      ],
      [
        "ar",
        "se"
      ],
      [
        "v",
        "iron"
      ],
      [
        "Ġcong",
        "lomerate"
      ],
      [
        "im",
        "b"
      ],
      [
        "Ġ19",
        "9"
      ],
      [
        "Ġex",
        "t"
      ],
      [
        "id",
        "e"
      ],
      [
        "Ġl",
        "ith"
      ],
      [
        "a",
        "il"
      ],
      [
        "a",
        "in"
      ],
      [
        "Ġo",
        "ccur"
      ],
      [
        "l",
        "ow"
      ],
      [
        "Ġen",
        "viron"
      ],
      [
        "ing",
        "s"
      ],
      [
        "r",
        "it"
      ],
      [
        "an",
        "n"
[...]
