{
  "version": "1.0",
  "truncation": null,
  "padding": null,
  "added_tokens": [
    {
      "id": 0,
      "content": "<|pad|>",
      "single_word": false,
      "lstrip": false,
      "rstrip": false,
      "normalized": false,
      "special": true
    },
    {
      "id": 1,
      "content": "<|endoftext|>",
      "single_word": false,
      "lstrip": false,
      "rstrip": false,
      "normalized": false,
      "special": true
    },
    {
      "id": 2,
      "content": "<|unk|>",
      "single_word": false,
      "lstrip": false,
      "rstrip": false,
      "normalized": false,
      "special": true
    }
  ],
  "normalizer": null,
  "pre_tokenizer": {
    "type": "ByteLevel",
    "add_prefix_space": false,
    "trim_offsets": true,
    "use_regex": true
  },
  "post_processor": null,
  "decoder": {
    "type": "ByteLevel",
    "add_prefix_space": true,
    "trim_offsets": true,
    "use_regex": true
  },
  "model": {
    "type": "BPE",
    "dropout": null,
    "unk_token": null,
    "continuing_subword_prefix": null,
    "end_of_word_suffix": null,
    "fuse_unk": false,
    "byte_fallback": false,
    "ignore_merges": false,
    "vocab": {
      "<|pad|>": 0,
      "<|endoftext|>": 1,
      "<|unk|>": 2,
      "!": 3,
      "\"": 4,
      "#": 5,
      "$": 6,
      "%": 7,
      "&": 8,
      "'": 9,
      "(": 10,
      ")": 11,
      "*": 12,
      "+": 13,
      ",": 14,
      "-": 15,
      ".": 16,
      "/": 17,
      "0": 18,
      "1": 19,
      "2": 20,
      "3": 21,
      "4": 22,
      "5": 23,
      "6": 24,
      "7": 25,
      "8": 26,
      "9": 27,
      ":": 28,
      ";": 29,
      "<": 30,
      "=": 31,
      ">": 32,
      "?": 33,
      "@": 34,
      "A": 35,
      "B": 36,
      "C": 37,
      "D": 38,
      "E": 39,
      "F": 40,
      "G": 41,
      "H": 42,
      "I": 43,
      "J": 44,
      "K": 45,
      "L": 46,
      "M": 47,
      "N": 48,
      "O": 49,
      "P": 50,
      "Q": 51,
      "R": 52,
      "S": 53,
      "T": 54,
      "U": 55,
      "V": 56,
      "W": 57,
      "X": 58,
      "Y": 59,
      "Z": 60,
      "[": 61,
      "\\": 62,
      "]": 63,
      "^": 64,
      "_": 65,
      "`": 66,
      "a": 67,
      "b": 68,
      "c": 69,
      "d": 70,
      "e": 71,
      "f": 72,
      "g": 73,
      "h": 74,
      "i": 75,
      "j": 76,
      "k": 77,
      "l": 78,
      "m": 79,
      "n": 80,
      "o": 81,
      "p": 82,
      "q": 83,
      "r": 84,
      "s": 85,
      "t": 86,
      "u": 87,
      "v": 88,
      "w": 89,
      "x": 90,
      "y": 91,
      "z": 92,
      "{": 93,
      "|": 94,
      "}": 95,
      "~": 96,
      "¡": 97,
      "¢": 98,
      "£": 99,
      "¤": 100,
      "¥": 101,
      "¦": 102,
      "§": 103,
      "¨": 104,
      "©": 105,
      "ª": 106,
      "«": 107,
      "¬": 108,
      "®": 109,
      "¯": 110,
      "°": 111,
      "±": 112,
      "²": 113,
      "³": 114,
      "´": 115,
      "µ": 116,
      "¶": 117,
      "·": 118,
      "¸": 119,
      "¹": 120,
      "º": 121,
      "»": 122,
      "¼": 123,
      "½": 124,
      "¾": 125,
      "¿": 126,
      "À": 127,
      "Á": 128,
      "Â": 129,
      "Ã": 130,
      "Ä": 131,
      "Å": 132,
      "Æ": 133,
      "Ç": 134,
      "È": 135,
      "É": 136,
      "Ê": 137,
      "Ë": 138,
      "Ì": 139,
      "Í": 140,
      "Î": 141,
      "Ï": 142,
      "Ð": 143,
      "Ñ": 144,
      "Ò": 145,
      "Ó": 146,
      "Ô": 147,
      "Õ": 148,
      "Ö": 149,
      "×": 150,
      "Ø": 151,
      "Ù": 152,
      "Ú": 153,
      "Û": 154,
      "Ü": 155,
      "Ý": 156,
      "Þ": 157,
      "ß": 158,
      "à": 159,
      "á": 160,
      "â": 161,
      "ã": 162,
      "ä": 163,
      "å": 164,
      "æ": 165,
      "ç": 166,
      "è": 167,
      "é": 168,
      "ê": 169,
      "ë": 170,
      "ì": 171,
      "í": 172,
      "î": 173,
      "ï": 174,
      "ð": 175,
      "ñ": 176,
      "ò": 177,
      "ó": 178,
      "ô": 179,
      "õ": 180,
      "ö": 181,
      "÷": 182,
      "ø": 183,
      "ù": 184,
      "ú": 185,
      "û": 186,
      "ü": 187,
      "ý": 188,
      "þ": 189,
      "ÿ": 190,
      "Ā": 191,
      "ā": 192,
      "Ă": 193,
      "ă": 194,
      "Ą": 195,
      "ą": 196,
      "Ć": 197,
      "ć": 198,
      "Ĉ": 199,
      "ĉ": 200,
      "Ċ": 201,
      "ċ": 202,
      "Č": 203,
      "č": 204,
      "Ď": 205,
      "ď": 206,
      "Đ": 207,
      "đ": 208,
      "Ē": 209,
      "ē": 210,
      "Ĕ": 211,
      "ĕ": 212,
      "Ė": 213,
      "ė": 214,
      "Ę": 215,
      "ę": 216,
      "Ě": 217,
      "ě": 218,
      "Ĝ": 219,
      "ĝ": 220,
      "Ğ": 221,
      "ğ": 222,
      "Ġ": 223,
      "ġ": 224,
      "Ģ": 225,
      "ģ": 226,
      "Ĥ": 227,
      "ĥ": 228,
      "Ħ": 229,
      "ħ": 230,
      "Ĩ": 231,
      "ĩ": 232,
      "Ī": 233,
      "ī": 234,
      "Ĭ": 235,
      "ĭ": 236,
      "Į": 237,
      "į": 238,
      "İ": 239,
      "ı": 240,
      "Ĳ": 241,
      "ĳ": 242,
      "Ĵ": 243,
      "ĵ": 244,
      "Ķ": 245,
      "ķ": 246,
      "ĸ": 247,
      "Ĺ": 248,
      "ĺ": 249,
      "Ļ": 250,
      "ļ": 251,
      "Ľ": 252,
      "ľ": 253,
      "Ŀ": 254,
      "ŀ": 255,
      "Ł": 256,
      "ł": 257,
      "Ń": 258,
      "on": 259,
      "an": 260,
      "er": 261,
      "in": 262,
      "th": 263,
      "es": 264,
      "Ġo": 265,
      "ed": 266,
      "at": 267,
      "or": 268,
      "ar": 269,
      "Ġs": 270,
      "and": 271,
      "al": 272,
      "Ġof": 273,
      "is": 274,
      "Ġf": 275,
      "en": 276,
      "as": 277,
      "Ġth": 278,
      "ou": 279,
      "Ġand": 280,
      "ĠC": 281,
      "Ġb": 282,
      "ic": 283,
      "Ġin": 284,
      "it": 285,
      "ion": 286,
      "Ġc": 287,
      "Ġm": 288,
      "Ġt": 289,
      "ĠM": 290,
      "re": 291,
      "li": 292,
      "orm": 293,
      "ĠA": 294,
      "ĠB": 295,
      "Ġthe": 296,
      "ly": 297,
      "ro": 298,
      "ton": 299,
      "ation": 300,
      "Ġp": 301,
      "lo": 302,
      "Ġ(": 303,
      "le": 304,
      "ĠS": 305,
      "Ġa": 306,
      "Ġto": 307,
      "Ġw": 308,
      "ĠT": 309,
      "Ġis": 310,
      "ormation": 311,
      "ge": 312,
      "Ġn": 313,
      "Ġ1": 314,
      "Ġd": 315,
      "tone": 316,
      "os": 317,
      "Ġu": 318,
      "ĠP": 319,
      "il": 320,
      "ac": 321,
      "ĠF": 322,
      "ĠR": 323,
      "am": 324,
      "gr": 325,
      "ing": 326,
      "ver": 327,
      "et": 328,
      "em": 329,
      "ent": 330,
      "ĠL": 331,
      "ter": 332,
      "ĠG": 333,
      "ain": 334,
      "id": 335,
      "el": 336,
      "ite": 337,
      "ber": 338,
      "ay": 339,
      "Ġe": 340,
      "ian": 341,
      "ĠN": 342,
      "oun": 343,
      "ur": 344,
      "Ġun": 345,
      "ol": 346,
      "pp": 347,
      "Ġli": 348,
      "ec": 349,
      "ember": 350,
      "art": 351,
      "Ġcon": 352,
      "ate": 353,
      "ad": 354,
      "om": 355,
      "Ġar": 356,
      "Ġformation": 357,
      "ĠI": 358,
      "ick": 359,
      "ĠFormation": 360,
      "ĠO": 361,
      ".,": 362,
      "mes": 363,
      "lies": 364,
      "Ġsh": 365,
      "qu": 366,
      "ig": 367,
      "ĠW": 368,
      "Ġas": 369,
      "der": 370,
      "ale": 371,
      "Ġgr": 372,
      "ount": 373,
      "mestone": 374,
      "oc": 375,
      "stone": 376,
      "ist": 377,
      "Ġfe": 378,
      ").": 379,
      "ab": 380,
      "ous": 381,
      "ĠU": 382,
      "Ġare": 383,
      "ĠH": 384,
      "ĠD": 385,
      "Ġsand": 386,
      "Ġ2": 387,
      "ith": 388,
      "ve": 389,
      "ĠTh": 390,
      "lu": 391,
      "ĠE": 392,
      "outh": 393,
      "Ġ[": 394,
      "Ġfeet": 395,
      "est": 396,
      "low": 397,
      "rom": 398,
      "orth": 399,
      "ot": 400,
      "Ġre": 401,
      "Ġon": 402,
      "ap": 403,
      "Ġlimestone": 404,
      "Ġsec": 405,
      "Ġr": 406,
      "Ġbas": 407,
      "Ġfrom": 408,
      "tern": 409,
      "Ġl": 410,
      "Ġh": 411,
      "Ġsouth": 412,
      "Ġwith": 413,
      "ow": 414,
      "ĠCo": 415,
      "Ġmember": 416,
      "00": 417,
      "Ġby": 418,
      "oup": 419,
      "Ġnorth": 420,
      "ch": 421,
      "pos": 422,
      "ess": 423,
      "ut": 424,
      "ew": 425,
      "ded": 426,
      "Ġqu": 427,
      "Ġ3": 428,
      "ast": 429,
      "tion": 430,
      "Ġthick": 431,
      "ĠAge": 432,
      "Ġshale": 433,
      "ĠCre": 434,
      "Ġpart": 435,
      "ĠMount": 436,
      "yp": 437,
      "Ġbe": 438,
      "im": 439,
      "Ġab": 440,
      "tr": 441,
      "ul": 442,
      "Ġwh": 443,
      "ill": 444,
      "ine": 445,
      "Ġbed": 446,
      "ĠGr": 447,
      "Ġover": 448,
      "Ġat": 449,
      "ene": 450,
      "form": 451,
      "all": 452,
      "ĠMountain": 453,
      "Ġsandstone": 454,
      "um": 455,
      "si": 456,
      "ated": 457,
      "pper": 458,
      "Ġ19": 459,
      "lom": 460,
      "ck": 461,
      "Ġex": 462,
      "eous": 463,
      "ak": 464,
      "Ġor": 465,
      "ri": 466,
      "ff": 467,
      "ek": 468,
      "lac": 469,
      "derlies": 470,
      "ness": 471,
      "ce": 472,
      "Ġg": 473,
      "Ġde": 474,
      "ies": 475,
      "Ġv": 476,
      "ally": 477,
      "us": 478,
      "amed": 479,
      "ocene": 480,
      "ype": 481,
      "ere": 482,
      "iv": 483,
      "ear": 484,
      "ang": 485,
      "Ġlo": 486,
      "ably": 487,
      "ĠIn": 488,
      "clu": 489,
      "ĠK": 490,
      "un": 491,
      "Ġsection": 492,
      "ĠV": 493,
      "ity": 494,
      "ĠMember": 495,
      "con": 496,
      "Ġage": 497,
      "od": 498,
      "),": 499,
      "ĠUn": 500,
      "ir": 501,
      "Ġal": 502,
      "ers": 503,
      "ich": 504,
      "ĠCreek": 505,
      "Ġloc": 506,
      "bed": 507,
      "Ġro": 508,
      "ong": 509,
      "ern": 510,
      "end": 511,
      "Ġ4": 512,
      "ee": 513,
      "ant": 514,
      "Ġch": 515,
      "ĠRi": 516,
      ".]": 517,
      "ort": 518,
      "cc": 519,
      "to": 520,
      "Ġbeds": 521,
      "out": 522,
      "Ġunit": 523,
      "iss": 524,
      "Ġrock": 525,
      "Ġcons": 526,
      "ish": 527,
      "dle": 528,
      "Ġinclu": 529,
      "gh": 530,
      "ĠCon": 531,
      "Ġarea": 532,
      "Ġit": 533,
      "ell": 534,
      "ĠGroup": 535,
      "arly": 536,
      "ark": 537,
      "ists": 538,
      "estern": 539,
      "astern": 540,
      "br": 541,
      "any": 542,
      "ĠRiver": 543,
      "artz": 544,
      "iddle": 545,
      "19": 546,
      "ard": 547,
      "ia": 548,
      "ĠAl": 549,
      "aceous": 550,
      "Ġcont": 551,
      "Ġupper": 552,
      "ĠThe": 553,
      "Ġquad": 554,
      "Ġthat": 555,
      "ĠJ": 556,
      "Ġ5": 557,
      "ĠCh": 558,
      "ag": 559,
      "erm": 560,
      "formably": 561,
      "Ġoverlies": 562,
      "entr": 563,
      "Ġunderlies": 564,
      "ign": 565,
      "Ġco": 566,
      "lomer": 567,
      "Ġgroup": 568,
      "ati": 569,
      "ĠThick": 570,
      "ame": 571,
      "Ġlow": 572,
      "Ġfor": 573,
      "Ġexpos": 574,
      "ĠAn": 575,
      "new": 576,
      "Ġse": 577,
      "Ġinter": 578,
      "olo": 579,
      "pr": 580,
      "ĠThickness": 581,
      "Ġabout": 582,
      "ĠIs": 583,
      "se": 584,
      "entral": 585,
      "des": 586,
      "Ġstr": 587,
      "Ġnot": 588,
      "own": 589,
      "Ġrocks": 590,
      "Ġcom": 591,
      "ub": 592,
      "ley": 593,
      "Ġgray": 594,
      "ph": 595,
      "lack": 596,
      "Ġ7": 597,
      "Ġlocal": 598,
      "Ġquartz": 599,
      "fer": 600,
      "Ġcl": 601,
      "Ġwhich": 602,
      "ĠCount": 603,
      "olog": 604,
      "wn": 605,
      "aph": 606,
      "ore": 607,
      "Ġinto": 608,
      "Ġpro": 609,
      "uff": 610,
      "ost": 611,
      "ĠLate": 612,
      "st": 613,
      "ary": 614,
      "bedded": 615,
      "graph": 616,
      "ence": 617,
      "Ġst": 618,
      "ah": 619,
      "lomerate": 620,
      "Ġsil": 621,
      "ass": 622,
      "Ġlower": 623,
      "av": 624,
      "ev": 625,
      "port": 626,
      "ry": 627,
      "gray": 628,
      "rang": 629,
      "oss": 630,
      "Ġquadrang": 631,
      "app": 632,
      "Ġcong": 633,
      "graphic": 634,
      "ĠSh": 635,
      "ained": 636,
      "anyon": 637,
      "Ġtype": 638,
      "ĠMountains": 639,
      "ne": 640,
      "op": 641,
      "ĠOver": 642,
      "ille": 643,
      "conformably": 644,
      "Ġ6": 645,
      "og": 646,
      "Ġthin": 647,
      "can": 648,
      "res": 649,
      "yl": 650,
      "Ġlocality": 651,
      "ud": 652,
      "ert": 653,
      "Ġcor": 654,
      "olom": 655,
      "ted": 656,
      "te": 657,
      "ĠCanyon": 658,
      "iz": 659,
      "ĠAr": 660,
      "Ġnear": 661,
      "ĠCounty": 662,
      "ath": 663,
      "Ġft": 664,
      "Ġbasal": 665,
      "enn": 666,
      "able": 667,
      "ossil": 668,
      "Ġquadrangle": 669,
      "itic": 670,
      "ĠBe": 671,
      "ov": 672,
      "Ġ\"": 673,
      "ake": 674,
      "ange": 675,
      "rel": 676,
      "lying": 677,
      "ss": 678,
      "Ġmap": 679,
      "Ġbut": 680,
      "reen": 681,
      "ach": 682,
      "Ġy": 683,
      "ĠOverlies": 684,
      "Ġsouthw": 685,
      "rown": 686,
      "Ġeast": 687,
      "taceous": 688,
      "Ġthan": 689,
      "igh": 690,
      "we": 691,
      "Ġwest": 692,
      "ologic": 693,
      "Ġsilt": 694,
      "van": 695,
      "olcan": 696,
      "Ġdes": 697,
      "ĠCretaceous": 698,
      "ville": 699,
      "GS": 700,
      "ccur": 701,
      "ĠLi": 702,
      "Ġ8": 703,
      "ĠType": 704,
      "ambr": 705,
      "olcanic": 706,
      "Ġapp": 707,
      "ĠCons": 708,
      "posit": 709,
      "ĠSt": 710,
      "ambrian": 711,
      "ĠOr": 712,
      "olomite": 713,
      "ome": 714,
      "eastern": 715,
      "ock": 716,
      "son": 717,
      "Ġbase": 718,
      "sive": 719,
      "Ġconglomerate": 720,
      "ĠMa": 721,
      "sh": 722,
      "ater": 723,
      "atigraphic": 724,
      "Ġmin": 725,
      "Ġred": 726,
      "Ġbasin": 727,
      "ĠUnderlies": 728,
      "Ġclay": 729,
      "alley": 730,
      "ending": 731,
      "enns": 732,
      "ĠEarly": 733,
      "mon": 734,
      "ĠGe": 735,
      "ght": 736,
      "ylvan": 737,
      "land": 738,
      "SGS": 739,
      "Ġthis": 740,
      "ennsylvan": 741,
      "Ġthickness": 742,
      "Ġincludes": 743,
      "Ġ10": 744,
      "Ġ15": 745,
      "ord": 746,
      "grained": 747,
      "ĠBas": 748,
      "ide": 749,
      "ains": 750,
      "Ġmar": 751,
      "par": 752,
      "Ġan": 753,
      "ound": 754,
      "apped": 755,
      "ure": 756,
      "ĠConsists": 757,
      "age": 758,
      "Ġcentral": 759,
      "aw": 760,
      "Ġfine": 761,
      "Ġnorthw": 762,
      "ĠLimestone": 763,
      "tones": 764,
      "ium": 765,
      "pring": 766,
      "eld": 767,
      "ont": 768,
      "ric": 769,
      "ĠPennsylvan": 770,
      "if": 771,
      "Ġmi": 772,
      "ossils": 773,
      "act": 774,
      "so": 775,
      "rop": 776,
      "ex": 777,
      "lain": 778,
      "wo": 779,
      "ĠMiddle": 780,
      "zon": 781,
      "Ġoth": 782,
      "ates": 783,
      "ĠSpring": 784,
      "Ġtop": 785,
      "ĠHill": 786,
      "ized": 787,
      "ove": 788,
      "ered": 789,
      "ĠSand": 790,
      "Ġsouthern": 791,
      "east": 792,
      "red": 793,
      "Ġname": 794,
      "ures": 795,
      "Ġshal": 796,
      "Ġass": 797,
      "ull": 798,
      "Ġout": 799,
      "Ġdi": 800,
      "Ġunder": 801,
      "Ġalong": 802,
      "igned": 803,
      "Ġsub": 804,
      "alc": 805,
      "ank": 806,
      "Ġdist": 807,
      "Ġeastern": 808,
      "ĠRe": 809,
      "Ġge": 810,
      "Ġus": 811,
      "les": 812,
      "ans": 813,
      "posed": 814,
      "Ġtuff": 815,
      "Ġbet": 816,
      "Ġmiddle": 817,
      "cending": 818,
      "ĠUSGS": 819,
      "Ġnorthern": 820,
      "Ġabove": 821,
      "Ġdeposit": 822,
      "eries": 823,
      "ĠMiss": 824,
      "int": 825,
      "Ġext": 826,
      "ween": 827,
      "ross": 828,
      "Ġwhere": 829,
      "ok": 830,
      "ĠValley": 831,
      "de": 832,
      "ĠBlack": 833,
      "Ġvolcanic": 834,
      "Ġcorrel": 835,
      "ie": 836,
      "Ġbetween": 837,
      "idge": 838,
      "ĠPennsylvanian": 839,
      "ĠNamed": 840,
      "ivid": 841,
      "Ġnamed": 842,
      "Ġexposed": 843,
      "Ġwestern": 844,
      "au": 845,
      "Ġdolomite": 846,
      "ct": 847,
      "dov": 848,
      "arb": 849,
      "ician": 850,
      "dovician": 851,
      "orn": 852,
      "onian": 853,
      "cri": 854,
      "itt": 855,
      "ossi": 856,
      "oth": 857,
      "ĠQ": 858,
      "Ġform": 859,
      "ĠBig": 860,
      "+/": 861,
      "edium": 862,
      "Ġfa": 863,
      "+/-": 864,
      "bur": 865,
      "fig": 866,
      "Ġno": 867,
      "000": 868,
      "ferous": 869,
      "ĠOrdovician": 870,
      "ough": 871,
      "Ġhas": 872,
      "resent": 873,
      "Ġdark": 874,
      "Ġlate": 875,
      "Ġconsists": 876,
      "Ġoccur": 877,
      "Ġexposures": 878,
      "Ġstratigraphic": 879,
      "Ġmedium": 880,
      "Ġpl": 881,
      "ivided": 882,
      "ger": 883,
      "ĠBull": 884,
      "ack": 885,
      "ĠLake": 886,
      "Ġsome": 887,
      "Ġbeen": 888,
      "ĠQu": 889,
      "].": 890,
      "Ġpre": 891,
      "ork": 892,
      "Ġearly": 893,
      "Ġunits": 894,
      "up": 895,
      "issi": 896,
      "ĠRock": 897,
      "Ġconsid": 898,
      "ied": 899,
      "Ġcalc": 900,
      ");": 901,
      "Ġup": 902,
      "Ġdeg": 903,
      "neiss": 904,
      "ĠPe": 905,
      "Ġ20": 906,
      "ace": 907,
      "ft": 908,
      "olor": 909,
      "Ġwell": 910,
      "he": 911,
      "min": 912,
      "Ġseries": 913,
      "Ġlight": 914,
      "assive": 915,
      "Ġgran": 916,
      "ĠNew": 917,
      "ents": 918,
      "Ġhere": 919,
      "bb": 920,
      "ĠAm": 921,
      "elt": 922,
      "ra": 923,
      "Ġgreen": 924,
      "ens": 925,
      "ĠUpper": 926,
      "Ġwas": 927,
      "amp": 928,
      "ĠShale": 929,
      "Ġshales": 930,
      "Ġreport": 931,
      "Ġalso": 932,
      "ogn": 933,
      "vi": 934,
      "ĠMi": 935,
      "ower": 936,
      "Ġlith": 937,
      "ĠDev": 938,
      "ug": 939,
      "Ġver": 940,
      "Ġ12": 941,
      "ave": 942,
      "central": 943,
      "orph": 944,
      "fin": 945,
      "zo": 946,
      "Ġbased": 947,
      "Ġplac": 948,
      "lder": 949,
      "ward": 950,
      "Ġ9": 951,
      "Ġmassive": 952,
      "Age": 953,
      "ĠPro": 954,
      "Ġbelow": 955,
      "ular": 956,
      "ĠCl": 957,
      "Ġcontact": 958,
      "cribed": 959,
      "bably": 960,
      "Ġfossils": 961,
      "Ġmore": 962,
      "Ġits": 963,
      "ata": 964,
      "Ġflow": 965,
      "Ġcoar": 966,
      "(?": 967,
      "):": 968,
      "ĠRange": 969,
      "olite": 970,
      "Ġquartzite": 971,
      "co": 972,
      "pl": 973,
      "ĠSandstone": 974,
      "Ġzon": 975,
      "areous": 976,
      "hy": 977,
      "Ġmapped": 978,
      "Ġsands": 979,
      "issipp": 980,
      "Ġle": 981,
      "ĠCom": 982,
      "ĠBr": 983,
      "ield": 984,
      "Ġk": 985,
      "ival": 986,
      "lop": 987,
      "ĠMiocene": 988,
      "ue": 989,
      "ites": 990,
      "Ġmost": 991,
      "Ġdis": 992,
      "Ġreg": 993,
      "ĠDevonian": 994,
      "ozo": 995,
      "ond": 996,
      "Ġpresent": 997,
      "Ġsouthwestern": 998,
      "Ġconsidered": 999,
      "ognized": 1000,
      "ose": 1001,
      "ip": 1002,
      "ĠY": 1003,
      "ĠGeol": 1004,
      "quival": 1005,
      "ĠBlu": 1006,
      "Ġothers": 1007,
      "ese": 1008,
      "ĠSan": 1009,
      "Ġrec": 1010,
      "chist": 1011,
      "urf": 1012,
      "eas": 1013,
      "alt": 1014,
      "ase": 1015,
      "Ġblack": 1016,
      "Ġ18": 1017,
      "acies": 1018,
      "ĠMississipp": 1019,
      "ier": 1020,
      "Ġ0": 1021,
      "edim": 1022,
      "Ġmembers": 1023,
      "Ġcoal": 1024,
      "Ġcoarse": 1025,
      "our": 1026,
      "ellow": 1027,
      "Ġsoutheastern": 1028,
      "Ġassigned": 1029,
      "Ġtr": 1030,
      "Ġunconformably": 1031,
      "ascending": 1032,
      "ition": 1033,
      "Ġgeologic": 1034,
      "ĠPeak": 1035,
      "ple": 1036,
      "'s": 1037,
      "crop": 1038,
      "ured": 1039,
      "ĠWh": 1040,
      "Ġinterbedded": 1041,
      "ann": 1042,
      "alled": 1043,
      "Ġsequ": 1044,
      "aver": 1045,
      "Ġcalcareous": 1046,
      "liferous": 1047,
      "Ġlocally": 1048,
      "Ġbrown": 1049,
      "Ġformations": 1050,
      "ĠCambrian": 1051,
      "Ġoverlying": 1052,
      "ust": 1053,
      "Ġunderlying": 1054,
      "Ġsections": 1055,
      "ossiliferous": 1056,
      "ised": 1057,
      "Ġbasalt": 1058,
      "50": 1059,
      "ermian": 1060,
      "Ġdesign": 1061,
      "ozoic": 1062,
      "cl": 1063,
      "ĠPre": 1064,
      "istocene": 1065,
      "ld": 1066,
      "Ġfacies": 1067,
      "leistocene": 1068,
      "Ġ11": 1069,
      "arbon": 1070,
      "Ġside": 1071,
      "ĠAt": 1072,
      "Ġchert": 1073,
      "Ġsepar": 1074,
      "Ġind": 1075,
      "ĠSil": 1076,
      "Ġ30": 1077,
      "assic": 1078,
      "Named": 1079,
      "ĠLower": 1080,
      "late": 1081,
      "Ġmet": 1082,
      "Ġused": 1083,
      "quivalent": 1084,
      "Ar": 1085,
      "att": 1086,
      "Ġ193": 1087,
      "Ġvery": 1088,
      "urface": 1089,
      "ĠAd": 1090,
      "ĠPermian": 1091,
      "Ġsiltstone": 1092,
      "ĠMo": 1093,
      "Ġincluded": 1094,
      "easured": 1095,
      "uch": 1096,
      "Ġrest": 1097,
      "ĠUnconformably": 1098,
      "Ġ+/-": 1099,
      "ĠBar": 1100,
      "Ġhave": 1101,
      "alls": 1102,
      "Ġgneiss": 1103,
      "Ġsedim": 1104,
      "ĠMes": 1105,
      "ĠMississippian": 1106,
      "uc": 1107,
      "Ġph": 1108,
      "Ġad": 1109,
      "ĠPleistocene": 1110,
      "Ġsandy": 1111,
      "Ġchart": 1112,
      "ib": 1113,
      "Ġonly": 1114,
      "ryst": 1115,
      "ansas": 1116,
      "oint": 1117,
      "anch": 1118,
      "Ġcross": 1119,
      "Ġcalled": 1120,
      "Ġgrad": 1121,
      "],": 1122,
      "iot": 1123,
      "lin": 1124,
      "ĠEocene": 1125,
      "Ġsequence": 1126,
      "ey": 1127,
      "Ġbec": 1128,
      "ĠMar": 1129,
      "ĠEl": 1130,
      "gill": 1131,
      "ka": 1132,
      "Ġtwo": 1133,
      "ĠUnit": 1134,
      "Ġpe": 1135,
      "ĠWas": 1136,
      "Ġwhite": 1137,
      "Ġdesignated": 1138,
      "Ġall": 1139,
      "Ġcontains": 1140,
      "Ġnortheastern": 1141,
      "Ġregion": 1142,
      "ive": 1143,
      "ical": 1144,
      "Ġterm": 1145,
      "Ġnorthwestern": 1146,
      "ĠSprings": 1147,
      "fined": 1148,
      "Ġmay": 1149,
      "Ġoutcrop": 1150,
      "xim": 1151,
      "named": 1152,
      "tru": 1153,
      "ather": 1154,
      "burg": 1155,
      "Ġzone": 1156,
      "Ġprobably": 1157,
      "ik": 1158,
      "formal": 1159,
      "Ġam": 1160,
      "Ġcontain": 1161,
      "(?)": 1162,
      "ĠCA": 1163,
      "lig": 1164,
      "Ġ13": 1165,
      "ington": 1166,
      "ately": 1167,
      "und": 1168,
      "iotite": 1169,
      "ges": 1170,
      "Ġmud": 1171,
      "most": 1172,
      "ĠBed": 1173,
      "Ġsandstones": 1174,
      "orite": 1175,
      "Ġthr": 1176,
      "Ġblu": 1177,
      "ree": 1178,
      "Ġequivalent": 1179,
      "Ġdeposits": 1180,
      "ford": 1181,
      "ĠMc": 1182,
      "urve": 1183,
      "ult": 1184,
      "Ġ197": 1185,
      "Ġargill": 1186,
      "Ġnortheast": 1187,
      "gin": 1188,
      "ial": 1189,
      "Ġschist": 1190,
      "ĠRidge": 1191,
      "Ġ25": 1192,
      "anges": 1193,
      "aus": 1194,
      "ron": 1195,
      "ĠBay": 1196,
      "ĠNM": 1197,
      "Ġsoutheast": 1198,
      "Ġ196": 1199,
      "ative": 1200,
      "Ġsouthwest": 1201,
      "ĠReport": 1202,
      "ire": 1203,
      "ana": 1204,
      "Ġvar": 1205,
      "ittle": 1206,
      "vious": 1207,
      "urvey": 1208,
      "cambrian": 1209,
      "conform": 1210,
      "Ġwe": 1211,
      "Ġyellow": 1212,
      "bl": 1213,
      "of": 1214,
      "ĠFalls": 1215,
      "Ġyoun": 1216,
      "US": 1217,
      "Ġboth": 1218,
      "ado": 1219,
      "ĠPrecambrian": 1220,
      "ĠIt": 1221,
      "hyolite": 1222,
      "ision": 1223,
      "enton": 1224,
      "ott": 1225,
      "ance": 1226,
      "Ġolder": 1227,
      "atch": 1228,
      "Ġoverlain": 1229,
      "Ġnorthwest": 1230,
      "io": 1231,
      "man": 1232,
      "ligocene": 1233,
      "inc": 1234,
      "Ġhigh": 1235,
      "ĠBl": 1236,
      "amin": 1237,
      "Ġunnamed": 1238,
      "Ġrefer": 1239,
      "Ġdescribed": 1240,
      "ified": 1241,
      "ĠSurvey": 1242,
      "Ġfol": 1243,
      "Ġfossiliferous": 1244,
      "ener": 1245,
      "ĠTex": 1246,
      "Ġ200": 1247,
      "avel": 1248,
      "Ġmeasured": 1249,
      "ĠEx": 1250,
      "Ġstrata": 1251,
      "ince": 1252,
      "Ġsp": 1253,
      "ĠMont": 1254,
      "Ġlay": 1255,
      "Ġcorrelation": 1256,
      "Ġplaces": 1257,
      "Ġ198": 1258,
      "rict": 1259,
      "ĠPale": 1260,
      "Ġinclude": 1261,
      "Ġprov": 1262,
      "ment": 1263,
      "oli": 1264,
      "pt": 1265,
      "Ġmuch": 1266,
      "Ġindic": 1267,
      "arac": 1268,
      "liocene": 1269,
      "ĠSant": 1270,
      "Ġflows": 1271,
      "ause": 1272,
      "brown": 1273,
      "uth": 1274,
      "Ġbelt": 1275,
      "Ġ100": 1276,
      "mestones": 1277,
      "Ġlar": 1278,
      "Ġfaun": 1279,
      "ico": 1280,
      "lied": 1281,
      "igin": 1282,
      "ood": 1283,
      "ĠAsh": 1284,
      "ames": 1285,
      "ett": 1286,
      "pres": 1287,
      "ricted": 1288,
      "wood": 1289,
      "ĠTexas": 1290,
      "The": 1291,
      "ĠBear": 1292,
      "ĠTr": 1293,
      "omin": 1294,
      "Ġfew": 1295,
      "aracter": 1296,
      "reg": 1297,
      "Ġrem": 1298,
      "Ġmarine": 1299,
      "Ġcol": 1300,
      "ĠPoint": 1301,
      "ĠInclu": 1302,
      "ble": 1303,
      "urian": 1304,
      "ĠOligocene": 1305,
      "ĠWil": 1306,
      "ĠHills": 1307,
      "Ġdistrict": 1308,
      "Al": 1309,
      "ald": 1310,
      "row": 1311,
      "Ġnew": 1312,
      "Ġunconform": 1313,
      "Ġ50": 1314,
      "Ġthrough": 1315,
      "Ġyounger": 1316,
      "ole": 1317,
      "ĠCar": 1318,
      "ĠTuff": 1319,
      "Ġcommon": 1320,
      "oma": 1321,
      "ird": 1322,
      "ĠCos": 1323,
      "recc": 1324,
      "Ġ16": 1325,
      "Ġlimestones": 1326,
      "Ġother": 1327,
      "Ġpebb": 1328,
      "Ġrel": 1329,
      "ĠKansas": 1330,
      "Ġmarl": 1331,
      "Ġgranite": 1332,
      "nown": 1333,
      "Ġbiotite": 1334,
      "196": 1335,
      "Ġthese": 1336,
      "ations": 1337,
      "ĠPliocene": 1338,
      "Ġapplied": 1339,
      "viously": 1340,
      "ding": 1341,
      "ead": 1342,
      "ins": 1343,
      "ams": 1344,
      "ĠIsland": 1345,
      "ĠCal": 1346,
      "ĠBel": 1347,
      "Ġ14": 1348,
      "iles": 1349,
      "ĠGreen": 1350,
      "ĠNorth": 1351,
      "ada": 1352,
      ").]": 1353,
      "ends": 1354,
      "mall": 1355,
      "uck": 1356,
      "ature": 1357,
      "Ġfr": 1358,
      "ĠOn": 1359,
      "ĠDes": 1360,
      "orphy": 1361,
      "inity": 1362,
      "Ġcharacter": 1363,
      "Ġoccurs": 1364,
      "Ġmudstone": 1365,
      "val": 1366,
      "Ġso": 1367,
      "ita": 1368,
      "Ġ17": 1369,
      "Ġshow": 1370,
      "Ġrecognized": 1371,
      "ĠSilurian": 1372,
      "gest": 1373,
      "surface": 1374,
      "ĠCor": 1375,
      "ĠSouth": 1376,
      "Ġ40": 1377,
      "Ġsilty": 1378,
      "ĠBasin": 1379,
      "fic": 1380,
      "lor": 1381,
      "ĠLat": 1382,
      "ĠNo": 1383,
      "ivision": 1384,
      "Ġer": 1385,
      "assi": 1386,
      "ĠColor": 1387,
      "Ġinformal": 1388,
      "ĠBut": 1389,
      "Ġdivided": 1390,
      "uthor": 1391,
      "ating": 1392,
      "ĠAs": 1393,
      "Ġper": 1394,
      "ĠTri": 1395,
      "ĠFr": 1396,
      "ime": 1397,
      "ccurs": 1398,
      "Ġbecause": 1399,
      "IS": 1400,
      "Ġnow": 1401,
      "Ġareas": 1402,
      "Ġgener": 1403,
      "ods": 1404,
      "ĠQuartz": 1405,
      "Ġbr": 1406,
      "Ġbound": 1407,
      "ĠLong": 1408,
      "ĠName": 1409,
      "Ġone": 1410,
      "Ġfault": 1411,
      "An": 1412,
      "ob": 1413,
      "ines": 1414,
      "veral": 1415,
      "Ġres": 1416,
      "antown": 1417,
      "ĠCont": 1418,
      "ĠSanta": 1419,
      "table": 1420,
      "uous": 1421,
      "yn": 1422,
      "Ġim": 1423,
      "Ġir": 1424,
      "Ġsc": 1425,
      "Ġsmall": 1426,
      "Ġmiles": 1427,
      "ĠMon": 1428,
      "ĠRec": 1429,
      "tions": 1430,
      "imil": 1431,
      "cre": 1432,
      "field": 1433,
      "gu": 1434,
      "ner": 1435,
      "Ġwere": 1436,
      "Ġrepres": 1437,
      "Ġwithin": 1438,
      "ĠWash": 1439,
      "18": 1440,
      "Ġmic": 1441,
      "imilar": 1442,
      "10": 1443,
      "bee": 1444,
      "andon": 1445,
      "ĠWest": 1446,
      "Ġgravel": 1447,
      "Ġstud": 1448,
      "ĠBluff": 1449,
      "Ġseparated": 1450,
      "Ġcontaining": 1451,
      "ĠMontana": 1452,
      "Ġlarge": 1453,
      "way": 1454,
      "ĠRed": 1455,
      "ĠLittle": 1456,
      "Ġabund": 1457,
      "ahoma": 1458,
      "Ġargillaceous": 1459,
      "ĠColorado": 1460,
      "mantown": 1461,
      "vised": 1462,
      "entary": 1463,
      "elded": 1464,
      "ĠOccurs": 1465,
      "ekmantown": 1466,
      "ĠWhite": 1467,
      "nes": 1468,
      "ended": 1469,
      "Ġcarbon": 1470,
      "ĠOk": 1471,
      "Ġless": 1472,
      "tratigraphic": 1473,
      "Ġconglomer": 1474,
      "plex": 1475,
      "iary": 1476,
      "ena": 1477,
      "ĠMor": 1478,
      "ĠPark": 1479,
      "ĠFork": 1480,
      "Ġstated": 1481,
      "ĠCr": 1482,
      "Ġash": 1483,
      "lope": 1484,
      "Ġprovince": 1485,
      "andoned": 1486,
      "ident": 1487,
      "Ġev": 1488,
      "Ġ35": 1489,
      "Ġbedded": 1490,
      "ertiary": 1491,
      "ĠBeekmantown": 1492,
      "Ġappro": 1493,
      "elds": 1494,
      "ĠTriassic": 1495,
      "ĠCity": 1496,
      "Ġtime": 1497,
      "ational": 1498,
      "ĠSup": 1499,
      "ĠNe": 1500,
      "och": 1501,
      "ĠThis": 1502,
      "astic": 1503,
      "Ġparts": 1504,
      "pre": 1505,
      "anc": 1506,
      "arp": 1507,
      "Ġporphy": 1508,
      "amorph": 1509,
      "ĠGl": 1510,
      "els": 1511,
      ".],": 1512,
      "Ġsame": 1513,
      "ĠCO": 1514,
      "ically": 1515,
      "Ġseveral": 1516,
      "ĠCounties": 1517,
      "Ġkm": 1518,
      "ĠIncludes": 1519,
      "ke": 1520,
      "ments": 1521,
      "ind": 1522,
      "Ġsimilar": 1523,
      "Ġandes": 1524,
      "Ġma": 1525,
      "ĠNE": 1526,
      "old": 1527,
      "Ġorigin": 1528,
      "ology": 1529,
      "Ġsilic": 1530,
      "ographic": 1531,
      "Ġj": 1532,
      "Ġboundary": 1533,
      "water": 1534,
      "erry": 1535,
      "are": 1536,
      "Ġthree": 1537,
      "lock": 1538,
      "ĠSc": 1539,
      "ĠGran": 1540,
      "ears": 1541,
      "Ġconsist": 1542,
      "Ġabundant": 1543,
      "plac": 1544,
      "icinity": 1545,
      "Ġintru": 1546,
      "ĠAb": 1547,
      "Ġ195": 1548,
      "Ġvicinity": 1549,
      "ĠAlb": 1550,
      "Ġsubsurface": 1551,
      "ĠZ": 1552,
      "one": 1553,
      "Ġfound": 1554,
      "lec": 1555,
      "ĠGre": 1556,
      "Ġ24": 1557,
      "Ġrank": 1558,
      "ills": 1559,
      "Ġdefined": 1560,
      "Ġcontin": 1561,
      "inct": 1562,
      "atic": 1563,
      "als": 1564,
      "Ġtyp": 1565,
      "ĠAss": 1566,
      "Ġabandoned": 1567,
      "ĠVir": 1568,
      "Ġlayers": 1569,
      "ominant": 1570,
      "oor": 1571,
      "ison": 1572,
      "enc": 1573,
      "Ġbrecc": 1574,
      "Ġacc": 1575,
      "ĠTertiary": 1576,
      "ĠRo": 1577,
      "ĠDe": 1578,
      ".)": 1579,
      "iated": 1580,
      "lahoma": 1581,
      "ina": 1582,
      "ĠTX": 1583,
      "Ġnames": 1584,
      "ĠDolomite": 1585,
      "ota": 1586,
      "Ġranges": 1587,
      "ffer": 1588,
      "athering": 1589,
      "Ġfauna": 1590,
      "Ġunconformity": 1591,
      "ail": 1592,
      "yc": 1593,
      "err": 1594,
      "erly": 1595,
      "ice": 1596,
      "Ġconformably": 1597,
      "ĠHigh": 1598,
      "velop": 1599,
      "onglomerate": 1600,
      "oid": 1601,
      "ester": 1602,
      "Ġfl": 1603,
      "Ġtown": 1604,
      "terozoic": 1605,
      "omen": 1606,
      "ĠInd": 1607,
      "25": 1608,
      "Ġnon": 1609,
      "ĠFossils": 1610,
      "Ġrhyolite": 1611,
      "Ġ36": 1612,
      "ĠVA": 1613,
      "ished": 1614,
      "Ġinterval": 1615,
      "ĠBeaver": 1616,
      "Ġrestricted": 1617,
      "In": 1618,
      "Ġages": 1619,
      "formation": 1620,
      "oot": 1621,
      "ink": 1622,
      "ĠCol": 1623,
      "Ġmark": 1624,
      "ĠSE": 1625,
      "ĠSe": 1626,
      "ĠSn": 1627,
      "group": 1628,
      "ĠLe": 1629,
      "Ġ23": 1630,
      "Ġcomposed": 1631,
      "opted": 1632,
      "ĠGeologic": 1633,
      "ĠProterozoic": 1634,
      "ĠOklahoma": 1635,
      "llin": 1636,
      "ould": 1637,
      "Ġcr": 1638,
      "Ġcolor": 1639,
      "ĠFort": 1640,
      "197": 1641,
      "Ġproposed": 1642,
      "ight": 1643,
      "Ġdistinct": 1644,
      "ief": 1645,
      "Ġsedimentary": 1646,
      "ĠRecognized": 1647,
      "llino": 1648,
      "ER": 1649,
      "Ġident": 1650,
      "ise": 1651,
      "ĠSW": 1652,
      "ĠNW": 1653,
      "ĠFormations": 1654,
      "198": 1655,
      "aho": 1656,
      ".\"": 1657,
      "mit": 1658,
      "rich": 1659,
      "erv": 1660,
      "Ġshown": 1661,
      "Ġ27": 1662,
      "uggest": 1663,
      "omencl": 1664,
      "LA": 1665,
      "divided": 1666,
      "Ġcryst": 1667,
      "Ġmany": 1668,
      "ĠApp": 1669,
      "ĠBend": 1670,
      "osa": 1671,
      "Ġabs": 1672,
      "Ġclassi": 1673,
      "ĠState": 1674,
      "Ġpreviously": 1675,
      "ximum": 1676,
      "Ġrepresent": 1677,
      "20": 1678,
      "edge": 1679,
      "Ġthere": 1680,
      "Ġpoor": 1681,
      "ings": 1682,
      "ently": 1683,
      "ĠKn": 1684,
      "Ġgreenish": 1685,
      "Ġleast": 1686,
      "--": 1687,
      "sville": 1688,
      "ona": 1689,
      "ther": 1690,
      "ĠCan": 1691,
      "ĠConglomerate": 1692,
      "Ġminor": 1693,
      "Ġlithologic": 1694,
      "ep": 1695,
      "Ġoli": 1696,
      "ĠAZ": 1697,
      "Ġac": 1698,
      "ĠFl": 1699,
      "Ġdevelop": 1700,
      "irst": 1701,
      "Ġ60": 1702,
      "Ġmetamorph": 1703,
      "omenclature": 1704,
      "IN": 1705,
      "iorite": 1706,
      "net": 1707,
      "icon": 1708,
      "ade": 1709,
      "ocl": 1710,
      "ĠUT": 1711,
      "Ġgiv": 1712,
      "ĠBasalt": 1713,
      "Ġknown": 1714,
      "Ġvari": 1715,
      "Ġfrag": 1716,
      "ĠSuper": 1717,
      "ĠVirgin": 1718,
      "ĠIndian": 1719,
      "IT": 1720,
      "by": 1721,
      "âĢ": 1722,
      "Ġslate": 1723,
      "Ġpossi": 1724,
      "Ġlamin": 1725,
      "ĠMesa": 1726,
      "15": 1727,
      "EL": 1728,
      "pec": 1729,
      "ouri": 1730,
      "Ġcut": 1731,
      "Ġthey": 1732,
      "urassic": 1733,
      "Ġ33": 1734,
      "ongue": 1735,
      "193": 1736,
      "ĠBlue": 1737,
      "fferent": 1738,
      "iop": 1739,
      "Ġsuggest": 1740,
      "alk": 1741,
      "Ġfelds": 1742,
      "ĠMex": 1743,
      "liff": 1744,
      "Ġark": 1745,
      "ĠCorrel": 1746,
      "Ġstudy": 1747,
      "ĠVirginia": 1748,
      "âĢł": 1749,
      "ĠMexico": 1750,
      "cent": 1751,
      "fied": 1752,
      "ritic": 1753,
      "ually": 1754,
      "ities": 1755,
      "ĠAri": 1756,
      "ĠBald": 1757,
      "Ġdet": 1758,
      "Ġlater": 1759,
      "ĠConformably": 1760,
      "195": 1761,
      "ava": 1762,
      "Ġfollow": 1763,
      "Ġgenerally": 1764,
      "EN": 1765,
      "me": 1766,
      "sum": 1767,
      "ional": 1768,
      "luton": 1769,
      "unn": 1770,
      "ĠAll": 1771,
      "Ġmostly": 1772,
      "Ġsediments": 1773,
      "Ġblue": 1774,
      "air": 1775,
      "atter": 1776,
      "Ġpos": 1777,
      "ĠGul": 1778,
      "ĠIllino": 1779,
      "Ġlens": 1780,
      "ewh": 1781,
      "ĠJurassic": 1782,
      "achiop": 1783,
      "ĠContains": 1784,
      "uct": 1785,
      "isbee": 1786,
      "light": 1787,
      "ĠAp": 1788,
      "Ġpale": 1789,
      "Ġrange": 1790,
      "alline": 1791,
      "ĠAnn": 1792,
      "ĠYork": 1793,
      "Ġpoorly": 1794,
      "str": 1795,
      "Ġmain": 1796,
      "ĠBur": 1797,
      "ĠWY": 1798,
      "Ġ500": 1799,
      "Ġextends": 1800,
      "13": 1801,
      "ES": 1802,
      "oh": 1803,
      "Ġold": 1804,
      "ĠMT": 1805,
      "Ġdivision": 1806,
      "ĠGneiss": 1807,
      "Ġ32": 1808,
      "ĠAnd": 1809,
      "descending": 1810,
      "Ġplaced": 1811,
      "ĠButte": 1812,
      "den": 1813,
      "mith": 1814,
      "lift": 1815,
      "Ġpor": 1816,
      "Ġuse": 1817,
      "Ġlies": 1818,
      "lum": 1819,
      "lus": 1820,
      "Ġbasis": 1821,
      "ĠVolcanic": 1822,
      "ĠAmer": 1823,
      "Ġdisc": 1824,
      "ĠQuartzite": 1825,
      "ominantly": 1826,
      "oclase": 1827,
      "mar": 1828,
      "ĠCarbon": 1829,
      "lie": 1830,
      "ĠBelt": 1831,
      "rook": 1832,
      "Ġconcre": 1833,
      "ĠDr": 1834,
      "Ġ29": 1835,
      "ĠArk": 1836,
      "Ġclays": 1837,
      "Ġreferred": 1838,
      "anian": 1839,
      "inn": 1840,
      "ĠBa": 1841,
      "ĠSal": 1842,
      "ĠHol": 1843,
      "Ġlent": 1844,
      "Ġvalley": 1845,
      "angular": 1846,
      "cons": 1847,
      "iforn": 1848,
      "Ġyellowish": 1849,
      "ĠAssigned": 1850,
      "Ġposition": 1851,
      "ĠIllinois": 1852,
      "ifornia": 1853,
      "bly": 1854,
      "dish": 1855,
      "Ġpr": 1856,
      "ĠRanch": 1857,
      "ĠWy": 1858,
      "aper": 1859,
      "umn": 1860,
      "rib": 1861,
      "usc": 1862,
      "Ġamount": 1863,
      "Ġfragments": 1864,
      "see": 1865,
      "Ġfield": 1866,
      "ĠNV": 1867,
      "ounded": 1868,
      "oming": 1869,
      "Ġrevised": 1870,
      "ches": 1871,
      "Ġ31": 1872,
      "ĠMissouri": 1873,
      "Ġadopted": 1874,
      "Ġweath": 1875,
      "IA": 1876,
      "eet": 1877,
      "mer": 1878,
      "ĠPl": 1879,
      "ĠLa": 1880,
      "Ġ21": 1881,
      "unc": 1882,
      "ĠAlam": 1883,
      "ĠJu": 1884,
      "Ġcorrelated": 1885,
      "Ġoutcrops": 1886,
      "ĠPaleocene": 1887,
      "See": 1888,
      "Ġfossil": 1889,
      "ĠBatt": 1890,
      "ĠSch": 1891,
      "embl": 1892,
      "ĠGap": 1893,
      "ĠAlt": 1894,
      "ornbl": 1895,
      "ĠClark": 1896,
      "ĠCalifornia": 1897,
      "Ġgiven": 1898,
      "Ġlenses": 1899,
      "ornblend": 1900,
      "RA": 1901,
      "iferous": 1902,
      "ense": 1903,
      "aska": 1904,
      "Ġband": 1905,
      "ĠBrown": 1906,
      "Ġauthor": 1907,
      "ĠTop": 1908,
      "Ġnod": 1909,
      "Ġ22": 1910,
      "ypsum": 1911,
      "uss": 1912,
      "ĠRocks": 1913,
      "Ġbrachiop": 1914,
      "ĠGranite": 1915,
      "iefly": 1916,
      "Ch": 1917,
      "ler": 1918,
      "ĠMapped": 1919,
      "ĠBlo": 1920,
      "ement": 1921,
      "ĠId": 1922,
      "ĠHar": 1923,
      "Ġline": 1924,
      "akota": 1925,
      "odiorite": 1926,
      "erson": 1927,
      "orted": 1928,
      "Ġuppermost": 1929,
      "uced": 1930,
      "Ġthroughout": 1931,
      "fication": 1932,
      "Ġbreccia": 1933,
      "Be": 1934,
      "ox": 1935,
      "Ġsurface": 1936,
      "Ġmag": 1937,
      "ĠBer": 1938,
      "rock": 1939,
      "Ġreplac": 1940,
      "oga": 1941,
      "Ġindicate": 1942,
      "Ġapproxim": 1943,
      "Ġandesite": 1944,
      "Ġlaminated": 1945,
      "lished": 1946,
      "Ġbuff": 1947,
      "ĠBec": 1948,
      "ĠSw": 1949,
      "ĠWe": 1950,
      "ĠAnt": 1951,
      "Ġreddish": 1952,
      "ĠBranch": 1953,
      "Ġcollec": 1954,
      "Ġpercent": 1955,
      "Ġabsent": 1956,
      "14": 1957,
      "Ad": 1958,
      "GN": 1959,
      "ially": 1960,
      "sc": 1961,
      "sburg": 1962,
      "oulder": 1963,
      "ito": 1964,
      "ĠMad": 1965,
      "ĠUt": 1966,
      "Ġhard": 1967,
      "Ġstruct": 1968,
      "Ġgrayish": 1969,
      "ache": 1970,
      "ext": 1971,
      "Ġforms": 1972,
      "Ġoccurr": 1973,
      "Ġirreg": 1974,
      "SN": 1975,
      "ga": 1976,
      "go": 1977,
      "town": 1978,
      "ande": 1979,
      "Ġcyc": 1980,
      "ĠMay": 1981,
      "Ġnomenclature": 1982,
      "ouse": 1983,
      "ĠDakota": 1984,
      "Ġ28": 1985,
      "umb": 1986,
      "Ġgl": 1987,
      "Ġgre": 1988,
      "mond": 1989,
      "Ġshaly": 1990,
      "Ġvolcanics": 1991,
      "ĠClay": 1992,
      "Ġpebbles": 1993,
      "ornblende": 1994,
      "12": 1995,
      "CSN": 1996,
      "mun": 1997,
      "Ġsu": 1998,
      "ĠCap": 1999,
      "ĠMich": 2000,
      "ĠBisbee": 2001,
      "Ġdolom": 2002,
      "ĠPA": 2003,
      "olitic": 2004,
      "Ġ26": 2005,
      "Ġ300": 2006,
      "ĠMembers": 2007,
      "Ġ400": 2008,
      "Ġcommonly": 2009,
      "ix": 2010,
      "Ġem": 2011,
      "ano": 2012,
      "atite": 2013,
      "Ġsom": 2014,
      "Ġslight": 2015,
      "ĠSier": 2016,
      "ĠForm": 2017,
      "ama": 2018,
      "idence": 2019,
      "bert": 2020,
      "ĠEast": 2021,
      "Ġ192": 2022,
      "Ġroad": 2023,
      "Ġcomplex": 2024,
      "Ġcommun": 2025,
      "zona": 2026,
      "atively": 2027,
      "Ġeros": 2028,
      "Ġidentified": 2029,
      "Ġclassification": 2030,
      "ĠUtah": 2031,
      "USGS": 2032,
      "ca": 2033,
      "gn": 2034,
      "Ġocc": 2035,
      "ĠMin": 2036,
      "ĠAbr": 2037,
      "Ġpur": 2038,
      "ides": 2039,
      "Ġear": 2040,
      "ech": 2041,
      "ĠOh": 2042,
      "ĠThese": 2043,
      "Ġhis": 2044,
      "Ġ194": 2045,
      "Ġ199": 2046,
      "Ġ45": 2047,
      "phib": 2048,
      "ney": 2049,
      "Ġnearly": 2050,
      "Ġlithology": 2051,
      "ĠArizona": 2052,
      "ĠMichig": 2053,
      "hi": 2054,
      "oon": 2055,
      "tin": 2056,
      "ĠâĢł": 2057,
      "Ġangular": 2058,
      "iscons": 2059,
      "enite": 2060,
      "ĠPresent": 2061,
      "eter": 2062,
      "ette": 2063,
      "ĠWell": 2064,
      "Ġsecs": 2065,
      "ĠKY": 2066,
      "Ġaltern": 2067,
      "evada": 2068,
      "bury": 2069,
      "averde": 2070,
      "Ġadj": 2071,
      "ĠSupergroup": 2072,
      "isconsin": 2073,
      "Upper": 2074,
      "anco": 2075,
      "ara": 2076,
      "ala": 2077,
      "Ġfour": 2078,
      "ĠPal": 2079,
      "ĠRun": 2080,
      "ĠNevada": 2081,
      "Ġhe": 2082,
      "antic": 2083,
      "ording": 2084,
      "Ġusage": 2085,
      "ĠPaleozoic": 2086,
      "Ġsiliceous": 2087,
      "Ġapproximately": 2088,
      "aised": 2089,
      "ile": 2090,
      "wh": 2091,
      "ane": 2092,
      "era": 2093,
      "ĠCamp": 2094,
      "ĠMan": 2095,
      "ĠBad": 2096,
      "ĠBern": 2097,
      "Ġpluton": 2098,
      "lev": 2099,
      "ĠLoc": 2100,
      "ĠNY": 2101,
      "ĠOH": 2102,
      "ĠWood": 2103,
      "ĠGray": 2104,
      "anged": 2105,
      "pris": 2106,
      "ĠComposed": 2107,
      "Ġweathering": 2108,
      "ĠNebr": 2109,
      "ĠWyoming": 2110,
      "ribut": 2111,
      "ĠOhio": 2112,
      "SA": 2113,
      "Ġfar": 2114,
      "ĠBre": 2115,
      "Ġpink": 2116,
      "Ġwide": 2117,
      "ĠRes": 2118,
      "ĠGN": 2119,
      "Ġsheet": 2120,
      "Ġ34": 2121,
      "akes": 2122,
      "Ġdefin": 2123,
      "Ġreference": 2124,
      "ĠExt": 2125,
      "ĠDescribed": 2126,
      "Ġolive": 2127,
      "Ġdeveloped": 2128,
      "ĠAmeric": 2129,
      "96": 2130,
      "TA": 2131,
      "fore": 2132,
      "ioclase": 2133,
      "Ġent": 2134,
      "Ġest": 2135,
      "Ġbod": 2136,
      "ĠMap": 2137,
      "lier": 2138,
      "ĠSee": 2139,
      "Ġwork": 2140,
      "Ġdo": 2141,
      "ola": 2142,
      "ĠID": 2143,
      "ĠIL": 2144,
      "ocryst": 2145,
      "Ġlava": 2146,
      "eneath": 2147,
      "agioclase": 2148,
      "Ġ80": 2149,
      "Ġextended": 2150,
      "Ġcarbonate": 2151,
      "Ġconglomerates": 2152,
      "Ġcrystalline": 2153,
      "ĠJuan": 2154,
      "ĠIdaho": 2155,
      "ily": 2156,
      "pe": 2157,
      "ster": 2158,
      "xicon": 2159,
      "Ġbeneath": 2160,
      "ĠBak": 2161,
      "Ġpy": 2162,
      "Ġdr": 2163,
      "ĠRest": 2164,
      "luvi": 2165,
      "owe": 2166,
      "Ġgypsum": 2167,
      "earing": 2168,
      "odont": 2169,
      "Ġchanged": 2170,
      "ĠAnim": 2171,
      "Ġ75": 2172,
      "ference": 2173,
      "position": 2174,
      "Ġ150": 2175,
      "ĠBasal": 2176,
      "rops": 2177,
      "Ġdeposited": 2178,
      "Ġlexicon": 2179,
      "Ġgrades": 2180,
      "Ġshows": 2181,
      "Ġbrachiopods": 2182,
      "Type": 2183,
      "oos": 2184,
      "though": 2185,
      "oria": 2186,
      "Ġfoli": 2187,
      "Ġboulder": 2188,
      "osic": 2189,
      "illi": 2190,
      "ĠLies": 2191,
      "elong": 2192,
      "ollus": 2193,
      "Ġlimit": 2194,
      "ĠDivided": 2195,
      "asts": 2196,
      "ules": 2197,
      "ĠKent": 2198,
      "Ġconst": 2199,
      "ermin": 2200,
      "Ġcover": 2201,
      "eville": 2202,
      "ĠArch": 2203,
      "Ġclaystone": 2204,
      "Ġassoc": 2205,
      "Ġformerly": 2206,
      "olored": 2207,
      "Ġrests": 2208,
      "Ġfeldspar": 2209,
      "Un": 2210,
      "aun": 2211,
      "dition": 2212,
      "more": 2213,
      "Ġend": 2214,
      "ery": 2215,
      "eral": 2216,
      "eriv": 2217,
      "arded": 2218,
      "ĠBee": 2219,
      "road": 2220,
      "Ġdur": 2221,
      "ĠPaper": 2222,
      "ĠFor": 2223,
      "ither": 2224,
      "Ġhornblende": 2225,
      "ĠAlso": 2226,
      "Ġphen": 2227,
      "ĠMcC": 2228,
      "Ġjust": 2229,
      "Ġconsisting": 2230,
      "ĠGreat": 2231,
      "ĠGulch": 2232,
      "500": 2233,
      "Big": 2234,
      "fing": 2235,
      "Ġ=": 2236,
      "Ġob": 2237,
      "alf": 2238,
      "enom": 2239,
      "ĠCot": 2240,
      "ĠCross": 2241,
      "Ġpred": 2242,
      "ĠStone": 2243,
      "Ġwelded": 2244,
      "ĠPr": 2245,
      "ĠPen": 2246,
      "ĠPas": 2247,
      "ĠPot": 2248,
      "aylor": 2249,
      "Ġshould": 2250,
      "ĠDis": 2251,
      "lower": 2252,
      "Ġ37": 2253,
      "Ġcorner": 2254,
      "Ġextent": 2255,
      "(?).": 2256,
      "Ġhighly": 2257,
      "Ġcolumn": 2258,
      "ucky": 2259,
      "Ġconglomeratic": 2260,
      "Ġporphyritic": 2261,
      "az": 2262,
      "cad": 2263,
      "kes": 2264,
      "med": 2265,
      "oder": 2266,
      "yo": 2267,
      "arry": 2268,
      "Ġslope": 2269,
      "ali": 2270,
      "enver": 2271,
      "Ġmass": 2272,
      "Ġtill": 2273,
      "Ġaver": 2274,
      "ĠRhyolite": 2275,
      "omes": 2276,
      "ĠIN": 2277,
      "ĠOK": 2278,
      "Ġgrained": 2279,
      "Ġraised": 2280,
      "Ġbeing": 2281,
      "ĠIntru": 2282,
      "Ġcomp": 2283,
      "Ġstre": 2284,
      "telope": 2285,
      "Ġdifferent": 2286,
      "Ġtuffaceous": 2287,
      "ĠMesaverde": 2288,
      "Ġspec": 2289,
      "Ġremark": 2290,
      "Ġarkosic": 2291,
      "Ġconcretions": 2292,
      "ĠKentucky": 2293,
      "Ġduring": 2294,
      "17": 2295,
      "dam": 2296,
      "tained": 2297,
      "Ġinches": 2298,
      "ĠMarb": 2299,
      "rox": 2300,
      "ĠSp": 2301,
      "Ġag": 2302,
      "Ġdense": 2303,
      "oln": 2304,
      "ĠHas": 2305,
      "Ġlong": 2306,
      "astle": 2307,
      "ĠInter": 2308,
      "ĠRio": 2309,
      "Ġlocalities": 2310,
      "Ġuplift": 2311,
      "ĠWasatch": 2312,
      "ĠBeds": 2313,
      "ĠExposed": 2314,
      "ĠHighway": 2315,
      "Ġacross": 2316,
      "ĠVolcanics": 2317,
      "ĠSierra": 2318,
      "prises": 2319,
      "ĠNebraska": 2320,
      "ĠMarble": 2321,
      "Name": 2322,
      "ON": 2323,
      "UL": 2324,
      "bor": 2325,
      "both": 2326,
      "eff": 2327,
      "ook": 2328,
      "pub": 2329,
      "tt": 2330,
      "Ġsy": 2331,
      "Ġblock": 2332,
      "ĠBell": 2333,
      "loth": 2334,
      "Ġnum": 2335,
      "ingu": 2336,
      "ĠLow": 2337,
      "urn": 2338,
      "otal": 2339,
      "Ġ43": 2340,
      "eep": 2341,
      "ship": 2342,
      "Ġtrans": 2343,
      "ĠAdm": 2344,
      "uscov": 2345,
      "ĠBattle": 2346,
      "Des": 2347,
      "bearing": 2348,
      "com": 2349,
      "flow": 2350,
      "ys": 2351,
      "Ġtongue": 2352,
      "ĠTotal": 2353,
      "osed": 2354,
      "igo": 2355,
      "contin": 2356,
      "194": 2357,
      "tebr": 2358,
      "Ġappears": 2359,
      "Ġmargin": 2360,
      "Ġreports": 2361,
      "Ġzones": 2362,
      "Ġbluish": 2363,
      "ĠFlat": 2364,
      "Ġpossibly": 2365,
      "ĠApache": 2366,
      "ohn": 2367,
      "Ġphenocryst": 2368,
      "lothem": 2369,
      "IC": 2370,
      "efined": 2371,
      "green": 2372,
      "rank": 2373,
      "ensive": 2374,
      "icular": 2375,
      "Ġtext": 2376,
      "ĠMost": 2377,
      "ĠAto": 2378,
      "ĠSoc": 2379,
      "ĠSchist": 2380,
      "ĠPh": 2381,
      "acent": 2382,
      "enter": 2383,
      "ĠNot": 2384,
      "Ġ190": 2385,
      "Ġ44": 2386,
      "190": 2387,
      "aga": 2388,
      "ĠPennsylvania": 2389,
      "ific": 2390,
      "anks": 2391,
      "Ġcorrelative": 2392,
      "Ġformal": 2393,
      "incoln": 2394,
      "Ġimp": 2395,
      "Ġscale": 2396,
      "Ġevidence": 2397,
      "Ġintrusive": 2398,
      "Ġtypical": 2399,
      "Ġalternating": 2400,
      "Ġassociated": 2401,
      "uscovite": 2402,
      "21": 2403,
      "Black": 2404,
      "Th": 2405,
      "stones": 2406,
      "Ġes": 2407,
      "atri": 2408,
      "ash": 2409,
      "Ġcliff": 2410,
      "Ġme": 2411,
      "ĠMill": 2412,
      "tongu": 2413,
      "Ġpum": 2414,
      "Ġpub": 2415,
      "ĠSte": 2416,
      "ĠPond": 2417,
      "ĠRich": 2418,
      "emp": 2419,
      "urr": 2420,
      "ĠWisconsin": 2421,
      "Ġexce": 2422,
      "Ġ47": 2423,
      "Ġquadrangles": 2424,
      "yll": 2425,
      "Ġappar": 2426,
      "Ġplagioclase": 2427,
      "ĠComplex": 2428,
      "Ġbrownish": 2429,
      "ĠElk": 2430,
      "Ġamphib": 2431,
      "Ġiron": 2432,
      "Ġdetermin": 2433,
      "Ġamounts": 2434,
      "Ġslightly": 2435,
      "Ġentire": 2436,
      "atrix": 2437,
      "Bar": 2438,
      "OR": 2439,
      "wack": 2440,
      "Ġedge": 2441,
      "Ġsl": 2442,
      "Ġmatrix": 2443,
      "ĠAgu": 2444,
      "ĠBen": 2445,
      "ĠBrook": 2446,
      "ĠStratigraphic": 2447,
      "Ġdown": 2448,
      "ĠPar": 2449,
      "ids": 2450,
      "ession": 2451,
      "ĠUniv": 2452,
      "Ġincluding": 2453,
      "erman": 2454,
      "Ġlowest": 2455,
      "Ġinterfing": 2456,
      "ĠBeth": 2457,
      "ikie": 2458,
      "Ġ1970": 2459,
      "Ġrelations": 2460,
      "Ġcharacterized": 2461,
      "ĠWashington": 2462,
      "Ġnodules": 2463,
      "Ġcyclothem": 2464,
      "ĠCotton": 2465,
      "medi": 2466,
      "dal": 2467,
      "win": 2468,
      "wick": 2469,
      "Ġser": 2470,
      "Ġmollus": 2471,
      "ĠAcc": 2472,
      "ĠBigh": 2473,
      "ationally": 2474,
      "lob": 2475,
      "ĠSmith": 2476,
      "Ġderiv": 2477,
      "ĠLar": 2478,
      "ĠLand": 2479,
      "ural": 2480,
      "imore": 2481,
      "illage": 2482,
      "Ġchalk": 2483,
      "atified": 2484,
      "Ġexposure": 2485,
      "Ġtuffs": 2486,
      "aucon": 2487,
      "Ġupward": 2488,
      "altimore": 2489,
      "Ġphase": 2490,
      "Ġnewly": 2491,
      "ences": 2492,
      "Ġportion": 2493,
      "Ġphenocrysts": 2494,
      "11": 2495,
      "OC": 2496,
      "OS": 2497,
      "PH": 2498,
      "cal": 2499,
      "wall": 2500,
      "inent": 2501,
      "its": 2502,
      "liev": 2503,
      "ĠBenton": 2504,
      "Ġpres": 2505,
      "ĠStr": 2506,
      "pping": 2507,
      "ĠOf": 2508,
      "ĠDri": 2509,
      "Ġridge": 2510,
      "owa": 2511,
      "Ġ38": 2512,
      "formally": 2513,
      "beds": 2514,
      "ĠJeff": 2515,
      "agle": 2516,
      "Ġdisconformably": 2517,
      "ITES": 2518,
      "ĠCarboniferous": 2519,
      "Ġweathers": 2520,
      "ĠBloom": 2521,
      "Ġirregular": 2522,
      "Ġadjacent": 2523,
      "luvial": 2524,
      "owever": 2525,
      "Is": 2526,
      "ption": 2527,
      "informal": 2528,
      "Ġfig": 2529,
      "ĠCat": 2530,
      "Ġcan": 2531,
      "Ġmater": 2532,
      "Ġ(=": 2533,
      "ĠSwe": 2534,
      "ĠPort": 2535,
      "amm": 2536,
      "olf": 2537,
      "ection": 2538,
      "ĠUS": 2539,
      "ĠHay": 2540,
      "ĠEn": 2541,
      "Ġrhy": 2542,
      "Ġhalf": 2543,
      "Ġchiefly": 2544,
      "ĠJohn": 2545,
      "ages": 2546,
      "Ġinterpre": 2547,
      "Ġsouthward": 2548,
      "ĠMaximum": 2549,
      "Ġdiorite": 2550,
      "Ġsubdivided": 2551,
      "Ġusually": 2552,
      "Ġconsider": 2553,
      "Ġcherty": 2554,
      "ĠBlanco": 2555,
      "Ġaccess": 2556,
      "ELLA": 2557,
      "Ġoldest": 2558,
      "ĠArkansas": 2559,
      "Ġmaterial": 2560,
      "24": 2561,
      "200": 2562,
      "af": 2563,
      "ai": 2564,
      "ielded": 2565,
      "inous": 2566,
      "aton": 2567,
      "oriz": 2568,
      "Ġbor": 2569,
      "Ġbelong": 2570,
      "itut": 2571,
      "Ġmoder": 2572,
      "Ġterr": 2573,
      "ĠMer": 2574,
      "Ġtheir": 2575,
      "Ġwr": 2576,
      "ĠLee": 2577,
      "ĠLincoln": 2578,
      "ĠGu": 2579,
      "oll": 2580,
      "Ġconodont": 2581,
      "ĠWind": 2582,
      "ĠHur": 2583,
      "ĠDiv": 2584,
      "ĠDav": 2585,
      "ĠEagle": 2586,
      "ĠCoal": 2587,
      "ĠGrant": 2588,
      "forming": 2589,
      "rie": 2590,
      "Ġlocated": 2591,
      "resh": 2592,
      "Ġdescri": 2593,
      "Ġappear": 2594,
      "awk": 2595,
      "laine": 2596,
      "head": 2597,
      "Ġdiscontin": 2598,
      "Ġgradational": 2599,
      "Ġfolded": 2600,
      "Ġcarbonaceous": 2601,
      "Ġmaximum": 2602,
      "GNC": 2603,
      "Ġdolomitic": 2604,
      "Ġsomewh": 2605,
      "ĠLocally": 2606,
      "lieved": 2607,
      ",\"": 2608,
      "16": 2609,
      "Mapped": 2610,
      "Range": 2611,
      "colored": 2612,
      "ham": 2613,
      "ient": 2614,
      "west": 2615,
      "ĠAK": 2616,
      "ĠSu": 2617,
      "ĠPine": 2618,
      "ĠPier": 2619,
      "ĠFe": 2620,
      "berg": 2621,
      "omp": 2622,
      "ĠOs": 2623,
      "ĠWV": 2624,
      "isted": 2625,
      "Ġri": 2626,
      "ima": 2627,
      "ulin": 2628,
      "Ġalthough": 2629,
      "ĠAntelope": 2630,
      "Ġcomposition": 2631,
      "Ġ70": 2632,
      "Ġmaps": 2633,
      "Ġyielded": 2634,
      "Ġdikes": 2635,
      "ĠReference": 2636,
      "Ġextensive": 2637,
      "ĠProf": 2638,
      "Ġargillite": 2639,
      "incip": 2640,
      "Ġindicates": 2641,
      "Ġsoft": 2642,
      "Ġmicaceous": 2643,
      "marine": 2644,
      "Ġglaucon": 2645,
      "ĠSweet": 2646,
      "Miss": 2647,
      "OL": 2648,
      "gan": 2649,
      "led": 2650,
      "ule": 2651,
      "well": 2652,
      "xt": 2653,
      "ory": 2654,
      "orse": 2655,
      "Ġsamp": 2656,
      "ask": 2657,
      "Ġthose": 2658,
      "Ġmon": 2659,
      "ĠMag": 2660,
      "ĠSy": 2661,
      "ĠSum": 2662,
      "ĠTill": 2663,
      "ĠTerm": 2664,
      "Ġeither": 2665,
      "ĠNA": 2666,
      "ĠNational": 2667,
      "ĠIron": 2668,
      "Ġshell": 2669,
      "ĠDenver": 2670,
      "aps": 2671,
      "Ġrather": 2672,
      "Ġhoriz": 2673,
      "Ġvillage": 2674,
      "ants": 2675,
      "apping": 2676,
      "ĠShown": 2677,
      "Ġ600": 2678,
      "ertain": 2679,
      "Ġmarble": 2680,
      "Ġdistingu": 2681,
      "augh": 2682,
      "itten": 2683,
      "ĠQuat": 2684,
      "ĠAmmon": 2685,
      "ĠMoines": 2686,
      "ĠSci": 2687,
      "Ġfollowing": 2688,
      "ĠMichigan": 2689,
      "Ġdoes": 2690,
      ".;": 2691,
      "Ash": 2692,
      "Cambrian": 2693,
      "known": 2694,
      "line": 2695,
      "pic": 2696,
      "ts": 2697,
      "Ġantic": 2698,
      "Ġsyn": 2699,
      "ism": 2700,
      "Ġfoot": 2701,
      "ought": 2702,
      "ited": 2703,
      "ĠMud": 2704,
      "ĠBon": 2705,
      "Ġprom": 2706,
      "ĠTen": 2707,
      "ĠTaylor": 2708,
      "illo": 2709,
      "aced": 2710,
      "ĠRanges": 2711,
      "abama": 2712,
      "Ġ39": 2713,
      "illis": 2714,
      "Ġcoast": 2715,
      "Ġ896": 2716,
      "Ġunderlain": 2717,
      "ĠSilver": 2718,
      "ĠRoad": 2719,
      "Ġflank": 2720,
      "erved": 2721,
      "INA": 2722,
      "ĠHollow": 2723,
      "Ġerosion": 2724,
      "tongues": 2725,
      "ĠBighorn": 2726,
      "Ġderived": 2727,
      "ax": 2728,
      "di": 2729,
      "ej": 2730,
      "een": 2731,
      "ks": 2732,
      "uy": 2733,
      "ven": 2734,
      "erous": 2735,
      "Ġsch": 2736,
      "ĠCed": 2737,
      "ica": 2738,
      "Ġintr": 2739,
      "iter": 2740,
      "Ġmouth": 2741,
      "ĠMD": 2742,
      "revised": 2743,
      "rove": 2744,
      "Ġpers": 2745,
      "ĠSome": 2746,
      "osph": 2747,
      "ilton": 2748,
      "ĠFair": 2749,
      "olina": 2750,
      "Ġlign": 2751,
      "ĠWA": 2752,
      "abase": 2753,
      "ĠGrad": 2754,
      "ernary": 2755,
      "Ġ41": 2756,
      "ermont": 2757,
      "Ġcobb": 2758,
      "ĠBeech": 2759,
      "ĠStation": 2760,
      "shire": 2761,
      "Ġassembl": 2762,
      "okee": 2763,
      "Ġgranodiorite": 2764,
      "ĠProbably": 2765,
      "plete": 2766,
      "ĠMoore": 2767,
      "ively": 2768,
      "Ġ1983": 2769,
      "ĠBelle": 2770,
      "Ġmarked": 2771,
      "Ġdiscuss": 2772,
      "Ġcollected": 2773,
      "Ġoccurrence": 2774,
      "ĠPaso": 2775,
      "yllite": 2776,
      "Ġsomewhat": 2777,
      "100": 2778,
      "bro": 2779,
      "cut": 2780,
      "gs": 2781,
      "rest": 2782,
      "yan": 2783,
      "inoid": 2784,
      "Ġtan": 2785,
      "ĠBaltimore": 2786,
      "lose": 2787,
      "Ġtoward": 2788,
      "ĠLem": 2789,
      "ĠGSA": 2790,
      "Ġunpub": 2791,
      "Ġaround": 2792,
      "derson": 2793,
      "ĠHatch": 2794,
      "Ġlittle": 2795,
      "Ġoverl": 2796,
      "Ġvit": 2797,
      "Ġalmost": 2798,
      "ĠChester": 2799,
      "Ġclasts": 2800,
      "Ġthins": 2801,
      "Ġeastward": 2802,
      "Ġnorthward": 2803,
      "zonite": 2804,
      "ĠWhere": 2805,
      "Ġvaries": 2806,
      "ĠTrenton": 2807,
      "Ġcharacterist": 2808,
      "Ġcontinuous": 2809,
      "ĠCorrelation": 2810,
      "Ġlentil": 2811,
      "ĠRests": 2812,
      "boro": 2813,
      "ior": 2814,
      "iew": 2815,
      "las": 2816,
      "ool": 2817,
      "ridge": 2818,
      "tes": 2819,
      "zir": 2820,
      "ino": 2821,
      "Ġfirst": 2822,
      "ĠCab": 2823,
      "Ġbenton": 2824,
      "Ġmade": 2825,
      "ĠMart": 2826,
      "rect": 2827,
      "ĠAlum": 2828,
      "ĠBird": 2829,
      "ĠSk": 2830,
      "ĠSub": 2831,
      "Ġdated": 2832,
      "ems": 2833,
      "ĠLew": 2834,
      "ĠIowa": 2835,
      "istent": 2836,
      "ĠCoast": 2837,
      "Ġbelieved": 2838,
      "Ġglac": 2839,
      "Ġdeep": 2840,
      "ĠVan": 2841,
      "ĠUnion": 2842,
      "ishop": 2843,
      "storia": 2844,
      "Ġextending": 2845,
      "Ġ189": 2846,
      "cline": 2847,
      "Ġbecomes": 2848,
      "Ġporphyry": 2849,
      "ographically": 2850,
      "ĠAlbany": 2851,
      "ĠColumb": 2852,
      "Ġpurple": 2853,
      "wacke": 2854,
      "ĠJefferson": 2855,
      "Ġborder": 2856,
      "ĠQuaternary": 2857,
      "Ġprominent": 2858,
      "MA": 2859,
      "Pb": 2860,
      "gon": 2861,
      "jor": 2862,
      "kali": 2863,
      "north": 2864,
      "isco": 2865,
      "Ġfresh": 2866,
      "aster": 2867,
      "Ġthus": 2868,
      "ĠCoch": 2869,
      "Ġinformally": 2870,
      "Ġcm": 2871,
      "Ġtri": 2872,
      "ĠMed": 2873,
      "ĠMus": 2874,
      "ĠAust": 2875,
      "roft": 2876,
      "ĠSeries": 2877,
      "ĠLas": 2878,
      "olar": 2879,
      "pple": 2880,
      "Ġsharp": 2881,
      "ĠDel": 2882,
      "utcrop": 2883,
      "Ġwhole": 2884,
      "usulin": 2885,
      "unt": 2886,
      "Ġchann": 2887,
      "Ġ55": 2888,
      "weathering": 2889,
      "Ġdiam": 2890,
      "Ġsubd": 2891,
      "raft": 2892,
      "Ġpebble": 2893,
      "ĠAbs": 2894,
      "Ġmetamorphosed": 2895,
      "ENS": 2896,
      "ewhere": 2897,
      "Ġmainly": 2898,
      "Ġgreat": 2899,
      "ĠAmerican": 2900,
      "Ġpublished": 2901,
      "ĠCottonwood": 2902,
      "Ġdiscontinuous": 2903,
      "Con": 2904,
      "aqu": 2905,
      "awn": 2906,
      "dy": 2907,
      "ez": 2908,
      "oir": 2909,
      "per": 2910,
      "ued": 2911,
      "edges": 2912,
      "Ġint": 2913,
      "iting": 2914,
      "Ġclose": 2915,
      "ĠMA": 2916,
      "let": 2917,
      "ĠTo": 2918,
      "geol": 2919,
      "Ġdec": 2920,
      "ĠRR": 2921,
      "etro": 2922,
      "ters": 2923,
      "quette": 2924,
      "ĠHam": 2925,
      "ote": 2926,
      "cher": 2927,
      "Ġ42": 2928,
      "Ġ46": 2929,
      "ĠAlabama": 2930,
      "ĠJack": 2931,
      "Ġquartzose": 2932,
      "Ġclastic": 2933,
      "ize": 2934,
      "Ġredefined": 2935,
      "Ġdeposition": 2936,
      "Ġstratigraphically": 2937,
      "ĠAdams": 2938,
      "ĠMoh": 2939,
      "olith": 2940,
      "ĠWilli": 2941,
      "ĠCarolina": 2942,
      "ĠSnake": 2943,
      "ĠAndre": 2944,
      "unction": 2945,
      "Ġpredominantly": 2946,
      "Ġnumerous": 2947,
      "Ġamphibolite": 2948,
      "dalena": 2949,
      "ĠPierre": 2950,
      "Ġhorizon": 2951,
      "30": 2952,
      "Lower": 2953,
      "New": 2954,
      "TR": 2955,
      "oy": 2956,
      "path": 2957,
      "sed": 2958,
      "ero": 2959,
      "atus": 2960,
      "arri": 2961,
      "Ġsq": 2962,
      "Ġsee": 2963,
      "Ġspar": 2964,
      "Ġsorted": 2965,
      "Ġmod": 2966,
      "ĠMet": 2967,
      "ĠMeasured": 2968,
      "ĠMines": 2969,
      "ĠTN": 2970,
      "ostratigraphic": 2971,
      "ĠPed": 2972,
      "ĠPow": 2973,
      "ĠFlor": 2974,
      "ĠGold": 2975,
      "ĠGrove": 2976,
      "idered": 2977,
      "Ġconform": 2978,
      "ĠWater": 2979,
      "dera": 2980,
      "ĠUint": 2981,
      "ĠDi": 2982,
      "otop": 2983,
      "Ġoverlie": 2984,
      "usion": 2985,
      "ĠChick": 2986,
      "phy": 2987,
      "Ġ700": 2988,
      "Ġwestward": 2989,
      "Ġgeol": 2990,
      "Ġformally": 2991,
      "issile": 2992,
      "Ġgreenstone": 2993,
      "Ġ1936": 2994,
      "Ġbluff": 2995,
      "Ġgeneral": 2996,
      "Ġscatter": 2997,
      "Ġapprox": 2998,
      "Ġdistinctive": 2999,
      "Ġrepresented": 3000,
      "ĠIndiana": 3001,
      "pect": 3002,
      "ĠExtends": 3003,
      "oosuc": 3004,
      "Ġboulders": 3005,
      "enomanian": 3006,
      "ĠAtoka": 3007,
      "incipal": 3008,
      "picuous": 3009,
      "Ġschists": 3010,
      "ĠCedar": 3011,
      "ĠLewis": 3012,
      "ĠCochise": 3013,
      "pathic": 3014,
      "Am": 3015,
      "Bl": 3016,
      "UR": 3017,
      "eg": 3018,
      "fton": 3019,
      "foot": 3020,
      "kin": 3021,
      "kill": 3022,
      "mo": 3023,
      "middle": 3024,
      "ual": 3025,
      "upper": 3026,
      "arr": 3027,
      "ales": 3028,
      "Ġfissile": 3029,
      "Ġthought": 3030,
      "Ġcal": 3031,
      "ĠAL": 3032,
      "ĠBent": 3033,
      "ĠBill": 3034,
      "ĠBlaine": 3035,
      "Ġthem": 3036,
      "rod": 3037,
      "log": 3038,
      "ĠTongue": 3039,
      "Ġnorm": 3040,
      "ĠRpt": 3041,
      "urated": 3042,
      "ĠOg": 3043,
      "ĠOutcrop": 3044,
      "Ġshel": 3045,
      "Ġhist": 3046,
      "Ġhead": 3047,
      "ĠGrand": 3048,
      "Ġorder": 3049,
      "ustr": 3050,
      "ĠVal": 3051,
      "ichita": 3052,
      "ĠChatt": 3053,
      "ĠAnderson": 3054,
      "oper": 3055,
      "ĠArn": 3056,
      "Ġreduced": 3057,
      "ĠBase": 3058,
      "Ġplat": 3059,
      "Ġregarded": 3060,
      "ĠMarquette": 3061,
      "Ġ1961": 3062,
      "Ġrelation": 3063,
      "Ġmetamorphic": 3064,
      "Ġlaterally": 3065,
      "Ġlenticular": 3066,
      "ĠAbrigo": 3067,
      "ĠReserv": 3068,
      "Ġdefinition": 3069,
      "tebrate": 3070,
      "Ġinterfingers": 3071,
      "restricted": 3072,
      "Ġscattered": 3073,
      ".).": 3074,
      "75": 3075,
      "vine": 3076,
      "Ġentr": 3077,
      "erokee": 3078,
      "orne": 3079,
      "enaceous": 3080,
      "ĠCastle": 3081,
      "ĠMine": 3082,
      "royo": 3083,
      "Ġpoint": 3084,
      "ĠSC": 3085,
      "entatively": 3086,
      "ĠLaw": 3087,
      "ĠGA": 3088,
      "ĠGar": 3089,
      "idal": 3090,
      "ĠNJ": 3091,
      "Ġunknown": 3092,
      "ĠWichita": 3093,
      "Ġgrains": 3094,
      "abbro": 3095,
      "ĠHaw": 3096,
      "ĠDu": 3097,
      "ĠThere": 3098,
      "luv": 3099,
      "posite": 3100,
      "Ġbedding": 3101,
      "Ġchange": 3102,
      "Ġconspicuous": 3103,
      "ĠChert": 3104,
      "ĠCherokee": 3105,
      "Ġinterbeds": 3106,
      "Ġcomplete": 3107,
      "ferred": 3108,
      "Ġstock": 3109,
      "ĠOverlain": 3110,
      "Ġupon": 3111,
      "Ġgranitic": 3112,
      "Ġherein": 3113,
      "ĠYellow": 3114,
      "ĠMississippi": 3115,
      "ĠBarn": 3116,
      "ĠAsp": 3117,
      "ĠFrank": 3118,
      "Ġmicro": 3119,
      "ĠGeological": 3120,
      "Ġpossible": 3121,
      "Ġauthors": 3122,
      "ĠForms": 3123,
      "Ġoccup": 3124,
      "Ġearlier": 3125,
      "Ġaccessed": 3126,
      "ĠHatchet": 3127,
      "zircon": 3128,
      "Ġsubdivision": 3129,
      "ĠUinta": 3130,
      "29": 3131,
      "34": 3132,
      "60": 3133,
      "be": 3134,
      "bles": 3135,
      "ds": 3136,
      "rite": 3137,
      "sand": 3138,
      "wy": 3139,
      "Ġign": 3140,
      "inder": 3141,
      "the": 3142,
      "ĠMing": 3143,
      "ĠAuthor": 3144,
      "ĠBan": 3145,
      "Ġwater": 3146,
      "ĠPu": 3147,
      "gress": 3148,
      "aynes": 3149,
      "Ġundivided": 3150,
      "olites": 3151,
      "ĠOak": 3152,
      "ĠHart": 3153,
      "Ġlatite": 3154,
      "Ġhills": 3155,
      "erea": 3156,
      "anging": 3157,
      "anglomerate": 3158,
      "assigned": 3159,
      "Ġ800": 3160,
      "ource": 3161,
      "Ġseparate": 3162,
      "Ġ1935": 3163,
      "Ġ1938": 3164,
      "ĠBedford": 3165,
      "Ġthrust": 3166,
      "ĠMcK": 3167,
      "regon": 3168,
      "Ġimmedi": 3169,
      "ĠMadison": 3170,
      "ĠDisconformably": 3171,
      "Ġglauconitic": 3172,
      "illiston": 3173,
      "Ġpersistent": 3174,
      "ĠColumbia": 3175,
      "35": 3176,
      "80": 3177,
      "TH": 3178,
      "aj": 3179,
      "ean": 3180,
      "fossiliferous": 3181,
      "iation": 3182,
      "sa": 3183,
      "uk": 3184,
      "Ġen": 3185,
      "esis": 3186,
      "aries": 3187,
      "alia": 3188,
      "enk": 3189,
      "ases": 3190,
      "ĠCass": 3191,
      "Ġcann": 3192,
      "ĠAc": 3193,
      "ĠBi": 3194,
      "ĠBishop": 3195,
      "ĠSec": 3196,
      "ĠTor": 3197,
      "Ġne": 3198,
      "acon": 3199,
      "ĠNC": 3200,
      "ĠEs": 3201,
      "Ġpartly": 3202,
      "ularly": 3203,
      "allala": 3204,
      "nessee": 3205,
      "early": 3206,
      "ĠAna": 3207,
      "Ġstage": 3208,
      "Ġ65": 3209,
      "Ġcorals": 3210,
      "ĠConsidered": 3211,
      "Ġmineral": 3212,
      "Ġseparately": 3213,
      "ĠBlake": 3214,
      "Ġlayer": 3215,
      "ĠIncluded": 3216,
      "ĠCrist": 3217,
      "Ġeven": 3218,
      "Ġintruded": 3219,
      "ĠSnow": 3220,
      "Ġcrinoid": 3221,
      "Ġmagnet": 3222,
      "Ġpumice": 3223,
      "ĠRichmond": 3224,
      "ĠDavis": 3225,
      "ĠMagdalena": 3226,
      "Ġcharacteristic": 3227,
      "ĠOgallala": 3228,
      "ustrine": 3229,
      "AP": 3230,
      "Bear": 3231,
      "bas": 3232,
      "biotite": 3233,
      "cor": 3234,
      "citing": 3235,
      "ias": 3236,
      "imes": 3237,
      "jo": 3238,
      "ket": 3239,
      "kare": 3240,
      "ls": 3241,
      "lic": 3242,
      "now": 3243,
      "ooth": 3244,
      "worth": 3245,
      "Ġels": 3246,
      "orge": 3247,
      "arm": 3248,
      "arrow": 3249,
      "arily": 3250,
      "ĠCut": 3251,
      "ĠCliff": 3252,
      "Ġinformation": 3253,
      "Ġcle": 3254,
      "Ġcrops": 3255,
      "Ġmuscovite": 3256,
      "ĠMO": 3257,
      "ĠMid": 3258,
      "ĠMary": 3259,
      "rey": 3260,
      "ĠBerea": 3261,
      "Ġpure": 3262,
      "loc": 3263,
      "ĠTwo": 3264,
      "get": 3265,
      "Ġdue": 3266,
      "ĠPan": 3267,
      "ĠPin": 3268,
      "ĠPass": 3269,
      "acustrine": 3270,
      "ingle": 3271,
      "ental": 3272,
      "ĠGo": 3273,
      "ĠOR": 3274,
      "que": 3275,
      "ĠHe": 3276,
      "ĠHel": 3277,
      "Ġ250": 3278,
      "ĠEst": 3279,
      "Ġhowever": 3280,
      "ĠCook": 3281,
      "imated": 3282,
      "alla": 3283,
      "ĠKS": 3284,
      "iron": 3285,
      "Ġquads": 3286,
      "Ġforamin": 3287,
      "graphy": 3288,
      "Ġtopographic": 3289,
      "raz": 3290,
      "lateau": 3291,
      "Ġphosph": 3292,
      "reccia": 3293,
      "Ġpebbly": 3294,
      "inesian": 3295,
      "Ġmica": 3296,
      "Ġlargely": 3297,
      "Ġmafic": 3298,
      "Ġtypically": 3299,
      "Ġtherefore": 3300,
      "fferentiated": 3301,
      "Ġbands": 3302,
      "anooga": 3303,
      "Ġbody": 3304,
      "Ġworkers": 3305,
      "ĠAnimikie": 3306,
      "ditional": 3307,
      "ĠAdmire": 3308,
      "empor": 3309,
      "Ġexcept": 3310,
      "ĠSuite": 3311,
      "usulinids": 3312,
      "ENSIS": 3313,
      "ĠHamilton": 3314,
      "moinesian": 3315,
      "luvium": 3316,
      "Ġelsewhere": 3317,
      "40": 3318,
      "Middle": 3319,
      "Sr": 3320,
      "TUS": 3321,
      "camp": 3322,
      "dmore": 3323,
      "gy": 3324,
      "kar": 3325,
      "la": 3326,
      "pond": 3327,
      "south": 3328,
      "inter": 3329,
      "Ġcenter": 3330,
      "ĠMI": 3331,
      "ĠAth": 3332,
      "Ġpass": 3333,
      "Ġdia": 3334,
      "Ġdata": 3335,
      "ĠPlateau": 3336,
      "ĠFish": 3337,
      "Ġarenaceous": 3338,
      "ĠOregon": 3339,
      "Ġreach": 3340,
      "Ġlat": 3341,
      "ĠCopper": 3342,
      "ulted": 3343,
      "Ġdep": 3344,
      "ĠJour": 3345,
      "olostone": 3346,
      "stem": 3347,
      "evised": 3348,
      "oved": 3349,
      "Ġclayey": 3350,
      "redited": 3351,
      "Ġcorrelates": 3352,
      "Ġforming": 3353,
      "view": 3354,
      "cox": 3355,
      "Ġmetas": 3356,
      "ĠMarl": 3357,
      "Ġremains": 3358,
      "Ġmajor": 3359,
      "ahoe": 3360,
      "ĠKnob": 3361,
      "Ġvarious": 3362,
      "Chester": 3363,
      "Ġconstitut": 3364,
      "Ġcolumnar": 3365,
      "Ġimpure": 3366,
      "Ġapparently": 3367,
      "olfcamp": 3368,
      "Ġinterpreted": 3369,
      "ĠAmmonoosuc": 3370,
      "ĠTennessee": 3371,
      "Ġcannot": 3372,
      "kareh": 3373,
      "26": 3374,
      "28": 3375,
      "lastic": 3376,
      "my": 3377,
      "over": 3378,
      "type": 3379,
      "viron": 3380,
      "Ġed": 3381,
      "inton": 3382,
      "thick": 3383,
      "Ġfels": 3384,
      "Ġthesis": 3385,
      "ĠCenomanian": 3386,
      "Ġincre": 3387,
      "Ġcanyon": 3388,
      "Ġtable": 3389,
      "rec": 3390,
      "ĠAle": 3391,
      "ĠTur": 3392,
      "ĠTra": 3393,
      "aces": 3394,
      "ĠRoss": 3395,
      "emez": 3396,
      "entine": 3397,
      "elor": 3398,
      "Ġlike": 3399,
      "adi": 3400,
      "ador": 3401,
      "ĠHard": 3402,
      "Ġrare": 3403,
      "Ġrounded": 3404,
      "Ġranging": 3405,
      "ĠCooper": 3406,
      "astrop": 3407,
      "illa": 3408,
      "ush": 3409,
      "ĠJemez": 3410,
      "ĠChar": 3411,
      "approx": 3412,
      "respond": 3413,
      "achelor": 3414,
      "Ġdistribut": 3415,
      "Ġprevious": 3416,
      "ĠRocky": 3417,
      "heim": 3418,
      "Ġphyllite": 3419,
      "Ġgrade": 3420,
      "Ġregional": 3421,
      "ĠAshe": 3422,
      "Ġoriginal": 3423,
      "ailed": 3424,
      "Ġnonmarine": 3425,
      "ingston": 3426,
      "ĠKnox": 3427,
      "Ġlithologically": 3428,
      "Ġolivine": 3429,
      "unny": 3430,
      "Ġgreater": 3431,
      "Ġmasses": 3432,
      "Ġaverage": 3433,
      "Ġspecies": 3434,
      "Ġtransition": 3435,
      "rectly": 3436,
      "Ġtrilob": 3437,
      "otopic": 3438,
      "Ġcaldera": 3439,
      "ĠChattanooga": 3440,
      "ĠMingo": 3441,
      "Ġimmediately": 3442,
      "ĠCristo": 3443,
      "Early": 3444,
      "ID": 3445,
      "Late": 3446,
      "Or": 3447,
      "bird": 3448,
      "carp": 3449,
      "ifer": 3450,
      "ston": 3451,
      "stratigraphic": 3452,
      "ues": 3453,
      "onto": 3454,
      "Ġoil": 3455,
      "ora": 3456,
      "alle": 3457,
      "Ġfluvial": 3458,
      "Ġfanglomerate": 3459,
      "Ġbi": 3460,
      "Ġbath": 3461,
      "ĠAv": 3462,
      "ĠBo": 3463,
      "ĠBerry": 3464,
      "robably": 3465,
      "Ġpost": 3466,
      "ĠSang": 3467,
      "ĠSalt": 3468,
      "ĠFossiliferous": 3469,
      "ingham": 3470,
      "entially": 3471,
      "ĠGil": 3472,
      "ĠNac": 3473,
      "ĠWah": 3474,
      "ĠUl": 3475,
      "ĠThree": 3476,
      "rift": 3477,
      "Ġ48": 3478,
      "arker": 3479,
      "ĠAnkareh": 3480,
      "Ġsea": 3481,
      "ude": 3482,
      "achy": 3483,
      "mont": 3484,
      "away": 3485,
      "Ġreported": 3486,
      "Ġ90": 3487,
      "pls": 3488,
      "ĠPreviously": 3489,
      "Ġhigher": 3490,
      "Ġdevelopment": 3491,
      "Ġarkose": 3492,
      "Ġweathered": 3493,
      "ĠBecraft": 3494,
      "Ġoccas": 3495,
      "Ġbodies": 3496,
      "Ġescarp": 3497,
      "Ġmoderately": 3498,
      "Ġmonzonite": 3499,
      "Ġanticline": 3500,
      "Ġdiameter": 3501,
      "Ġsparse": 3502,
      "Ġmodified": 3503,
      "Ġplaty": 3504,
      "Ġentry": 3505,
      "ĠFranklin": 3506,
      "Ġenviron": 3507,
      "Ġdepth": 3508,
      "36": 3509,
      "38": 3510,
      "aff": 3511,
      "ky": 3512,
      "lay": 3513,
      "ma": 3514,
      "no": 3515,
      "ns": 3516,
      "nian": 3517,
      "tic": 3518,
      "ye": 3519,
      "Ġif": 3520,
      "arter": 3521,
      "andera": 3522,
      "alo": 3523,
      "Ġfive": 3524,
      "asc": 3525,
      "oug": 3526,
      "ĠCorn": 3527,
      "Ġmapping": 3528,
      "Ġtre": 3529,
      "ĠMS": 3530,
      "ĠManc": 3531,
      "ĠAstoria": 3532,
      "ĠTom": 3533,
      "gran": 3534,
      "ĠLou": 3535,
      "ĠGlac": 3536,
      "Ġequival": 3537,
      "ĠNio": 3538,
      "Ġlie": 3539,
      "Ġarch": 3540,
      "ĠWilliston": 3541,
      "lue": 3542,
      "Ġlisted": 3543,
      "ĠGrande": 3544,
      "Ġatt": 3545,
      "ĠKe": 3546,
      "irt": 3547,
      "brara": 3548,
      "Ġintertongues": 3549,
      "Ġstrong": 3550,
      "Ġstand": 3551,
      "evier": 3552,
      "ĠArm": 3553,
      "oval": 3554,
      "ords": 3555,
      "Ġplate": 3556,
      "Ġvertebrate": 3557,
      "Ġunconformable": 3558,
      "Ġmarls": 3559,
      "Ġrepresents": 3560,
      "Ġcontinental": 3561,
      "Ġfeldspathic": 3562,
      "Ġbanded": 3563,
      "ĠAbrams": 3564,
      "ĠAnimas": 3565,
      "Ġfoliated": 3566,
      "Ġtexture": 3567,
      "Ġentirely": 3568,
      "Ġslates": 3569,
      "Ġwritten": 3570,
      "ompson": 3571,
      "Ġsamples": 3572,
      "Ġsyncline": 3573,
      "differentiated": 3574,
      "Ġlignite": 3575,
      "Ġassemblage": 3576,
      "ĠWilliams": 3577,
      "Ġigneous": 3578,
      "APG": 3579,
      "ĠMaryland": 3580,
      "ĠNiobrara": 3581,
      "22": 3582,
      "cell": 3583,
      "dale": 3584,
      "dated": 3585,
      "sen": 3586,
      "sion": 3587,
      "section": 3588,
      "yd": 3589,
      "Ġany": 3590,
      "Ġzircon": 3591,
      "ony": 3592,
      "aneous": 3593,
      "alli": 3594,
      "ĠCum": 3595,
      "ĠME": 3596,
      "ĠAg": 3597,
      "ĠAx": 3598,
      "ĠAre": 3599,
      "ĠAug": 3600,
      "loformation": 3601,
      "Ġaug": 3602,
      "Ġwill": 3603,
      "Ġnarrow": 3604,
      "ĠPart": 3605,
      "ĠPres": 3606,
      "ĠPlain": 3607,
      "ĠFred": 3608,
      "ĠFerry": 3609,
      "ĠRh": 3610,
      "ĠLog": 3611,
      "elph": 3612,
      "Ġunc": 3613,
      "adian": 3614,
      "ĠWall": 3615,
      "abs": 3616,
      "ĠHen": 3617,
      "ĠHem": 3618,
      "ĠHouse": 3619,
      "ĠThompson": 3620,
      "ĠEd": 3621,
      "otte": 3622,
      "Ġretained": 3623,
      "Ġquarry": 3624,
      "ula": 3625,
      "Ġexclu": 3626,
      "ĠUnder": 3627,
      "ĠCond": 3628,
      "arde": 3629,
      "ĠThey": 3630,
      "ĠChis": 3631,
      "ĠChiefly": 3632,
      "Ġcomprises": 3633,
      "opi": 3634,
      "Ġthinly": 3635,
      "Ġcorrespond": 3636,
      "ĠBeach": 3637,
      "ĠStage": 3638,
      "shore": 3639,
      "Ġfinely": 3640,
      "ifers": 3641,
      "Ġextend": 3642,
      "ctur": 3643,
      "acks": 3644,
      "ĠAmador": 3645,
      "ĠComprises": 3646,
      "ĠBridge": 3647,
      "Ġtraced": 3648,
      "Ġsequences": 3649,
      "clastic": 3650,
      "Ġindurated": 3651,
      "Ġ1933": 3652,
      "ike": 3653,
      "Ġ2005": 3654,
      "Ġremoved": 3655,
      "Alb": 3656,
      "insula": 3657,
      "ĠContact": 3658,
      "Ġandesitic": 3659,
      "Ġbreccias": 3660,
      "ĠDeposit": 3661,
      "Ġmarker": 3662,
      "ĠSepar": 3663,
      "ĠAlamo": 3664,
      "emented": 3665,
      "ĠHarr": 3666,
      "Ġreplaced": 3667,
      "Ġestab": 3668,
      "Unit": 3669,
      "Ġobtained": 3670,
      "Ġrhyolitic": 3671,
      "ĠAustin": 3672,
      "Ġconformable": 3673,
      "Ġnormal": 3674,
      "Ġrelationship": 3675,
      "ĠAthens": 3676,
      "Ġbatholith": 3677,
      "ĠMancos": 3678,
      "27": 3679,
      "800": 3680,
      "90": 3681,
      "AN": 3682,
      "Re": 3683,
      "aib": 3684,
      "ced": 3685,
      "rup": 3686,
      "ze": 3687,
      "ering": 3688,
      "Ġsingle": 3689,
      "alite": 3690,
      "isk": 3691,
      "ason": 3692,
      "ĠClift": 3693,
      "ĠCuy": 3694,
      "Ġmm": 3695,
      "Ġmount": 3696,
      "Ġmake": 3697,
      "ĠMt": 3698,
      "Ġpar": 3699,
      "ĠTyp": 3700,
      "Ġdate": 3701,
      "Ġdiss": 3702,
      "Ġdominantly": 3703,
      "acite": 3704,
      "amont": 3705,
      "verly": 3706,
      "ĠLos": 3707,
      "idine": 3708,
      "ays": 3709,
      "Ġeach": 3710,
      "Ġundifferentiated": 3711,
      "oche": 3712,
      "ĠHow": 3713,
      "apt": 3714,
      "Ġlacustrine": 3715,
      "trim": 3716,
      "ĠGravel": 3717,
      "ckerman": 3718,
      "ekunny": 3719,
      "Ġgabbro": 3720,
      "uni": 3721,
      "unk": 3722,
      "ĠJo": 3723,
      "Ġ54": 3724,
      "agoon": 3725,
      "ermost": 3726,
      "Ġgroups": 3727,
      "stown": 3728,
      "Ġstates": 3729,
      "ĠArroyo": 3730,
      "Ġdepositional": 3731,
      "ĠQuad": 3732,
      "Ġcontacts": 3733,
      "Ġtrachy": 3734,
      "ĠAtl": 3735,
      "ible": 3736,
      "incinn": 3737,
      "ĠWilcox": 3738,
      "Ġerup": 3739,
      "ĠMonter": 3740,
      "ĠGlance": 3741,
      "ĠScott": 3742,
      "ĠAlbian": 3743,
      "Ġaccording": 3744,
      "ĠRobert": 3745,
      "ĠCorrelates": 3746,
      "Ġcollection": 3747,
      "ĠForest": 3748,
      "Ġdetermined": 3749,
      "ĠLanding": 3750,
      "Ġconsiderable": 3751,
      "Ġconodonts": 3752,
      "Ġdescription": 3753,
      "Ġdistinguished": 3754,
      "ĠLemhi": 3755,
      "Ġshelf": 3756,
      "ĠCassin": 3757,
      "ĠClifty": 3758,
      "horn": 3759,
      "house": 3760,
      "hook": 3761,
      "iet": 3762,
      "ken": 3763,
      "off": 3764,
      "pend": 3765,
      "side": 3766,
      "ting": 3767,
      "vail": 3768,
      "anidine": 3769,
      "erick": 3770,
      "inson": 3771,
      "ench": 3772,
      "oub": 3773,
      "ĠCrops": 3774,
      "Ġcredited": 3775,
      "lian": 3776,
      "ĠAfton": 3777,
      "rogr": 3778,
      "roclastic": 3779,
      "Ġact": 3780,
      "ĠPott": 3781,
      "ĠFL": 3782,
      "very": 3783,
      "ĠLy": 3784,
      "ĠLod": 3785,
      "aine": 3786,
      "berry": 3787,
      "olis": 3788,
      "omet": 3789,
      "ĠOld": 3790,
      "ĠHon": 3791,
      "ĠDec": 3792,
      "ĠEm": 3793,
      "Ġreassigned": 3794,
      "Ġledges": 3795,
      "Ġwithout": 3796,
      "ulated": 3797,
      "ĠKing": 3798,
      "ĠKew": 3799,
      "Ġalluvium": 3800,
      "Ġ450": 3801,
      "ccession": 3802,
      "ĠAlder": 3803,
      "Ġ58": 3804,
      "ĠChur": 3805,
      "Ġstratified": 3806,
      "Ġprod": 3807,
      "Ġstatus": 3808,
      "avy": 3809,
      "ĠArdmore": 3810,
      "Ġyears": 3811,
      "Ġsiltstones": 3812,
      "GSA": 3813,
      "ĠBashi": 3814,
      "ureka": 3815,
      "Ġshallow": 3816,
      "Ġassign": 3817,
      "auga": 3818,
      "Ġplant": 3819,
      "uginous": 3820,
      "Ġ120": 3821,
      "ĠProv": 3822,
      "anner": 3823,
      "Ġbasaltic": 3824,
      "ĠBarton": 3825,
      "ottom": 3826,
      "regosa": 3827,
      "rowan": 3828,
      "Ġimport": 3829,
      "ĠGlen": 3830,
      "Ġvariet": 3831,
      "ĠSuperior": 3832,
      "ĠMadera": 3833,
      "ĠBadger": 3834,
      "ĠJohnson": 3835,
      "ĠSweetwater": 3836,
      "ĠNACSN": 3837,
      "ĠGradationally": 3838,
      "Ġbentonite": 3839,
      "olarity": 3840,
      "ĠPowder": 3841,
      "ĠReservoir": 3842,
      "inderhook": 3843,
      "Ġescarpment": 3844,
      "layered": 3845,
      "ĠLouis": 3846,
      "ĠFrederick": 3847,
      "ĠChisos": 3848,
      "cturus": 3849,
      "70": 3850,
      "CH": 3851,
      "EA": 3852,
      "OP": 3853,
      "bable": 3854,
      "eer": 3855,
      "hole": 3856,
      "mok": 3857,
      "mitt": 3858,
      "not": 3859,
      "ral": 3860,
      "uel": 3861,
      "uach": 3862,
      "western": 3863,
      "inch": 3864,
      "estone": 3865,
      "orical": 3866,
      "aron": 3867,
      "Ġslop": 3868,
      "ital": 3869,
      "Ġcore": 3870,
      "Ġmott": 3871,
      "Ġtribut": 3872,
      "ĠAqu": 3873,
      "Ġwides": 3874,
      "ĠTim": 3875,
      "ĠTown": 3876,
      "ĠPion": 3877,
      "ĠPima": 3878,
      "ĠField": 3879,
      "amme": 3880,
      "ĠLith": 3881,
      "ĠLakes": 3882,
      "ĠGood": 3883,
      "ida": 3884,
      "Ġelev": 3885,
      "ĠNear": 3886,
      "ura": 3887,
      "ected": 3888,
      "Ġconf": 3889,
      "adelph": 3890,
      "liest": 3891,
      "ĠWab": 3892,
      "derberg": 3893,
      "istant": 3894,
      "ĠHud": 3895,
      "ĠHead": 3896,
      "ĠHorse": 3897,
      "ĠDead": 3898,
      "ĠEsc": 3899,
      "ĠEureka": 3900,
      "ulf": 3901,
      "allah": 3902,
      "Ġgastrop": 3903,
      "ĠKern": 3904,
      "Ġ49": 3905,
      "ĠCherry": 3906,
      "Ġgraywacke": 3907,
      "Ġquartzites": 3908,
      "ologies": 3909,
      "ologists": 3910,
      "Ġpropos": 3911,
      "Ġprobable": 3912,
      "Ġstate": 3913,
      "ogene": 3914,
      "Ġbasins": 3915,
      "Ġanal": 3916,
      "Ġdirectly": 3917,
      "alcareous": 3918,
      "Ġdistance": 3919,
      "Ġgeologists": 3920,
      "oka": 3921,
      "depend": 3922,
      "Ġ125": 3923,
      "ĠProposed": 3924,
      "plit": 3925,
      "Ġrecogn": 3926,
      "ourian": 3927,
      "Ġtrue": 3928,
      "ĠSilt": 3929,
      "ĠMoenk": 3930,
      "Ġcharts": 3931,
      "Ġgradationally": 3932,
      "Ġ1968": 3933,
      "ĠBliss": 3934,
      "ĠAshland": 3935,
      "Ġperi": 3936,
      "ĠFront": 3937,
      "189": 3938,
      "ĠWhiteh": 3939,
      "pread": 3940,
      "Ġoriginally": 3941,
      "erruginous": 3942,
      "Ġacce": 3943,
      "ĠSalmon": 3944,
      "Ġnodular": 3945,
      "ĠAntler": 3946,
      "ĠCape": 3947,
      "Ġcovered": 3948,
      "aunsee": 3949,
      "Ġcompil": 3950,
      "Ġagg": 3951,
      "Ġblocks": 3952,
      "Ġmollusks": 3953,
      "ĠAccording": 3954,
      "ĠDripping": 3955,
      "ĠPedregosa": 3956,
      "ketch": 3957,
      "Ġreaches": 3958,
      "ĠMonterey": 3959,
      "ĠChurch": 3960,
      "Ġwidespread": 3961,
      "adelphia": 3962,
      "ĠWabaunsee": 3963,
      "23": 3964,
      "700": 3965,
      "AS": 3966,
      "Bas": 3967,
      "Pale": 3968,
      "Pennsylvan": 3969,
      "bin": 3970,
      "black": 3971,
      "called": 3972,
      "gom": 3973,
      "gus": 3974,
      "mat": 3975,
      "pted": 3976,
      "rence": 3977,
      "sub": 3978,
      "ua": 3979,
      "ves": 3980,
      "work": 3981,
      "erals": 3982,
      "escribed": 3983,
      "Ġsurf": 3984,
      "Ġsanidine": 3985,
      "Ġsketch": 3986,
      "oud": 3987,
      "ĠCam": 3988,
      "itos": 3989,
      "Ġmamm": 3990,
      "ĠMem": 3991,
      "ĠAk": 3992,
      "ĠAub": 3993,
      "ĠBiss": 3994,
      "ĠBraz": 3995,
      "Ġpolarity": 3996,
      "ĠSton": 3997,
      "ĠSamp": 3998,
      "Ġwall": 3999,
      "ĠTusc": 4000,
      "gether": 4001,
      "Ġdat": 4002,
      "ĠRb": 4003,
      "ĠRav": 4004,
      "amie": 4005,
      "grass": 4006,
      "ention": 4007,
      "idges": 4008,
      "ĠOne": 4009,
      "Ġshort": 4010,
      "igbee": 4011,
      "Ġground": 4012,
      "ĠDark": 4013,
      "romat": 4014,
      "Ġhad": 4015,
      "Ġhill": 4016,
      "Ġwho": 4017,
      "formed": 4018,
      "ĠChin": 4019,
      "agon": 4020,
      "ĠAntrim": 4021,
      "phan": 4022,
      "Ġsteep": 4023,
      "Ġnearby": 4024,
      "ĠStan": 4025,
      "ĠOrigin": 4026,
      "Ġminerals": 4027,
      "awh": 4028,
      "Ġmile": 4029,
      "Ġdiff": 4030,
      "Ġfaulted": 4031,
      "Ġpls": 4032,
      "Ġ2021": 4033,
      "Ġlev": 4034,
      "ĠYoun": 4035,
      "ĠBaraga": 4036,
      "ĠElm": 4037,
      "Ġammon": 4038,
      "ĠOnt": 4039,
      "Ġstudies": 4040,
      "ĠZone": 4041,
      "ĠBeaverhead": 4042,
      "ĠBluebird": 4043,
      "ĠGulf": 4044,
      "stratified": 4045,
      "Ġconcretion": 4046,
      "ĠAltamont": 4047,
      "Additional": 4048,
      "Ġstructure": 4049,
      "Ġerosional": 4050,
      "cadia": 4051,
      "roxene": 4052,
      "Ġsyenite": 4053,
      "Ġpreserved": 4054,
      "Ġterrane": 4055,
      "ĠOsage": 4056,
      "ĠSummit": 4057,
      "Ġdiscussed": 4058,
      "Ġchannel": 4059,
      "awnee": 4060,
      "ĠJackson": 4061,
      "roduced": 4062,
      "Ġhistorical": 4063,
      "ĠBanbury": 4064,
      "karee": 4065,
      "ĠTrail": 4066,
      "allel": 4067,
      "ĠHoward": 4068,
      "rogrande": 4069,
      "ĠPioneer": 4070,
      "ĠMoenkopi": 4071,
      "Ġaccepted": 4072,
      "600": 4073,
      "App": 4074,
      "Bel": 4075,
      "EX": 4076,
      "];": 4077,
      "aul": 4078,
      "aft": 4079,
      "bell": 4080,
      "cuss": 4081,
      "da": 4082,
      "ef": 4083,
      "fort": 4084,
      "iley": 4085,
      "ll": 4086,
      "oin": 4087,
      "oded": 4088,
      "ress": 4089,
      "ser": 4090,
      "sorted": 4091,
      "ten": 4092,
      "Ġ--": 4093,
      "arnet": 4094,
      "Ġsides": 4095,
      "alach": 4096,
      "Ġfin": 4097,
      "Ġbounded": 4098,
      "itch": 4099,
      "Ġcurr": 4100,
      "Ġtentatively": 4101,
      "like": 4102,
      "ĠAckerman": 4103,
      "ĠBid": 4104,
      "ĠBass": 4105,
      "ĠBachelor": 4106,
      "ĠBandera": 4107,
      "Ġpot": 4108,
      "Ġpetro": 4109,
      "ĠSlate": 4110,
      "Ġtogether": 4111,
      "ĠTw": 4112,
      "Ġisotopic": 4113,
      "amo": 4114,
      "amauga": 4115,
      "eman": 4116,
      "ĠLight": 4117,
      "tered": 4118,
      "berland": 4119,
      "ĠNames": 4120,
      "addle": 4121,
      "ĠOt": 4122,
      "ĠOrogrande": 4123,
      "Ġshore": 4124,
      "ĠWal": 4125,
      "Ġgrit": 4126,
      "Ġareal": 4127,
      "ĠHamp": 4128,
      "ĠThin": 4129,
      "apahoe": 4130,
      "Ġlav": 4131,
      "Ġlake": 4132,
      "Ġhav": 4133,
      "chard": 4134,
      "ute": 4135,
      "Ġpartings": 4136,
      "Ġvary": 4137,
      "una": 4138,
      "ĠVermont": 4139,
      "Ġalkali": 4140,
      "bridge": 4141,
      "199": 4142,
      "ĠJames": 4143,
      "ĠChief": 4144,
      "ago": 4145,
      "Ġseen": 4146,
      "Ġseems": 4147,
      "Ġintercal": 4148,
      "Ġinterlayered": 4149,
      "ope": 4150,
      "Ġ106": 4151,
      "Ġvolcaniclastic": 4152,
      "Ġgreensand": 4153,
      "Ġlithologies": 4154,
      "Ġtrough": 4155,
      "Ġmeta": 4156,
      "ĠEll": 4157,
      "Ġtermin": 4158,
      "Ġtermed": 4159,
      "Ġ130": 4160,
      "atchee": 4161,
      "Ġ1984": 4162,
      "Ġfaunal": 4163,
      "ĠNorthern": 4164,
      "Ġresem": 4165,
      "Ġgravels": 4166,
      "ĠGreater": 4167,
      "Ġtypes": 4168,
      "ĠCanadian": 4169,
      "pecially": 4170,
      "strong": 4171,
      "Ġmagnes": 4172,
      "Ġreplaces": 4173,
      "Ġirregularly": 4174,
      "ĠMichigamme": 4175,
      "Ġplutons": 4176,
      "levue": 4177,
      "Ġwidely": 4178,
      "ĠGNIS": 4179,
      "sterdam": 4180,
      "ĠBakers": 4181,
      "Ġpyroclastic": 4182,
      "Ġdrain": 4183,
      "ĠPeninsula": 4184,
      "ĠIntruded": 4185,
      "Ġstream": 4186,
      "ĠAdmir": 4187,
      "Ġespecially": 4188,
      "ĠAgua": 4189,
      "ĠLaramie": 4190,
      "Ġappearance": 4191,
      "eenaw": 4192,
      "Ġintrusion": 4193,
      "ĠCoastal": 4194,
      "ĠChickamauga": 4195,
      "Ġbluffs": 4196,
      "ĠHawth": 4197,
      "Ġenvironment": 4198,
      "ĠGlacier": 4199,
      "ĠArmstrong": 4200,
      "ĠCumberland": 4201,
      "ĠAugust": 4202,
      "ĠSeparated": 4203,
      "Ġslopes": 4204,
      "Pennsylvanian": 4205,
      "Ġhaving": 4206,
      "400": 4207,
      "AL": 4208,
      "Author": 4209,
      "Bald": 4210,
      "First": 4211,
      "OD": 4212,
      "Sh": 4213,
      "bk": 4214,
      "bit": 4215,
      "cel": 4216,
      "croft": 4217,
      "dbk": 4218,
      "from": 4219,
      "gated": 4220,
      "pot": 4221,
      "paw": 4222,
      "tw": 4223,
      "tian": 4224,
      "yellow": 4225,
      "Ġess": 4226,
      "orr": 4227,
      "aroka": 4228,
      "also": 4229,
      "Ġfill": 4230,
      "Ġfusulinids": 4231,
      "Ġthough": 4232,
      "ĠCrow": 4233,
      "ĠCincinn": 4234,
      "Ġbroad": 4235,
      "Ġmine": 4236,
      "ĠMow": 4237,
      "reme": 4238,
      "ĠAy": 4239,
      "ĠBat": 4240,
      "ĠBet": 4241,
      "ĠBow": 4242,
      "ĠBreccia": 4243,
      "ĠTe": 4244,
      "osh": 4245,
      "ĠPi": 4246,
      "ĠPum": 4247,
      "ĠFay": 4248,
      "ĠRose": 4249,
      "ament": 4250,
      "verse": 4251,
      "etown": 4252,
      "emical": 4253,
      "emaugh": 4254,
      "tero": 4255,
      "ĠGener": 4256,
      "aint": 4257,
      "eline": 4258,
      "ĠNa": 4259,
      "ĠNye": 4260,
      "add": 4261,
      "ĠWI": 4262,
      "ĠWed": 4263,
      "Ġascending": 4264,
      "ĠHand": 4265,
      "ĠHunt": 4266,
      "ĠDoug": 4267,
      "ĠThaynes": 4268,
      "ĠEquivalent": 4269,
      "Ġ[\"": 4270,
      "loway": 4271,
      "Ġradi": 4272,
      "ĠCole": 4273,
      "Ġthickens": 4274,
      "Ġwhen": 4275,
      "Ġwhile": 4276,
      "aks": 4277,
      "Ġorth": 4278,
      "Ġorange": 4279,
      "riable": 4280,
      "ĠInyo": 4281,
      "ĠAlloformation": 4282,
      "ĠJunction": 4283,
      "ĠChaz": 4284,
      "ager": 4285,
      "ĠAnge": 4286,
      "print": 4287,
      "ryozo": 4288,
      "ogord": 4289,
      "ĠArapahoe": 4290,
      "ĠSandoval": 4291,
      "Ġsubst": 4292,
      "Ġgeographic": 4293,
      "Ġextreme": 4294,
      "bble": 4295,
      "amplain": 4296,
      "ĠCommitt": 4297,
      "edimentary": 4298,
      "ĠAden": 4299,
      "Ġbecome": 4300,
      "Ġ1977": 4301,
      "Ġremain": 4302,
      "ĠWillow": 4303,
      "Ġrelatively": 4304,
      "Ġrespect": 4305,
      "Ġresistant": 4306,
      "Ġflag": 4307,
      "ĠBeaverdam": 4308,
      "Ġcolored": 4309,
      "richtian": 4310,
      "ĠAppekunny": 4311,
      "ĠCanada": 4312,
      "ĠArikaree": 4313,
      "lutonic": 4314,
      "ĠHarmon": 4315,
      "Ġoccurring": 4316,
      "Ġsomet": 4317,
      "ĠMineral": 4318,
      "Ġearliest": 4319,
      "ĠBaker": 4320,
      "ĠHuronian": 4321,
      "Ġripple": 4322,
      "ĠMartin": 4323,
      "ĠMohawk": 4324,
      "arries": 4325,
      "ĠTherefore": 4326,
      "ĠHatchetigbee": 4327,
      "ĠPuer": 4328,
      "ĠHelderberg": 4329,
      "Ġpasses": 4330,
      "Ġlatest": 4331,
      "Ġtreated": 4332,
      "Ġstrongly": 4333,
      "Ġuncertain": 4334,
      "Ġestablished": 4335,
      "ĠAtlantic": 4336,
      "ĠPottsville": 4337,
      "Ġmottled": 4338,
      "subsurface": 4339,
      "Ġconcretionary": 4340,
      "Ġlavas": 4341,
      "ogordo": 4342,
      "ĠCommittee": 4343,
      "AR": 4344,
      "Abr": 4345,
      "Belt": 4346,
      "IP": 4347,
      "On": 4348,
      "UM": 4349,
      "View": 4350,
      "brook": 4351,
      "lorite": 4352,
      "oe": 4353,
      "oView": 4354,
      "smith": 4355,
      "til": 4356,
      "ux": 4357,
      "uz": 4358,
      "ycl": 4359,
      "Ġ00": 4360,
      "Ġlying": 4361,
      "onard": 4362,
      "erd": 4363,
      "eros": 4364,
      "Ġopp": 4365,
      "atom": 4366,
      "Ġsign": 4367,
      "Ġsize": 4368,
      "anded": 4369,
      "Ġoften": 4370,
      "Ġferruginous": 4371,
      "Ġfriable": 4372,
      "enamed": 4373,
      "ĠCle": 4374,
      "Ġbottom": 4375,
      "Ġbryozo": 4376,
      "itan": 4377,
      "itish": 4378,
      "Ġcap": 4379,
      "Ġmiss": 4380,
      "Ġton": 4381,
      "ĠMig": 4382,
      "reet": 4383,
      "ĠAver": 4384,
      "ĠAbb": 4385,
      "ĠBol": 4386,
      "roe": 4387,
      "ĠSi": 4388,
      "Ġwould": 4389,
      "Ġdating": 4390,
      "ĠPac": 4391,
      "ĠPet": 4392,
      "ĠLu": 4393,
      "ĠLuc": 4394,
      "ĠNomenclature": 4395,
      "olly": 4396,
      "artooth": 4397,
      "Ġconc": 4398,
      "ĠIr": 4399,
      "ĠHarb": 4400,
      "ĠDome": 4401,
      "Ġridges": 4402,
      "Ġledge": 4403,
      "Ġhund": 4404,
      "ully": 4405,
      "umm": 4406,
      "aken": 4407,
      "Ġlogs": 4408,
      "ĠInv": 4409,
      "ĠVeg": 4410,
      "oute": 4411,
      "agnet": 4412,
      "Ġstrike": 4413,
      "Ġnoted": 4414,
      "Ġcomposite": 4415,
      "Ġprop": 4416,
      "Ġstromat": 4417,
      "ertie": 4418,
      "athitt": 4419,
      "ennett": 4420,
      "ĠBeau": 4421,
      "Ġ85": 4422,
      "ĠOrchard": 4423,
      "Ġmining": 4424,
      "Ġdiabase": 4425,
      "Ġusing": 4426,
      "intic": 4427,
      "Ġcorrelate": 4428,
      "ĠDevil": 4429,
      "Ġbasalts": 4430,
      "Ġ1932": 4431,
      "Ġterms": 4432,
      "ĠMcD": 4433,
      "adox": 4434,
      "incial": 4435,
      "1962": 4436,
      "1965": 4437,
      "Ġfront": 4438,
      "ĠDesert": 4439,
      "Ġsoil": 4440,
      "Ġeroded": 4441,
      "ĠFranc": 4442,
      "Ann": 4443,
      "ĠMorr": 4444,
      "Ġsilicified": 4445,
      "ĠGranodiorite": 4446,
      "Ġ1958": 4447,
      "lecyp": 4448,
      "ĠHighland": 4449,
      "ĠKnoll": 4450,
      "Ġsuggests": 4451,
      "Ġsuggested": 4452,
      "Ġfollowed": 4453,
      "ĠSaline": 4454,
      "Ġprim": 4455,
      "ĠSchool": 4456,
      "ĠTopoView": 4457,
      "Ġglass": 4458,
      "Ġsuccession": 4459,
      "Ġ1929": 4460,
      "Ġroadcut": 4461,
      "Ġestimated": 4462,
      "illian": 4463,
      "Ġsystem": 4464,
      "ĠNotable": 4465,
      "This": 4466,
      "Ġclosely": 4467,
      "ĠAndrew": 4468,
      "ĠFlorida": 4469,
      "ĠGolden": 4470,
      "Ġoccupies": 4471,
      "Ġforaminifers": 4472,
      "Ġphosphatic": 4473,
      "Ġequivalents": 4474,
      "Ġaugite": 4475,
      "Ġparallel": 4476,
      "ĠRobertson": 4477,
      "oubt": 4478,
      "Ġimportant": 4479,
      "inderhookian": 4480,
      "Ġanalys": 4481,
      "ĠBrazos": 4482,
      "Ġdatabase": 4483,
      "ĠHampshire": 4484,
      "Ġintercalated": 4485,
      "Ġessentially": 4486,
      "ĠDouglas": 4487,
      "ĠHarmony": 4488,
      "Ġsometimes": 4489,
      "ĠMiguel": 4490,
      "Ġhundred": 4491,
      "ĠVegas": 4492,
      "300": 4493,
      "73": 4494,
      "As": 4495,
      "DS": 4496,
      "Revised": 4497,
      "ULA": 4498,
      "Wolfcamp": 4499,
      "cryst": 4500,
      "calcareous": 4501,
      "hand": 4502,
      "hem": 4503,
      "hee": 4504,
      "iform": 4505,
      "ibb": 4506,
      "kian": 4507,
      "lington": 4508,
      "muscovite": 4509,
      "na": 4510,
      "plo": 4511,
      "Ġve": 4512,
      "anet": 4513,
      "erro": 4514,
      "Ġoolitic": 4515,
      "arth": 4516,
      "Ġsource": 4517,
      "isible": 4518,
      "Ġflo": 4519,
      "Ġflor": 4520,
      "Ġbest": 4521,
      "icine": 4522,
      "itu": 4523,
      "Ġcount": 4524,
      "ĠMenom": 4525,
      "ĠAmes": 4526,
      "ĠBab": 4527,
      "Ġpal": 4528,
      "Ġpel": 4529,
      "Ġpaper": 4530,
      "ĠSpec": 4531,
      "ĠTwin": 4532,
      "Ġdid": 4533,
      "Ġdrift": 4534,
      "Ġdoubt": 4535,
      "ĠPec": 4536,
      "ĠFlo": 4537,
      "ĠRob": 4538,
      "amond": 4539,
      "emann": 4540,
      "ĠLost": 4541,
      "ĠLyn": 4542,
      "ĠNor": 4543,
      "uras": 4544,
      "olcon": 4545,
      "omm": 4546,
      "omac": 4547,
      "ĠOcc": 4548,
      "quartz": 4549,
      "ĠWestern": 4550,
      "occ": 4551,
      "ĠHy": 4552,
      "ĠHere": 4553,
      "ĠHwy": 4554,
      "ĠDay": 4555,
      "ĠDut": 4556,
      "ĠDun": 4557,
      "ĠDona": 4558,
      "ĠDeep": 4559,
      "ĠEly": 4560,
      "Ġrev": 4561,
      "apid": 4562,
      "ternational": 4563,
      "Ġlatter": 4564,
      "chor": 4565,
      "inee": 4566,
      "Ġbedrock": 4567,
      "ĠGra": 4568,
      "ria": 4569,
      "ĠVT": 4570,
      "irk": 4571,
      "irm": 4572,
      "Ġaltered": 4573,
      "ongues": 4574,
      "ĠConemaugh": 4575,
      "Ġ52": 4576,
      "ĠChico": 4577,
      "ague": 4578,
      "atigraphy": 4579,
      "Ġlowermost": 4580,
      "Ġ76": 4581,
      "ahoga": 4582,
      "Ġ63": 4583,
      "ĠArt": 4584,
      "ĠArcturus": 4585,
      "ĠArcadia": 4586,
      "Ġyr": 4587,
      "shale": 4588,
      "Ġdip": 4589,
      "Ġunderlie": 4590,
      "lesh": 4591,
      "iegated": 4592,
      "ividual": 4593,
      "Ġformed": 4594,
      "Ġvert": 4595,
      "Ġ900": 4596,
      "plish": 4597,
      "ĠComp": 4598,
      "Ġka": 4599,
      "easures": 4600,
      "ĠMesozoic": 4601,
      "Ġvariegated": 4602,
      "Alt": 4603,
      "ĠCarri": 4604,
      "Ġ160": 4605,
      "ĠGreenstone": 4606,
      "ĠMonroe": 4607,
      "ĠNeed": 4608,
      "ĠScot": 4609,
      "placed": 4610,
      "ĠAbout": 4611,
      "oidal": 4612,
      "Ġmarks": 4613,
      "ITH": 4614,
      "Ġcuts": 4615,
      "strac": 4616,
      "Ġportions": 4617,
      "ĠDragoon": 4618,
      "ĠBaird": 4619,
      "ĠAlamogordo": 4620,
      "Ġreplace": 4621,
      "Ġsupp": 4622,
      "ĠMinnes": 4623,
      "ĠCampbell": 4624,
      "Ġplutonic": 4625,
      "ĠBreathitt": 4626,
      "ĠGNUL": 4627,
      "ĠExtended": 4628,
      "Ġfolio": 4629,
      "Ġapparent": 4630,
      "ĠParadox": 4631,
      "ĠSmithwick": 4632,
      "ĠEng": 4633,
      "Ġcobble": 4634,
      "Ġcobbles": 4635,
      "gonkian": 4636,
      "Ġintroduced": 4637,
      "ĠOutcrops": 4638,
      "ĠArnheim": 4639,
      "ĠLawrence": 4640,
      "emporaneous": 4641,
      "ontolog": 4642,
      "ĠKeith": 4643,
      "ĠLodge": 4644,
      "Ġtributary": 4645,
      "ĠTownship": 4646,
      "gomery": 4647,
      "ĠChinle": 4648,
      "cussion": 4649,
      "Ġdrainage": 4650,
      "ĠPacific": 4651,
      "handle": 4652,
      "ĠMenominee": 4653,
      "olconda": 4654,
      "ĠGNULEX": 4655,
      "Com": 4656,
      "ET": 4657,
      "Gr": 4658,
      "Gulf": 4659,
      "HA": 4660,
      "Mis": 4661,
      "Probably": 4662,
      "Raton": 4663,
      "ae": 4664,
      "bone": 4665,
      "cil": 4666,
      "jem": 4667,
      "part": 4668,
      "rad": 4669,
      "wa": 4670,
      "wr": 4671,
      "anes": 4672,
      "inwall": 4673,
      "Ġop": 4674,
      "Ġostrac": 4675,
      "org": 4676,
      "orro": 4677,
      "ars": 4678,
      "Ġsince": 4679,
      "Ġsix": 4680,
      "enozoic": 4681,
      "ascad": 4682,
      "ĠCro": 4683,
      "ĠCoun": 4684,
      "ĠCave": 4685,
      "Ġcre": 4686,
      "Ġcrop": 4687,
      "ĠMat": 4688,
      "rees": 4689,
      "ĠAR": 4690,
      "lehem": 4691,
      "ĠSplit": 4692,
      "Ġwid": 4693,
      "Ġdull": 4694,
      "ĠPawnee": 4695,
      "ĠFossil": 4696,
      "ĠFarm": 4697,
      "amec": 4698,
      "etc": 4699,
      "entown": 4700,
      "ĠLiv": 4701,
      "ĠGolconda": 4702,
      "Ġep": 4703,
      "ĠNug": 4704,
      "olin": 4705,
      "eco": 4706,
      "Ġcontr": 4707,
      "ĠIA": 4708,
      "ĠOuach": 4709,
      "iger": 4710,
      "ĠHorn": 4711,
      "ĠDick": 4712,
      "ĠDDS": 4713,
      "estion": 4714,
      "apai": 4715,
      "Ġrenamed": 4716,
      "Ġbasement": 4717,
      "Ġhem": 4718,
      "Ġ350": 4719,
      "Ġwhat": 4720,
      "Ġexpl": 4721,
      "rified": 4722,
      "Ġgood": 4723,
      "use": 4724,
      "earns": 4725,
      "ĠInternational": 4726,
      "une": 4727,
      "uns": 4728,
      "iag": 4729,
      "ĠAlc": 4730,
      "ĠAlv": 4731,
      "ĠChad": 4732,
      "sey": 4733,
      "avapai": 4734,
      "ĠSher": 4735,
      "uda": 4736,
      "ĠBeartooth": 4737,
      "ĠBlackford": 4738,
      "burn": 4739,
      "figs": 4740,
      "elta": 4741,
      "Ġplace": 4742,
      "ĠBrid": 4743,
      "Ġdisconform": 4744,
      "usty": 4745,
      "Ġaddition": 4746,
      "Ġpeg": 4747,
      "Ġ1976": 4748,
      "ĠBays": 4749,
      "Ġ1964": 4750,
      "ĠBlair": 4751,
      "ĠMontgomery": 4752,
      "1963": 4753,
      "ĠDesmoinesian": 4754,
      "ĠButtes": 4755,
      "Anim": 4756,
      "oba": 4757,
      "ĠLittleton": 4758,
      "eldspar": 4759,
      "ancroft": 4760,
      "1956": 4761,
      "ĠAnnona": 4762,
      "ĠDraw": 4763,
      "ĠArkadelphia": 4764,
      "ĠPlains": 4765,
      "emblor": 4766,
      "ĠAlturas": 4767,
      "ĠBerg": 4768,
      "scale": 4769,
      "andelier": 4770,
      "Ġdolomites": 4771,
      "ĠFormerly": 4772,
      "which": 4773,
      "ĠBernard": 4774,
      "ĠGNU": 4775,
      "ĠArchean": 4776,
      "Ġcliffs": 4777,
      "Ġpumic": 4778,
      "ĠElko": 4779,
      "Ġdeterminations": 4780,
      "ĠBethel": 4781,
      "Ġmolluscan": 4782,
      "Ġriver": 4783,
      "Ġdistinguish": 4784,
      "Ġcoastal": 4785,
      "eja": 4786,
      "ĠMedicine": 4787,
      "ĠAbsaroka": 4788,
      "ĠSnowy": 4789,
      "interval": 4790,
      "Ġdiagr": 4791,
      "Chesterian": 4792,
      "ĠSangre": 4793,
      "ĠUlrich": 4794,
      "Ġoccasional": 4795,
      "ĠHarris": 4796,
      "ĠCuyahoga": 4797,
      "ietam": 4798,
      "ĠKeweenaw": 4799,
      "ĠAquia": 4800,
      "ĠTimber": 4801,
      "worked": 4802,
      "phanitic": 4803,
      "Ġlevel": 4804,
      "ĠMowry": 4805,
      "Ġrespectively": 4806,
      "ĠGraford": 4807,
      "ĠScotland": 4808,
      "ĠMinnesota": 4809,
      "ĠCouncil": 4810,
      "ĠLivingston": 4811,
      "ĠNugget": 4812,
      "250": 4813,
      "33": 4814,
      "Agu": 4815,
      "Bed": 4816,
      "Bay": 4817,
      "IG": 4818,
      "Oligocene": 4819,
      "Pleistocene": 4820,
      "St": 4821,
      "Vir": 4822,
      "bes": 4823,
      "cer": 4824,
      "for": 4825,
      "ful": 4826,
      "fossils": 4827,
      "gth": 4828,
      "ged": 4829,
      "gate": 4830,
      "glac": 4831,
      "hed": 4832,
      "ilian": 4833,
      "kins": 4834,
      "ling": 4835,
      "mass": 4836,
      "nd": 4837,
      "nor": 4838,
      "pine": 4839,
      "ulu": 4840,
      "xter": 4841,
      "yond": 4842,
      "ones": 4843,
      "Ġox": 4844,
      "atural": 4845,
      "orange": 4846,
      "Ġsuch": 4847,
      "Ġsills": 4848,
      "Ġoff": 4849,
      "isc": 4850,
      "Ġfish": 4851,
      "eny": 4852,
      "enne": 4853,
      "ength": 4854,
      "Ġthence": 4855,
      "Ġinv": 4856,
      "itized": 4857,
      "Ġcemented": 4858,
      "Ġmakes": 4859,
      "ĠMah": 4860,
      "ĠMassive": 4861,
      "ĠMead": 4862,
      "ĠAC": 4863,
      "ĠAAPG": 4864,
      "ĠBates": 4865,
      "ĠBoth": 4866,
      "ĠBertie": 4867,
      "ĠBancroft": 4868,
      "ĠSel": 4869,
      "ĠSmok": 4870,
      "Ġavail": 4871,
      "Ġaphanitic": 4872,
      "Ġwood": 4873,
      "ĠTuc": 4874,
      "ĠTemblor": 4875,
      "Ġnec": 4876,
      "Ġdates": 4877,
      "ĠPer": 4878,
      "ĠPeter": 4879,
      "ĠPlutonic": 4880,
      "illow": 4881,
      "ingly": 4882,
      "etters": 4883,
      "urb": 4884,
      "urally": 4885,
      "urther": 4886,
      "ades": 4887,
      "ĠOlder": 4888,
      "quently": 4889,
      "ĠWin": 4890,
      "Ġgrapt": 4891,
      "ĠDry": 4892,
      "Ġreal": 4893,
      "ape": 4894,
      "Ġrich": 4895,
      "Ġrough": 4896,
      "Ġthicker": 4897,
      "umnes": 4898,
      "Ġgarnet": 4899,
      "Ġdeformed": 4900,
      "Ġvol": 4901,
      "unit": 4902,
      "ode": 4903,
      "ĠConf": 4904,
      "elling": 4905,
      "ĠAlkali": 4906,
      "ĠAlgonkian": 4907,
      "Ġ550": 4908,
      "ĠChil": 4909,
      "ĠChamplain": 4910,
      "Ġinterven": 4911,
      "Ġstrat": 4912,
      "Ġprogress": 4913,
      "ahatchee": 4914,
      "even": 4915,
      "ĠStud": 4916,
      "ĠStearns": 4917,
      "monly": 4918,
      "aware": 4919,
      "ĠSandy": 4920,
      "burne": 4921,
      "Ġwells": 4922,
      "Ġ95": 4923,
      "ĠCommonly": 4924,
      "ondaga": 4925,
      "annock": 4926,
      "ĠMarion": 4927,
      "Ġpelecyp": 4928,
      "Ġ1972": 4929,
      "Ġ1975": 4930,
      "Ġ1967": 4931,
      "Ġindicating": 4932,
      "ĠAshley": 4933,
      "ĠBearpaw": 4934,
      "ĠTrinity": 4935,
      "Ġrelated": 4936,
      "1967": 4937,
      "ĠBellevue": 4938,
      "Ġ170": 4939,
      "Ġshowing": 4940,
      "ĠMorgan": 4941,
      "keley": 4942,
      "ailroad": 4943,
      "ycross": 4944,
      "iceance": 4945,
      "oids": 4946,
      "Ġnoncalcareous": 4947,
      "Ġcrest": 4948,
      "Ġcrystal": 4949,
      "Ġmetamorphism": 4950,
      "Ġdetailed": 4951,
      "Ġpaleontolog": 4952,
      "lump": 4953,
      "ĠBaxter": 4954,
      "Ġpract": 4955,
      "uncion": 4956,
      "ĠBecause": 4957,
      "Ġstructures": 4958,
      "ĠPalm": 4959,
      "ĠBernal": 4960,
      "Ġfarther": 4961,
      "ĠBrew": 4962,
      "Ġsheets": 4963,
      "Ġdrill": 4964,
      "ĠStonewall": 4965,
      "ĠIntrudes": 4966,
      "ĠIntrusive": 4967,
      "ranked": 4968,
      "ĠChesterian": 4969,
      "ĠDelaware": 4970,
      "ĠMetamorph": 4971,
      "idalgo": 4972,
      "ĠBlakely": 4973,
      "Ġmetasedimentary": 4974,
      "ĠTuronian": 4975,
      "irty": 4976,
      "Ġmountains": 4977,
      "ometric": 4978,
      "ogeneous": 4979,
      "Ġperiod": 4980,
      "Ġcompiled": 4981,
      "Ġsurfaces": 4982,
      "Ġgroundmass": 4983,
      "ĠNaese": 4984,
      "Ġcapital": 4985,
      "Ġmissing": 4986,
      "ĠAverage": 4987,
      "ĠHarbor": 4988,
      "Ġflora": 4989,
      "Ġavailable": 4990,
      "45": 4991,
      "66": 4992,
      "77": 4993,
      "85": 4994,
      "Bird": 4995,
      "Bisbee": 4996,
      "Ge": 4997,
      "LE": 4998,
      "LL": 4999,
      "LO": 5000,
      "Mi": 5001,
      "Mor": 5002,
      "Rec": 5003,
      "Sub": 5004,
      "Series": 5005,
      "UN": 5006,
      "Used": 5007,
      "bol": 5008,
      "base": 5009,
      "cene": 5010,
      "don": 5011,
      "fter": 5012,
      "gal": 5013,
      "gend": 5014,
      "hill": 5015,
      "high": 5016,
      "kan": 5017,
      "nut": 5018,
      "nell": 5019,
      "sby": 5020,
      "served": 5021,
      "vil": 5022,
      "yg": 5023,
      "zed": 5024,
      "Ġenc": 5025,
      "ono": 5026,
      "erville": 5027,
      "ergus": 5028,
      "Ġsurr": 5029,
      "allo": 5030,
      "allu": 5031,
      "iser": 5032,
      "Ġfiss": 5033,
      "enet": 5034,
      "Ġthen": 5035,
      "ĠCow": 5036,
      "ĠCenozoic": 5037,
      "Ġbank": 5038,
      "Ġcould": 5039,
      "Ġcertain": 5040,
      "Ġmis": 5041,
      "Ġtongues": 5042,
      "ĠMy": 5043,
      "ĠMark": 5044,
      "ĠMerr": 5045,
      "ĠAber": 5046,
      "ĠACSN": 5047,
      "ĠBuff": 5048,
      "ĠBack": 5049,
      "ĠBarker": 5050,
      "rophy": 5051,
      "Ġplain": 5052,
      "lee": 5053,
      "leaf": 5054,
      "ĠSqu": 5055,
      "ĠSevier": 5056,
      "ĠSaddle": 5057,
      "Ġapl": 5058,
      "ĠTanks": 5059,
      "ĠTallah": 5060,
      "ĠTintic": 5061,
      "Ġ1000": 5062,
      "Ġdiv": 5063,
      "ĠPiceance": 5064,
      "acing": 5065,
      "ĠFul": 5066,
      "ĠFour": 5067,
      "ĠFergus": 5068,
      "ĠRosa": 5069,
      "emar": 5070,
      "ĠLA": 5071,
      "ĠLang": 5072,
      "Ġequ": 5073,
      "Ġunfossiliferous": 5074,
      "oling": 5075,
      "ollow": 5076,
      "ading": 5077,
      "omorph": 5078,
      "Ġarbit": 5079,
      "quer": 5080,
      "ĠWa": 5081,
      "ĠWan": 5082,
      "ĠWard": 5083,
      "Ġgrain": 5084,
      "Ġfeature": 5085,
      "ĠHu": 5086,
      "ĠHarp": 5087,
      "ĠHowever": 5088,
      "ĠHidalgo": 5089,
      "ĠDolostone": 5090,
      "Ġreef": 5091,
      "Ġreworked": 5092,
      "apa": 5093,
      "aped": 5094,
      "Ġland": 5095,
      "Ġlists": 5096,
      "Ġlength": 5097,
      "chburg": 5098,
      "Ġbeyond": 5099,
      "imer": 5100,
      "trending": 5101,
      "ulk": 5102,
      "uminous": 5103,
      "Ġdeformation": 5104,
      "Ġval": 5105,
      "Ġchanges": 5106,
      "ĠConej": 5107,
      "Ġcontemporaneous": 5108,
      "ĠJac": 5109,
      "Ġ53": 5110,
      "Ġcoqu": 5111,
      "ĠAnchor": 5112,
      "Ġintersection": 5113,
      "olocene": 5114,
      "opolis": 5115,
      "ylon": 5116,
      "ĠArg": 5117,
      "ĠArrow": 5118,
      "ĠBeacon": 5119,
      "ĠBeverly": 5120,
      "Ġyet": 5121,
      "ĠLibert": 5122,
      "ĠOrange": 5123,
      "ordance": 5124,
      "ĠBasic": 5125,
      "elden": 5126,
      "Ġdike": 5127,
      "Ġplants": 5128,
      "ĠQuarry": 5129,
      "ĠQueen": 5130,
      "Ġgranular": 5131,
      "ĠAmsterdam": 5132,
      "Ġlithic": 5133,
      "Ġlithostratigraphic": 5134,
      "Ġ1200": 5135,
      "ĠClinton": 5136,
      "Ġlegend": 5137,
      "ondale": 5138,
      "ĠYavapai": 5139,
      "ĠBluestone": 5140,
      "Ġ116": 5141,
      "Ġgneisses": 5142,
      "anche": 5143,
      "ĠMarm": 5144,
      "Ġlayered": 5145,
      "olive": 5146,
      "Ġlarger": 5147,
      "Ġfaunas": 5148,
      "ĠWilmar": 5149,
      "ĠCarter": 5150,
      "ĠCaloos": 5151,
      "ĠBelcher": 5152,
      "ĠOnondaga": 5153,
      "assium": 5154,
      "ĠSupai": 5155,
      "Ġjunction": 5156,
      "Ġ1954": 5157,
      "ĠAlbion": 5158,
      "ĠBendian": 5159,
      "Ġvariable": 5160,
      "Ġdiscarded": 5161,
      "ĠHolly": 5162,
      "Ġprincipal": 5163,
      "umnar": 5164,
      "ĠAltyn": 5165,
      "ĠWeaver": 5166,
      "ĠAntietam": 5167,
      "Ġstructural": 5168,
      "Ġpurplish": 5169,
      "Ġ1992": 5170,
      "Ġpinkish": 5171,
      "Ġdefinite": 5172,
      "Ġlimited": 5173,
      "ĠArcher": 5174,
      "ĠPrincipal": 5175,
      "Ġaverages": 5176,
      "tebrates": 5177,
      "ĠSocorro": 5178,
      "ĠGuaj": 5179,
      "Missourian": 5180,
      "OLITH": 5181,
      "Ġsample": 5182,
      "Ġvitric": 5183,
      "Ġglacial": 5184,
      "Ġchannels": 5185,
      "Connor": 5186,
      "Ġsubdivisions": 5187,
      "ĠAuthors": 5188,
      "ĠMcKin": 5189,
      "ĠBlakeley": 5190,
      "lication": 5191,
      "ĠMidway": 5192,
      "located": 5193,
      "Ġdistribution": 5194,
      "Ġtrilobite": 5195,
      "ĠArea": 5196,
      "ĠLogan": 5197,
      "ĠWallace": 5198,
      "Ġdissert": 5199,
      "ĠHudson": 5200,
      "Ġgastropods": 5201,
      "ĠFrontier": 5202,
      "Ġvarying": 5203,
      "Abrigo": 5204,
      "Ġsignific": 5205,
      "Ġbryozoans": 5206,
      "Ġtonalite": 5207,
      "ĠLuis": 5208,
      "Ġprimarily": 5209,
      "Misprint": 5210,
      "Ġwidth": 5211,
      "ĠBrewster": 5212,
      "Miocene": 5213,
      "Ġarbitr": 5214,
      "ĠLiberty": 5215,
      "ĠWilmarth": 5216,
      "ĠCaloosahatchee": 5217,
      "ĠGuaje": 5218,
      "81": 5219,
      "?).": 5220,
      "Ass": 5221,
      "Bec": 5222,
      "Benton": 5223,
      "Ext": 5224,
      "ME": 5225,
      "No": 5226,
      "OG": 5227,
      "Pliocene": 5228,
      "Red": 5229,
      "Sil": 5230,
      "UC": 5231,
      "]:": 5232,
      "bon": 5233,
      "blue": 5234,
      "first": 5235,
      "hen": 5236,
      "here": 5237,
      "hawk": 5238,
      "haps": 5239,
      "ipp": 5240,
      "jib": 5241,
      "ki": 5242,
      "lers": 5243,
      "listed": 5244,
      "ning": 5245,
      "nec": 5246,
      "neville": 5247,
      "oal": 5248,
      "oge": 5249,
      "sec": 5250,
      "sto": 5251,
      "tal": 5252,
      "vid": 5253,
      "with": 5254,
      "ĠX": 5255,
      "atin": 5256,
      "oret": 5257,
      "aring": 5258,
      "Ġsum": 5259,
      "Ġsph": 5260,
      "Ġfurther": 5261,
      "ĠCyp": 5262,
      "Ġbio": 5263,
      "Ġbtw": 5264,
      "Ġinch": 5265,
      "Ġcarries": 5266,
      "Ġmor": 5267,
      "Ġtaken": 5268,
      "ĠMe": 5269,
      "ĠAycross": 5270,
      "Ġpt": 5271,
      "Ġ(\"": 5272,
      "ĠSD": 5273,
      "ĠSed": 5274,
      "ĠSac": 5275,
      "Ġafter": 5276,
      "ĠTre": 5277,
      "ĠTable": 5278,
      "Ġdominant": 5279,
      "osite": 5280,
      "osol": 5281,
      "ĠPR": 5282,
      "ilt": 5283,
      "ĠRand": 5284,
      "ĠGall": 5285,
      "ĠGunn": 5286,
      "ĠNin": 5287,
      "ĠNiag": 5288,
      "Ġuntil": 5289,
      "Ġuniform": 5290,
      "olulu": 5291,
      "Ġlime": 5292,
      "ect": 5293,
      "omagnet": 5294,
      "quent": 5295,
      "ĠWew": 5296,
      "about": 5297,
      "ĠHole": 5298,
      "ĠDiorite": 5299,
      "ĠThins": 5300,
      "ĠEastern": 5301,
      "ĠErie": 5302,
      "apilli": 5303,
      "Ġsecond": 5304,
      "Ġlist": 5305,
      "Ġbegin": 5306,
      "ument": 5307,
      "rio": 5308,
      "lach": 5309,
      "Ġdebr": 5310,
      "usa": 5311,
      "ĠKirk": 5312,
      "ĠVaugh": 5313,
      "irly": 5314,
      "irond": 5315,
      "Ġalgal": 5316,
      "Ġchlorite": 5317,
      "ĠAlle": 5318,
      "ĠJr": 5319,
      "ĠChip": 5320,
      "ĠCharacter": 5321,
      "Ġcooling": 5322,
      "pression": 5323,
      "Ġcompar": 5324,
      "Ġ71": 5325,
      "Ġ74": 5326,
      "Ġstation": 5327,
      "Ġstill": 5328,
      "avolcanic": 5329,
      "Ġ650": 5330,
      "Ġcoral": 5331,
      "text": 5332,
      "ĠArrib": 5333,
      "athered": 5334,
      "ĠBead": 5335,
      "ova": 5336,
      "achim": 5337,
      "Ġyield": 5338,
      "ĠGeorge": 5339,
      "Ġgeographically": 5340,
      "Ġfairly": 5341,
      "ĠQuarter": 5342,
      "ĠUppermost": 5343,
      "Ġcoarsely": 5344,
      "Ġtrunc": 5345,
      "Ġmetavolcanic": 5346,
      "Ġsediment": 5347,
      "rystal": 5348,
      "Ġgrading": 5349,
      "ĠMari": 5350,
      "ĠMarsh": 5351,
      "Ġ1963": 5352,
      "Ġ1965": 5353,
      "Ġweak": 5354,
      "Ġyoungest": 5355,
      "Ġ1989": 5356,
      "Ġindicated": 5357,
      "Ġ140": 5358,
      "uckle": 5359,
      "ĠSouthern": 5360,
      "ĠLatite": 5361,
      "Ġperhaps": 5362,
      "ĠRecent": 5363,
      "preted": 5364,
      "oldt": 5365,
      "ĠGreene": 5366,
      "ency": 5367,
      "Ġflat": 5368,
      "ĠColumnar": 5369,
      "ĠSept": 5370,
      "1983": 5371,
      "Ġabsence": 5372,
      "Ġclassified": 5373,
      "Ġlateral": 5374,
      "1957": 5375,
      "Ġfollows": 5376,
      "ĠAllentown": 5377,
      "ĠPlatt": 5378,
      "ersonal": 5379,
      "umboldt": 5380,
      "Ġemplo": 5381,
      "white": 5382,
      "where": 5383,
      "ĠBreck": 5384,
      "Ġlimits": 5385,
      "Ġconstants": 5386,
      "ĠForamin": 5387,
      "Ġobserved": 5388,
      "Ġpredomin": 5389,
      "ĠPrince": 5390,
      "ĠPotomac": 5391,
      "ĠIntertongues": 5392,
      "Ġblocky": 5393,
      "Ġnumber": 5394,
      "mediate": 5395,
      "OCER": 5396,
      "ĠBloomington": 5397,
      "Ġinterpret": 5398,
      "ĠBonner": 5399,
      "tesia": 5400,
      "ĠCaballo": 5401,
      "Ġdecay": 5402,
      "ĠDiamond": 5403,
      "ĠArnold": 5404,
      "ĠBarnett": 5405,
      "Ġclearly": 5406,
      "Ġrarely": 5407,
      "Origin": 5408,
      "granite": 5409,
      "Ġstandard": 5410,
      "ĠDeposited": 5411,
      "ĠJoachim": 5412,
      "Ġassignment": 5413,
      "bined": 5414,
      "ĠStony": 5415,
      "ĠTuscahoma": 5416,
      "ĠRavalli": 5417,
      "Ġterminology": 5418,
      "ĠCincinnati": 5419,
      "ĠChazy": 5420,
      "ĠLynchburg": 5421,
      "ĠCompany": 5422,
      "ĠOuachita": 5423,
      "ĠAlcova": 5424,
      "Animikie": 5425,
      "ĠBernardino": 5426,
      "Virg": 5427,
      "bolt": 5428,
      "rophyre": 5429,
      "ĠMarmaton": 5430,
      "jibik": 5431,
      "videre": 5432,
      "ĠCypress": 5433,
      "Ġdebris": 5434,
      "ĠArriba": 5435,
      "\".": 5436,
      ".),": 5437,
      "32": 5438,
      "39": 5439,
      "65": 5440,
      "Ber": 5441,
      "Camp": 5442,
      "II": 5443,
      "IR": 5444,
      "Lat": 5445,
      "LMA": 5446,
      "Mount": 5447,
      "Not": 5448,
      "OT": 5449,
      "YM": 5450,
      "back": 5451,
      "ces": 5452,
      "castle": 5453,
      "fall": 5454,
      "hjem": 5455,
      "ker": 5456,
      "member": 5457,
      "nake": 5458,
      "pur": 5459,
      "rament": 5460,
      "uco": 5461,
      "uquer": 5462,
      "vas": 5463,
      "vian": 5464,
      "vale": 5465,
      "wen": 5466,
      "za": 5467,
      "Ġ-": 5468,
      "ons": 5469,
      "inst": 5470,
      "inik": 5471,
      "eds": 5472,
      "arend": 5473,
      "aria": 5474,
      "arse": 5475,
      "andes": 5476,
      "andotte": 5477,
      "Ġfre": 5478,
      "Ġfact": 5479,
      "enridge": 5480,
      "asia": 5481,
      "asily": 5482,
      "asper": 5483,
      "Ġthird": 5484,
      "ĠCint": 5485,
      "Ġbre": 5486,
      "Ġbulk": 5487,
      "ict": 5488,
      "icult": 5489,
      "icolored": 5490,
      "Ġinferred": 5491,
      "Ġmention": 5492,
      "ĠAli": 5493,
      "ĠBuck": 5494,
      "ĠBox": 5495,
      "ĠBanks": 5496,
      "Ġperm": 5497,
      "Ġpillow": 5498,
      "loch": 5499,
      "ĠSl": 5500,
      "ĠSab": 5501,
      "ĠSun": 5502,
      "ĠSto": 5503,
      "ĠSav": 5504,
      "Ġaff": 5505,
      "Ġwind": 5506,
      "ĠTow": 5507,
      "geologic": 5508,
      "Ġnann": 5509,
      "ĠPam": 5510,
      "ĠFar": 5511,
      "ĠFre": 5512,
      "ĠFlow": 5513,
      "vers": 5514,
      "entative": 5515,
      "ĠGill": 5516,
      "ĠGypsum": 5517,
      "ĠNorm": 5518,
      "ĠNash": 5519,
      "ecton": 5520,
      "artman": 5521,
      "ady": 5522,
      "ĠOli": 5523,
      "ĠOah": 5524,
      "ĠOwy": 5525,
      "Ġshor": 5526,
      "ĠWat": 5527,
      "ĠWac": 5528,
      "ĠWins": 5529,
      "ĠWise": 5530,
      "Ġgraph": 5531,
      "ocol": 5532,
      "Ġfeat": 5533,
      "ĠHo": 5534,
      "ĠHolocene": 5535,
      "ĠHumboldt": 5536,
      "ĠDE": 5537,
      "ĠDal": 5538,
      "ĠDist": 5539,
      "ĠDog": 5540,
      "Ġ2000": 5541,
      "ĠEli": 5542,
      "ĠEver": 5543,
      "Ġref": 5544,
      "Ġrepe": 5545,
      "Ġrapid": 5546,
      "Ġrusty": 5547,
      "Ġlack": 5548,
      "ĠCobles": 5549,
      "chart": 5550,
      "Ġquestion": 5551,
      "asta": 5552,
      "astasia": 5553,
      "imient": 5554,
      "Ġwhose": 5555,
      "Ġwholly": 5556,
      "enev": 5557,
      "sie": 5558,
      "akah": 5559,
      "rior": 5560,
      "Ġgyp": 5561,
      "uster": 5562,
      "Ġloam": 5563,
      "ĠVery": 5564,
      "bedding": 5565,
      "Ġchemical": 5566,
      "top": 5567,
      "gher": 5568,
      "ards": 5569,
      "ĠAlaska": 5570,
      "ĠJager": 5571,
      "Ġ59": 5572,
      "ĠChey": 5573,
      "ĠChalk": 5574,
      "ĠAndes": 5575,
      "Ġintermediate": 5576,
      "ĠIsom": 5577,
      "Ġ79": 5578,
      "ostic": 5579,
      "aven": 5580,
      "ĠSharp": 5581,
      "Ġ68": 5582,
      "yler": 5583,
      "ĠArco": 5584,
      "ĠGeorg": 5585,
      "roper": 5586,
      "Ġdiffer": 5587,
      "ĠBlacksmith": 5588,
      "Ġcalcar": 5589,
      "ĠNewport": 5590,
      "ĠAms": 5591,
      "ampa": 5592,
      "Ġdisapp": 5593,
      "ondhjem": 5594,
      "Ġpresents": 5595,
      "Ġrecomm": 5596,
      "alty": 5597,
      "clin": 5598,
      "Ġ110": 5599,
      "Ġ115": 5600,
      "Ġmeters": 5601,
      "atta": 5602,
      "ĠAda": 5603,
      "Ġ1979": 5604,
      "Ġ1962": 5605,
      "ofacies": 5606,
      "Ġlargest": 5607,
      "ominated": 5608,
      "ĠCosumnes": 5609,
      "1960": 5610,
      "ĠAsuncion": 5611,
      "Ġbrack": 5612,
      "Ġboundaries": 5613,
      "Ġfaulting": 5614,
      "ĠMonte": 5615,
      "enai": 5616,
      "ĠMorita": 5617,
      "ĠForks": 5618,
      "ĠCruz": 5619,
      "Ġ359": 5620,
      "ĠDeer": 5621,
      "1977": 5622,
      "ĠApple": 5623,
      "ĠAppalach": 5624,
      "ĠFlint": 5625,
      "ELL": 5626,
      "Ġpaleosol": 5627,
      "ĠBailey": 5628,
      "Ġpress": 5629,
      "ĠAlamitos": 5630,
      "Ġbrachiopod": 5631,
      "ĠBlocher": 5632,
      "ĠBerkeley": 5633,
      "Ġcycles": 5634,
      "Ġemplaced": 5635,
      "ĠPalmer": 5636,
      "ĠBerne": 5637,
      "pebble": 5638,
      "Ġcovers": 5639,
      "auna": 5640,
      "ĠDiscussion": 5641,
      "ĠLowest": 5642,
      "ĠLowell": 5643,
      "Desmoinesian": 5644,
      "ĠSteiger": 5645,
      "ĠBenbolt": 5646,
      "ĠBethany": 5647,
      "ĠBethlehem": 5648,
      "Ġserp": 5649,
      "ĠMercer": 5650,
      "ĠSweetgrass": 5651,
      "Mississipp": 5652,
      "ĠSumm": 5653,
      "ĠNALMA": 5654,
      "Ġanticlin": 5655,
      "ĠMudstone": 5656,
      "ĠBonneville": 5657,
      "Ġassemblages": 5658,
      "Ġoverlaps": 5659,
      "ĠAspen": 5660,
      "Ġtransitional": 5661,
      "Ġtrilobites": 5662,
      "Ġsparsely": 5663,
      "362": 5664,
      "aibab": 5665,
      "ĠTypically": 5666,
      "Ġactually": 5667,
      "ĠHonolulu": 5668,
      "Ġvariety": 5669,
      "Ġrecogniz": 5670,
      "ĠAkron": 5671,
      "ĠAuburn": 5672,
      "ĠSample": 5673,
      "Ġdifficult": 5674,
      "Ġpotassium": 5675,
      "Ġresembles": 5676,
      "ĠWedron": 5677,
      "ĠColeman": 5678,
      "yclical": 5679,
      "Ġopposite": 5680,
      "ĠBolsa": 5681,
      "ĠDuncan": 5682,
      "Ġrevision": 5683,
      "leship": 5684,
      "Ġexplan": 5685,
      "ĠAlvord": 5686,
      "ĠBridger": 5687,
      "ĠKeweenawan": 5688,
      "Bedford": 5689,
      "glacial": 5690,
      "ĠSmoky": 5691,
      "Ġintervening": 5692,
      "ĠStudy": 5693,
      "ĠFulton": 5694,
      "ĠSacrament": 5695,
      "ĠGunnison": 5696,
      "omagnetic": 5697,
      "ĠWewe": 5698,
      "Ġemploy": 5699,
      "ĠBreckenridge": 5700,
      "uquerque": 5701,
      "inikoff": 5702,
      "ĠCintura": 5703,
      "ĠOwyhee": 5704,
      "ĠCobleskill": 5705,
      "imiento": 5706,
      "ĠCheyenne": 5707,
      "ĠGeorgia": 5708,
      "ĠAppalachian": 5709,
      "ĠSacramento": 5710,
      "\")": 5711,
      "..": 5712,
      "49": 5713,
      "AD": 5714,
      "At": 5715,
      "Acc": 5716,
      "Amer": 5717,
      "Bad": 5718,
      "Bee": 5719,
      "Blue": 5720,
      "Earth": 5721,
      "Formation": 5722,
      "Illino": 5723,
      "Permian": 5724,
      "Wil": 5725,
      "ais": 5726,
      "bo": 5727,
      "ebr": 5728,
      "fax": 5729,
      "facing": 5730,
      "hr": 5731,
      "met": 5732,
      "master": 5733,
      "ography": 5734,
      "pole": 5735,
      "uro": 5736,
      "vington": 5737,
      "anus": 5738,
      "ancon": 5739,
      "thr": 5740,
      "thon": 5741,
      "Ġore": 5742,
      "ator": 5743,
      "orium": 5744,
      "ari": 5745,
      "ario": 5746,
      "arita": 5747,
      "Ġset": 5748,
      "oula": 5749,
      "ĠCarb": 5750,
      "ĠCenter": 5751,
      "ĠCisco": 5752,
      "ĠCerro": 5753,
      "Ġbur": 5754,
      "Ġcarry": 5755,
      "Ġmer": 5756,
      "Ġmapp": 5757,
      "Ġmust": 5758,
      "ĠMN": 5759,
      "ĠMac": 5760,
      "ĠMain": 5761,
      "ĠMur": 5762,
      "ĠMural": 5763,
      "ĠMule": 5764,
      "ĠAcad": 5765,
      "ĠAarde": 5766,
      "ĠBena": 5767,
      "ĠBanner": 5768,
      "ĠBandelier": 5769,
      "rog": 5770,
      "roxim": 5771,
      "ropping": 5772,
      "rosa": 5773,
      "Ġpin": 5774,
      "ĠSection": 5775,
      "Ġair": 5776,
      "Ġtotal": 5777,
      "ĠTy": 5778,
      "ĠTyler": 5779,
      "Ġisland": 5780,
      "Ġdomes": 5781,
      "Ġdacite": 5782,
      "Ġdelta": 5783,
      "ĠPub": 5784,
      "ĠPost": 5785,
      "ĠPred": 5786,
      "ĠPack": 5787,
      "ĠPorphy": 5788,
      "ĠPerry": 5789,
      "ĠFrom": 5790,
      "ami": 5791,
      "etailed": 5792,
      "ĠLis": 5793,
      "ĠLetters": 5794,
      "ĠGard": 5795,
      "aines": 5796,
      "ided": 5797,
      "idian": 5798,
      "eland": 5799,
      "Ġevery": 5800,
      "Ġeasily": 5801,
      "ĠNaylor": 5802,
      "urs": 5803,
      "ĠOct": 5804,
      "abrosa": 5805,
      "ĠHall": 5806,
      "ĠHun": 5807,
      "ĠDam": 5808,
      "ĠDall": 5809,
      "ĠDix": 5810,
      "ithe": 5811,
      "Ġret": 5812,
      "Ġreason": 5813,
      "Ġlapilli": 5814,
      "Ġhom": 5815,
      "posa": 5816,
      "ewell": 5817,
      "track": 5818,
      "umed": 5819,
      "siferous": 5820,
      "Ġexp": 5821,
      "aker": 5822,
      "cept": 5823,
      "Ġgave": 5824,
      "ĠInt": 5825,
      "ĠKan": 5826,
      "ĠKill": 5827,
      "ĠKitt": 5828,
      "odes": 5829,
      "Ġalluvial": 5830,
      "eller": 5831,
      "ĠRivers": 5832,
      "Ġcontent": 5833,
      "ĠJuni": 5834,
      "Ġ51": 5835,
      "Ġ57": 5836,
      "Ġseven": 5837,
      "Ġinterstratified": 5838,
      "sequent": 5839,
      "Ġcompos": 5840,
      "phys": 5841,
      "phillian": 5842,
      "phithe": 5843,
      "Ġ77": 5844,
      "Ġquartzitic": 5845,
      "stead": 5846,
      "ahoch": 5847,
      "aves": 5848,
      "ĠShasta": 5849,
      "Ġ67": 5850,
      "ogon": 5851,
      "Ġcorr": 5852,
      "ĠArp": 5853,
      "ĠArtesia": 5854,
      "athers": 5855,
      "ĠMaz": 5856,
      "shaped": 5857,
      "ĠBascom": 5858,
      "Ġdiatom": 5859,
      "Ġsubangular": 5860,
      "ĠReg": 5861,
      "ĠReger": 5862,
      "Ġbetter": 5863,
      "ĠBlackhawk": 5864,
      "Ġcalcite": 5865,
      "ĠNewton": 5866,
      "cover": 5867,
      "hyd": 5868,
      "Ġrecent": 5869,
      "Ġrecords": 5870,
      "averas": 5871,
      "Ġindividual": 5872,
      "ĠBarcroft": 5873,
      "Ġphases": 5874,
      "Ġadvan": 5875,
      "ibson": 5876,
      "trusive": 5877,
      "ĠCAN": 5878,
      "Ġ1973": 5879,
      "Ġ1960": 5880,
      "ĠBlanc": 5881,
      "Ġcorrelations": 5882,
      "Ġ1987": 5883,
      "Ġresult": 5884,
      "ĠMonument": 5885,
      "Ġlesser": 5886,
      "ĠMorrowan": 5887,
      "Ġsilicic": 5888,
      "Ġ1956": 5889,
      "Ġcontinu": 5890,
      "ĠAssoc": 5891,
      "ĠVirg": 5892,
      "Ġintervals": 5893,
      "ĠLeonard": 5894,
      "Ġidentical": 5895,
      "1988": 5896,
      "Ġcrystals": 5897,
      "Ġfragment": 5898,
      "1935": 5899,
      "1936": 5900,
      "1938": 5901,
      "avajo": 5902,
      "ĠAllen": 5903,
      "ĠWyandotte": 5904,
      "ĠPlanet": 5905,
      "ĠBrownville": 5906,
      "Beth": 5907,
      "Ġ1991": 5908,
      "Ġheavy": 5909,
      "ĠCampanian": 5910,
      "ĠAmericus": 5911,
      "ĠStonehen": 5912,
      "Ġcompact": 5913,
      "ĠLowville": 5914,
      "1941": 5915,
      "ĠPhD": 5916,
      "Ġmeth": 5917,
      "ĠSteph": 5918,
      "Ġpresence": 5919,
      "ĠDrift": 5920,
      "ĠBloomsburg": 5921,
      "ĠHayden": 5922,
      "Ġwriter": 5923,
      "ĠDivide": 5924,
      "Ġshells": 5925,
      "ĠFairview": 5926,
      "Ġvitrophyre": 5927,
      "ĠAndreas": 5928,
      "ĠGarfield": 5929,
      "ĠAspinwall": 5930,
      "dsley": 5931,
      "gressive": 5932,
      "basalt": 5933,
      "southwest": 5934,
      "ĠFisher": 5935,
      "Ġconstitutes": 5936,
      "Ġincreases": 5937,
      "ĠNacimiento": 5938,
      "ascade": 5939,
      "ĠCorner": 5940,
      "ĠCondra": 5941,
      "ĠOldest": 5942,
      "Ġmammals": 5943,
      "cellus": 5944,
      "ĠBeaufort": 5945,
      "ĠDevils": 5946,
      "crystalline": 5947,
      "Ġpalyn": 5948,
      "ĠOccup": 5949,
      "ĠCarrizo": 5950,
      "ascadero": 5951,
      "Ġpumiceous": 5952,
      "ĠTucson": 5953,
      "Ġfission": 5954,
      "ĠTallahatta": 5955,
      "emarle": 5956,
      "ĠGallatin": 5957,
      "ĠNiagara": 5958,
      "ĠKirkwood": 5959,
      "ĠVaughn": 5960,
      "ĠQuartermaster": 5961,
      "ĠMariposa": 5962,
      "ĠForaminifer": 5963,
      "instated": 5964,
      "Ġnannof": 5965,
      "Ġrepeated": 5966,
      "Ġgypsiferous": 5967,
      "ĠAmsden": 5968,
      "Mississippian": 5969,
      "ĠCarbondale": 5970,
      "Ġmappable": 5971,
      "ĠJuniata": 5972,
      "ahochi": 5973,
      "ĠStonehenge": 5974,
      "41": 5975,
      "Ap": 5976,
      "Ato": 5977,
      "Astoria": 5978,
      "ATH": 5979,
      "Bend": 5980,
      "Dev": 5981,
      "Denver": 5982,
      "Ma": 5983,
      "OM": 5984,
      "OPH": 5985,
      "Rock": 5986,
      "Wisconsin": 5987,
      "YP": 5988,
      "aum": 5989,
      "ba": 5990,
      "bar": 5991,
      "gue": 5992,
      "herm": 5993,
      "iatus": 5994,
      "ja": 5995,
      "kal": 5996,
      "key": 5997,
      "len": 5998,
      "matite": 5999,
      "ophys": 6000,
      "pkin": 6001,
      "rant": 6002,
      "uli": 6003,
      "ved": 6004,
      "ww": 6005,
      "wash": 6006,
      "xed": 6007,
      "yville": 6008,
      "Ġx": 6009,
      "Ġetc": 6010,
      "Ġlump": 6011,
      "aney": 6012,
      "ats": 6013,
      "atz": 6014,
      "arch": 6015,
      "arie": 6016,
      "Ġsem": 6017,
      "Ġsim": 6018,
      "andstone": 6019,
      "eno": 6020,
      "enic": 6021,
      "enites": 6022,
      "ĠClo": 6023,
      "ĠCul": 6024,
      "ĠCall": 6025,
      "ĠCost": 6026,
      "Ġbit": 6027,
      "Ġindepend": 6028,
      "itter": 6029,
      "ionally": 6030,
      "Ġtab": 6031,
      "ĠMil": 6032,
      "ĠMeasures": 6033,
      "ret": 6034,
      "lim": 6035,
      "lith": 6036,
      "lidated": 6037,
      "ĠAjibik": 6038,
      "ĠBall": 6039,
      "ĠBennett": 6040,
      "ĠBlach": 6041,
      "tongue": 6042,
      "Ġprior": 6043,
      "lot": 6044,
      "ĠSo": 6045,
      "ĠSar": 6046,
      "Ġap": 6047,
      "Ġago": 6048,
      "Ġwack": 6049,
      "Ġwalls": 6050,
      "ĠTampa": 6051,
      "Ġnor": 6052,
      "ĠPur": 6053,
      "ĠPut": 6054,
      "ĠPul": 6055,
      "ĠPlac": 6056,
      "ĠPower": 6057,
      "ĠPogon": 6058,
      "ĠFull": 6059,
      "ĠRome": 6060,
      "ĠRank": 6061,
      "ĠRevised": 6062,
      "ĠRoute": 6063,
      "grade": 6064,
      "inger": 6065,
      "entin": 6066,
      "ĠLo": 6067,
      "ĠLex": 6068,
      "ĠGQ": 6069,
      "ĠGun": 6070,
      "ĠGibson": 6071,
      "idan": 6072,
      "elm": 6073,
      "iana": 6074,
      "ĠNH": 6075,
      "ĠNat": 6076,
      "ĠNoc": 6077,
      "ĠNavajo": 6078,
      "Ġund": 6079,
      "olk": 6080,
      "olated": 6081,
      "Ġlimy": 6082,
      "Ġformational": 6083,
      "ĠIm": 6084,
      "ĠIgn": 6085,
      "ĠOil": 6086,
      "quir": 6087,
      "ĠWith": 6088,
      "ĠWhe": 6089,
      "ĠWolf": 6090,
      "ĠWaynes": 6091,
      "ĠWolfcamp": 6092,
      "ista": 6093,
      "ĠHell": 6094,
      "ĠTherm": 6095,
      "Ġ[=": 6096,
      "estrichtian": 6097,
      "Ġread": 6098,
      "Ġrim": 6099,
      "Ġhiatus": 6100,
      "ĠCove": 6101,
      "ĠCoarse": 6102,
      "cha": 6103,
      "Ġbeach": 6104,
      "Ġabrup": 6105,
      "ĠGrass": 6106,
      "ume": 6107,
      "umably": 6108,
      "sives": 6109,
      "Ġves": 6110,
      "ĠIndepend": 6111,
      "ĠKey": 6112,
      "ĠKinderhookian": 6113,
      "unranked": 6114,
      "ĠVaqu": 6115,
      "ĠVaries": 6116,
      "Ġconsoli": 6117,
      "gheny": 6118,
      "ĠChes": 6119,
      "ĠChap": 6120,
      "atile": 6121,
      "ĠAnon": 6122,
      "ĠAnton": 6123,
      "ĠAnastasia": 6124,
      "Ġseams": 6125,
      "sea": 6126,
      "Ġstrip": 6127,
      "Ġcombined": 6128,
      "phal": 6129,
      "phalt": 6130,
      "Ġ73": 6131,
      "Ġclass": 6132,
      "aha": 6133,
      "Ġ61": 6134,
      "Ġ62": 6135,
      "ĠArgill": 6136,
      "ĠBeatt": 6137,
      "Ġ82": 6138,
      "Ġ88": 6139,
      "shorne": 6140,
      "ĠGeographically": 6141,
      "lands": 6142,
      "Ġ101": 6143,
      "Ġ105": 6144,
      "Ġ109": 6145,
      "ordin": 6146,
      "Ġmixed": 6147,
      "solidated": 6148,
      "Ġsubgroup": 6149,
      "Ġsubordin": 6150,
      "alculated": 6151,
      "ĠMissoula": 6152,
      "deen": 6153,
      "ĠBlackleaf": 6154,
      "auers": 6155,
      "other": 6156,
      "ĠPeace": 6157,
      "ĠAmoret": 6158,
      "Ġ91": 6159,
      "ĠClaib": 6160,
      "ĠCloud": 6161,
      "Ġcoarser": 6162,
      "ĠBritish": 6163,
      "Ġpresented": 6164,
      "Ġrecently": 6165,
      "Ġrecalculated": 6166,
      "Ġcoals": 6167,
      "Ġtrace": 6168,
      "ĠAtt": 6169,
      "Ġ1930": 6170,
      "Ġ1937": 6171,
      "ĠAddy": 6172,
      "ĠAdirond": 6173,
      "ĠBarr": 6174,
      "ĠBarnes": 6175,
      "uction": 6176,
      "ĠMarine": 6177,
      "ĠUnits": 6178,
      "Ġamyg": 6179,
      "undivided": 6180,
      "ĠMcM": 6181,
      "ĠBayfield": 6182,
      "Ġsoutheastward": 6183,
      "Ġ1966": 6184,
      "Ġsouthwestward": 6185,
      "Ġ1985": 6186,
      "ĠBeardsley": 6187,
      "ĠWilson": 6188,
      "Ġunconformities": 6189,
      "1969": 6190,
      "ĠIslands": 6191,
      "ĠCalaveras": 6192,
      "ĠBelvidere": 6193,
      "ĠGreenwood": 6194,
      "Ġfract": 6195,
      "ĠOnly": 6196,
      "Ġerr": 6197,
      "ĠButts": 6198,
      "ĠFrancon": 6199,
      "Ġfaults": 6200,
      "ĠMonzonite": 6201,
      "ĠMorrow": 6202,
      "ĠGlas": 6203,
      "Ġsimilarity": 6204,
      "places": 6205,
      "Ġintrudes": 6206,
      "ĠAbo": 6207,
      "Ġcontinued": 6208,
      "ĠSeveral": 6209,
      "ĠLeith": 6210,
      "ĠLehigh": 6211,
      "Ġcolors": 6212,
      "1974": 6213,
      "1981": 6214,
      "1985": 6215,
      "Ġlaminae": 6216,
      "Ġsuggesting": 6217,
      "ĠBaldy": 6218,
      "attery": 6219,
      "ĠBursum": 6220,
      "oharie": 6221,
      "ĠAndres": 6222,
      "ĠAndover": 6223,
      "Ġdiscordance": 6224,
      "Ġvalleys": 6225,
      "ĠLaf": 6226,
      "ĠAntes": 6227,
      "Ġstructurally": 6228,
      "ĠCapitan": 6229,
      "Ġ1926": 6230,
      "phibolite": 6231,
      "Ġadjoin": 6232,
      "ĠPalo": 6233,
      "ĠBadwater": 6234,
      "Ġpyroxene": 6235,
      "luviatile": 6236,
      "Ġstreaks": 6237,
      "Ġagain": 6238,
      "ĠAtokan": 6239,
      "ĠPortage": 6240,
      "Ġbelonging": 6241,
      "Ġmoderate": 6242,
      "Missouri": 6243,
      "Ashley": 6244,
      "ĠGrades": 6245,
      "ĠBellef": 6246,
      "Ġoverlap": 6247,
      "Ġglaciation": 6248,
      "ĠMedina": 6249,
      "ĠMusk": 6250,
      "ĠAustell": 6251,
      "arren": 6252,
      "Ġhistory": 6253,
      "ĠDuro": 6254,
      "ĠHartshorne": 6255,
      "ĠPinal": 6256,
      "ĠCooke": 6257,
      "Ġconstitute": 6258,
      "Ġfelsic": 6259,
      "ĠHardin": 6260,
      "ĠGila": 6261,
      "ĠPartridge": 6262,
      "ĠRhin": 6263,
      "ĠRhems": 6264,
      "ĠHenry": 6265,
      "ĠUnderlain": 6266,
      "ĠTypical": 6267,
      "ĠQuadrant": 6268,
      "Ġtrachyte": 6269,
      "ĠEscabrosa": 6270,
      "ĠSiltstone": 6271,
      "ĠWhitehall": 6272,
      "ĠWhitehorse": 6273,
      "ĠBissett": 6274,
      "ĠOntario": 6275,
      "Ġcurrent": 6276,
      "ĠBidahochi": 6277,
      "ĠTwp": 6278,
      "ĠAdmiralty": 6279,
      "ĠAugusta": 6280,
      "ĠBetsie": 6281,
      "ĠGenerally": 6282,
      "ĠPuerto": 6283,
      "occup": 6284,
      "irmingham": 6285,
      "Ġvertical": 6286,
      "ĠDickinson": 6287,
      "ĠSheridan": 6288,
      "Ġdiagram": 6289,
      "Ġnecess": 6290,
      "Ġreallocated": 6291,
      "Ġroughly": 6292,
      "ĠMetamorphic": 6293,
      "Ġcapitalized": 6294,
      "Morrowan": 6295,
      "Ġsurround": 6296,
      "Ġaplite": 6297,
      "ĠFerguson": 6298,
      "ĠArgentine": 6299,
      "Assigned": 6300,
      "Ġmoraines": 6301,
      "ĠChipola": 6302,
      "textured": 6303,
      "andesite": 6304,
      "Ġfrequently": 6305,
      "Ġbreak": 6306,
      "ĠBankston": 6307,
      "ĠFremont": 6308,
      "ĠOahu": 6309,
      "ĠAndesite": 6310,
      "Ġpinches": 6311,
      "ĠPredominantly": 6312,
      "ĠOccupies": 6313,
      "ĠForaminifera": 6314,
      "Devonian": 6315,
      "Ġbituminous": 6316,
      "Ġindependent": 6317,
      "ĠPogonip": 6318,
      "ĠWaynesville": 6319,
      "ĠThermopolis": 6320,
      "Ġabrupt": 6321,
      "ĠIndependence": 6322,
      ")].": 6323,
      "42": 6324,
      "72": 6325,
      "?]": 6326,
      "Aub": 6327,
      "AAPG": 6328,
      "Cre": 6329,
      "EP": 6330,
      "IF": 6331,
      "Le": 6332,
      "Mc": 6333,
      "Mer": 6334,
      "San": 6335,
      "Wh": 6336,
      "bs": 6337,
      "bad": 6338,
      "dark": 6339,
      "equivalent": 6340,
      "fork": 6341,
      "her": 6342,
      "lis": 6343,
      "less": 6344,
      "lamin": 6345,
      "mark": 6346,
      "nam": 6347,
      "oo": 6348,
      "py": 6349,
      "plain": 6350,
      "ptions": 6351,
      "pool": 6352,
      "probably": 6353,
      "sil": 6354,
      "song": 6355,
      "sage": 6356,
      "sdam": 6357,
      "tail": 6358,
      "uar": 6359,
      "vit": 6360,
      "Ġelong": 6361,
      "oni": 6362,
      "eret": 6363,
      "third": 6364,
      "ato": 6365,
      "atre": 6366,
      "atian": 6367,
      "oral": 6368,
      "Ġsalt": 6369,
      "andale": 6370,
      "aled": 6371,
      "allow": 6372,
      "Ġfav": 6373,
      "Ġface": 6374,
      "Ġfooth": 6375,
      "ĠCand": 6376,
      "ĠCyclical": 6377,
      "ĠCascade": 6378,
      "Ġinver": 6379,
      "itka": 6380,
      "Ġtens": 6381,
      "ĠMul": 6382,
      "ĠMass": 6383,
      "ĠMills": 6384,
      "ĠMason": 6385,
      "ĠAN": 6386,
      "ĠBain": 6387,
      "ĠBry": 6388,
      "ĠBermont": 6389,
      "rol": 6390,
      "Ġpit": 6391,
      "Ġphy": 6392,
      "leas": 6393,
      "Ġwavy": 6394,
      "ĠTR": 6395,
      "ĠTaft": 6396,
      "Ġiss": 6397,
      "gelow": 6398,
      "Ġnatural": 6399,
      "Ġdin": 6400,
      "Ġdolostone": 6401,
      "ĠPo": 6402,
      "ĠPor": 6403,
      "ĠPick": 6404,
      "ĠPax": 6405,
      "ĠPetro": 6406,
      "ĠPleas": 6407,
      "ila": 6408,
      "ility": 6409,
      "ĠFine": 6410,
      "ĠFirst": 6411,
      "ĠFurn": 6412,
      "ĠFria": 6413,
      "ĠRos": 6414,
      "ĠRita": 6415,
      "eta": 6416,
      "emun": 6417,
      "empt": 6418,
      "enta": 6419,
      "ĠLick": 6420,
      "ĠLud": 6421,
      "ĠLau": 6422,
      "ĠGdbk": 6423,
      "ainerd": 6424,
      "elly": 6425,
      "elle": 6426,
      "elson": 6427,
      "elaun": 6428,
      "ĠNes": 6429,
      "ĠNol": 6430,
      "ĠNow": 6431,
      "urora": 6432,
      "pped": 6433,
      "ĠOre": 6434,
      "ĠOri": 6435,
      "ĠWr": 6436,
      "ĠWom": 6437,
      "ĠWap": 6438,
      "oct": 6439,
      "abi": 6440,
      "ablo": 6441,
      "ĠHor": 6442,
      "ĠHerm": 6443,
      "ĠDivision": 6444,
      "esta": 6445,
      "estreet": 6446,
      "Ġrub": 6447,
      "Ġrailroad": 6448,
      "Ġlast": 6449,
      "chert": 6450,
      "ewett": 6451,
      "imum": 6452,
      "imbr": 6453,
      "formerly": 6454,
      "allero": 6455,
      "aky": 6456,
      "Ġoral": 6457,
      "ango": 6458,
      "Ġlog": 6459,
      "Ġloess": 6460,
      "Ġloose": 6461,
      "ĠKi": 6462,
      "ĠKat": 6463,
      "ĠKim": 6464,
      "ĠKingston": 6465,
      "ĠKaibab": 6466,
      "ĠVer": 6467,
      "consolidated": 6468,
      "ody": 6469,
      "ershe": 6470,
      "anta": 6471,
      "Ġchron": 6472,
      "Ġinclusion": 6473,
      "ĠAlmond": 6474,
      "ĠAlpine": 6475,
      "ĠJud": 6476,
      "ĠAnvil": 6477,
      "ubb": 6478,
      "Ġ72": 6479,
      "ahua": 6480,
      "neb": 6481,
      "Ġthinner": 6482,
      "Ġcores": 6483,
      "ization": 6484,
      "ennington": 6485,
      "Ġsilts": 6486,
      "Ġdescending": 6487,
      "ĠLimestones": 6488,
      "Ġ83": 6489,
      "Ġ89": 6490,
      "Ġapply": 6491,
      "ĠStar": 6492,
      "Ġanhyd": 6493,
      "oundary": 6494,
      "awson": 6495,
      "Ġtopography": 6496,
      "Ġsouthernmost": 6497,
      "Ġdirec": 6498,
      "Ġsubsequent": 6499,
      "ĠReed": 6500,
      "lesnake": 6501,
      "Ġwhereas": 6502,
      "ittany": 6503,
      "Ġformer": 6504,
      "Ġpreoccup": 6505,
      "Ġ2018": 6506,
      "Ġgranit": 6507,
      "ĠAmphibolite": 6508,
      "rawn": 6509,
      "Ġlithofacies": 6510,
      "Ġ96": 6511,
      "Ġ98": 6512,
      "ĠClinch": 6513,
      "ips": 6514,
      "Ġ180": 6515,
      "ĠPeaks": 6516,
      "anning": 6517,
      "Ġdesignation": 6518,
      "Ġ114": 6519,
      "attlesnake": 6520,
      "Ġ1931": 6521,
      "ĠAdd": 6522,
      "ĠMescal": 6523,
      "ĠMesabi": 6524,
      "Ġgraded": 6525,
      "Ġ135": 6526,
      "Ġ1971": 6527,
      "Ġweather": 6528,
      "ofore": 6529,
      "Ġhighest": 6530,
      "Ġfolding": 6531,
      "Ġ1980": 6532,
      "Ġ1982": 6533,
      "ptian": 6534,
      "etty": 6535,
      "ĠWild": 6536,
      "ĠAscut": 6537,
      "Ant": 6538,
      "Antelope": 6539,
      "Ġresembl": 6540,
      "ĠWashita": 6541,
      "Ġgravelly": 6542,
      "Ġabundance": 6543,
      "ĠCraw": 6544,
      "Ġevap": 6545,
      "Ġintrusives": 6546,
      "Ġ1951": 6547,
      "Ġ1952": 6548,
      "Ġ1953": 6549,
      "ĠAlbuquerque": 6550,
      "ĠGrey": 6551,
      "ĠSnaky": 6552,
      "Ġrepresenting": 6553,
      "ĠCane": 6554,
      "Ġgives": 6555,
      "1937": 6556,
      "Ġdivisions": 6557,
      "ĠBattleship": 6558,
      "ĠSchne": 6559,
      "ĠClarke": 6560,
      "ĠBrownwood": 6561,
      "Adm": 6562,
      "Ġsubr": 6563,
      "ĠWells": 6564,
      "ĠBakken": 6565,
      "ĠMcCoy": 6566,
      "ĠPride": 6567,
      "ĠSpenc": 6568,
      "Ġdensely": 6569,
      "Ġmargins": 6570,
      "Ġmean": 6571,
      "ĠMiller": 6572,
      "ĠWisconsinan": 6573,
      "Ġdownward": 6574,
      "ĠLarge": 6575,
      "ĠBentonite": 6576,
      "ĠHayes": 6577,
      "Ġdescriptions": 6578,
      "Ġglauconite": 6579,
      "ĠSyenite": 6580,
      "ĠSystem": 6581,
      "Ġintrude": 6582,
      "Ġlignitic": 6583,
      "Ġdiscussion": 6584,
      "Ġoverlapped": 6585,
      "ĠCaballero": 6586,
      "ĠSubdivided": 6587,
      "ĠVanport": 6588,
      "ĠPedro": 6589,
      "Blake": 6590,
      "ĠReservation": 6591,
      "ĠCastlegate": 6592,
      "ĠBarnwell": 6593,
      "Ġmicrocline": 6594,
      "ĠAcme": 6595,
      "Ġmagnetic": 6596,
      "Ġmagnetite": 6597,
      "Ġcharacteristics": 6598,
      "based": 6599,
      "correl": 6600,
      "ĠCliffs": 6601,
      "ĠPinos": 6602,
      "ĠGoose": 6603,
      "ĠEstill": 6604,
      "ĠEstimated": 6605,
      "Ġforaminifer": 6606,
      "Ġincreas": 6607,
      "ĠAleinikoff": 6608,
      "ĠCharles": 6609,
      "Ġattempt": 6610,
      "ĠHemphillian": 6611,
      "ardeau": 6612,
      "Ġcorresponds": 6613,
      "Ġrelationships": 6614,
      "ĠEmp": 6615,
      "ĠProvincial": 6616,
      "Ġvarieties": 6617,
      "Ġpropose": 6618,
      "Ġagglomerate": 6619,
      "Paleozoic": 6620,
      "ĠBissell": 6621,
      "ĠOntelaun": 6622,
      "Ġfiner": 6623,
      "Ġpetrographic": 6624,
      "ĠHawthorn": 6625,
      "ĠHawthorne": 6626,
      "ODUS": 6627,
      "ĠTeton": 6628,
      "Ġradiometric": 6629,
      "Ġcounty": 6630,
      "ĠBabylon": 6631,
      "ĠFlood": 6632,
      "ĠHyde": 6633,
      "Ġkaolin": 6634,
      "Ġhematite": 6635,
      "hedral": 6636,
      "Geographically": 6637,
      "Recognized": 6638,
      "ĠBuffalo": 6639,
      "ĠWanakah": 6640,
      "ĠHarpers": 6641,
      "ĠConejos": 6642,
      "Extended": 6643,
      "Silurian": 6644,
      "Ġbioherm": 6645,
      "Ġinterpretation": 6646,
      "Campanian": 6647,
      "Notable": 6648,
      "purple": 6649,
      "vasse": 6650,
      "Ġrecommended": 6651,
      "Ġbrackish": 6652,
      "Illinoian": 6653,
      "Ġeverywhere": 6654,
      "phitheatre": 6655,
      "covered": 6656,
      "Ġmethods": 6657,
      "aumont": 6658,
      "ĠVaqueros": 6659,
      "Ġconsolidated": 6660,
      "Ġsubordinate": 6661,
      "ĠClaiborne": 6662,
      "ĠGlasford": 6663,
      "Ġadjoining": 6664,
      "ĠRhinestreet": 6665,
      "Cretaceous": 6666,
      "eretofore": 6667,
      "Ġfavor": 6668,
      "Ġfoothills": 6669,
      "emung": 6670,
      "ershey": 6671,
      "ĠJudith": 6672,
      "ĠAscutney": 6673,
      "ĠOntelaunee": 6674,
      "125": 6675,
      "44": 6676,
      "47": 6677,
      "900": 6678,
      "?)": 6679,
      "Aqu": 6680,
      "Aust": 6681,
      "Blaine": 6682,
      "Cl": 6683,
      "EC": 6684,
      "Long": 6685,
      "LEN": 6686,
      "OSA": 6687,
      "RIS": 6688,
      "STR": 6689,
      "Tr": 6690,
      "Tertiary": 6691,
      "TELLA": 6692,
      "bic": 6693,
      "bec": 6694,
      "ball": 6695,
      "bach": 6696,
      "cemented": 6697,
      "equ": 6698,
      "ether": 6699,
      "fl": 6700,
      "fill": 6701,
      "fels": 6702,
      "hive": 6703,
      "map": 6704,
      "ograph": 6705,
      "pen": 6706,
      "pet": 6707,
      "su": 6708,
      "uce": 6709,
      "welded": 6710,
      "xi": 6711,
      "ya": 6712,
      "Ġ/": 6713,
      "onte": 6714,
      "ancan": 6715,
      "anhandle": 6716,
      "Ġoolite": 6717,
      "edes": 6718,
      "eded": 6719,
      "aters": 6720,
      "atte": 6721,
      "Ġsense": 6722,
      "andard": 6723,
      "alized": 6724,
      "alup": 6725,
      "Ġfluviatile": 6726,
      "enz": 6727,
      "ĠCC": 6728,
      "ĠCR": 6729,
      "ĠCT": 6730,
      "Ġbones": 6731,
      "itz": 6732,
      "itude": 6733,
      "Ġca": 6734,
      "Ġcent": 6735,
      "Ġcaus": 6736,
      "Ġcaps": 6737,
      "Ġmel": 6738,
      "Ġmight": 6739,
      "ĠMore": 6740,
      "ĠMedium": 6741,
      "ĠAT": 6742,
      "ĠAaron": 6743,
      "ĠAurora": 6744,
      "ĠBu": 6745,
      "ĠBarb": 6746,
      "ĠBevier": 6747,
      "ĠBelden": 6748,
      "ĠBattery": 6749,
      "ropped": 6750,
      "Ġplu": 6751,
      "Ġpanhandle": 6752,
      "ĠSew": 6753,
      "ĠSus": 6754,
      "ĠSmall": 6755,
      "ĠSunn": 6756,
      "ĠSTR": 6757,
      "ĠSource": 6758,
      "ĠTacon": 6759,
      "Ġnature": 6760,
      "Ġdome": 6761,
      "Ġdrawn": 6762,
      "ĠPers": 6763,
      "ĠPric": 6764,
      "ĠPitt": 6765,
      "ĠPra": 6766,
      "ĠPaint": 6767,
      "action": 6768,
      "aconglomerate": 6769,
      "ĠFont": 6770,
      "ĠRap": 6771,
      "ĠRico": 6772,
      "ĠRattlesnake": 6773,
      "amph": 6774,
      "etstone": 6775,
      "emic": 6776,
      "ĠLater": 6777,
      "ĠGen": 6778,
      "ĠGir": 6779,
      "ĠGorge": 6780,
      "ĠGalla": 6781,
      "elaria": 6782,
      "ayne": 6783,
      "ayette": 6784,
      "ĠNP": 6785,
      "ĠNon": 6786,
      "ĠNod": 6787,
      "ĠNelson": 6788,
      "ĠNittany": 6789,
      "oles": 6790,
      "Ġlim": 6791,
      "Ġconfined": 6792,
      "adotte": 6793,
      "adalup": 6794,
      "Ġarenite": 6795,
      "ĠOl": 6796,
      "ĠOtero": 6797,
      "ĠWar": 6798,
      "ĠWald": 6799,
      "ĠWagon": 6800,
      "above": 6801,
      "ousand": 6802,
      "ĠHot": 6803,
      "ĠHens": 6804,
      "ĠDor": 6805,
      "ĠDie": 6806,
      "ĠDetailed": 6807,
      "ĠThor": 6808,
      "ĠThus": 6809,
      "ĠThrift": 6810,
      "estig": 6811,
      "essa": 6812,
      "ewater": 6813,
      "Ġquarter": 6814,
      "Ġpartially": 6815,
      "Ġbearing": 6816,
      "trib": 6817,
      "trama": 6818,
      "Ġwhether": 6819,
      "inez": 6820,
      "uma": 6821,
      "Ġexact": 6822,
      "Ġextrusive": 6823,
      "aking": 6824,
      "Ġdepression": 6825,
      "Ġvent": 6826,
      "usk": 6827,
      "ives": 6828,
      "ĠInlet": 6829,
      "cludes": 6830,
      "ĠKen": 6831,
      "ĠKoot": 6832,
      "unpub": 6833,
      "units": 6834,
      "ĠVi": 6835,
      "odal": 6836,
      "odemic": 6837,
      "Ġalkal": 6838,
      "Ġlocation": 6839,
      "ante": 6840,
      "toya": 6841,
      "ĠGroups": 6842,
      "bright": 6843,
      "ĠAld": 6844,
      "ĠAlsea": 6845,
      "ĠJim": 6846,
      "ĠJose": 6847,
      "Ġ56": 6848,
      "ĠChemung": 6849,
      "aging": 6850,
      "ermeja": 6851,
      "ignell": 6852,
      "ĠAng": 6853,
      "ĠAncell": 6854,
      "ĠAntero": 6855,
      "Ġinterglacial": 6856,
      "Ġnotably": 6857,
      "pheline": 6858,
      "ferro": 6859,
      "Ġprof": 6860,
      "Ġproper": 6861,
      "strom": 6862,
      "stow": 6863,
      "graywacke": 6864,
      "ĠShales": 6865,
      "Ġ69": 6866,
      "ĠArlington": 6867,
      "Ġ84": 6868,
      "ĠOrr": 6869,
      "ockum": 6870,
      "ĠMapper": 6871,
      "Ġthicknesses": 6872,
      "Ġ108": 6873,
      "ĠSandia": 6874,
      "redescribed": 6875,
      "ĠRepres": 6876,
      "Ġgeology": 6877,
      "develop": 6878,
      "ĠBlackstone": 6879,
      "ĠBigford": 6880,
      "Ġdegrees": 6881,
      "Ġ2011": 6882,
      "Ġgranule": 6883,
      "ensburg": 6884,
      "Ġlithodemic": 6885,
      "(?),": 6886,
      "plagioclase": 6887,
      "ĠWhit": 6888,
      "ĠWhetstone": 6889,
      "clay": 6890,
      "Ġ118": 6891,
      "ĠAtascadero": 6892,
      "Ġcherts": 6893,
      "Ġseparates": 6894,
      "Arch": 6895,
      "attle": 6896,
      "Ġ1934": 6897,
      "ĠBarre": 6898,
      "undant": 6899,
      "Ġyoung": 6900,
      "isionally": 6901,
      "entonite": 6902,
      "Ġspor": 6903,
      "Ġ1981": 6904,
      "Ġ1988": 6905,
      "ĠSantee": 6906,
      "Ġbelts": 6907,
      "Ġcoll": 6908,
      "ĠPoints": 6909,
      "Ġrelative": 6910,
      "1961": 6911,
      "1964": 6912,
      "ĠSouthwestern": 6913,
      "And": 6914,
      "obe": 6915,
      "ĠMontoya": 6916,
      "ĠCrater": 6917,
      "ochron": 6918,
      "Ġconsistent": 6919,
      "ĠAlbemarle": 6920,
      "ĠZar": 6921,
      "Ġaccum": 6922,
      "Ġnonfossiliferous": 6923,
      "1970": 6924,
      "1971": 6925,
      "1972": 6926,
      "Ġdistinctly": 6927,
      "1982": 6928,
      "Ġ330": 6929,
      "1939": 6930,
      "alker": 6931,
      "ĠCorrelated": 6932,
      "ĠCorrelative": 6933,
      "1954": 6934,
      "1958": 6935,
      "unnel": 6936,
      "ĠAnna": 6937,
      "ĠAnnandale": 6938,
      "Ġuseful": 6939,
      "ĠDrake": 6940,
      "ĠDrakes": 6941,
      "ĠBaum": 6942,
      "ĠSalina": 6943,
      "Beaver": 6944,
      "ĠSwartz": 6945,
      "ĠWeathers": 6946,
      "Adopted": 6947,
      "GNATH": 6948,
      "ĠClayton": 6949,
      "ĠSierrite": 6950,
      "gnostic": 6951,
      "Ġearth": 6952,
      "Ġ1949": 6953,
      "ĠManz": 6954,
      "ĠAmerica": 6955,
      "Ġpyritic": 6956,
      "Ġdrab": 6957,
      "Univ": 6958,
      "ĠPotsdam": 6959,
      "azewell": 6960,
      "Ġaveraging": 6961,
      "ĠSpoon": 6962,
      "ĠInterpreted": 6963,
      "yside": 6964,
      "ĠFlats": 6965,
      "ĠMostly": 6966,
      "ĠPhosph": 6967,
      "ĠPhyllite": 6968,
      "Ġ1909": 6969,
      "1902": 6970,
      "Ġmega": 6971,
      "ĠMillard": 6972,
      "Ġexception": 6973,
      "ĠParish": 6974,
      "ĠDrive": 6975,
      "Ġfigure": 6976,
      "ĠCats": 6977,
      "Ġmaterials": 6978,
      "ĠMeramec": 6979,
      "ĠMeridian": 6980,
      "ollen": 6981,
      "askan": 6982,
      "iterock": 6983,
      "yanow": 6984,
      "Ġunpublished": 6985,
      "ĠMartins": 6986,
      "Ġsharply": 6987,
      "ĠMohave": 6988,
      "arrier": 6989,
      "ĠBillings": 6990,
      "Ġshelly": 6991,
      "Ġstocks": 6992,
      "ĠYellowstone": 6993,
      "Ġoccupy": 6994,
      "aliaferro": 6995,
      "Ġevenly": 6996,
      "Ġcrinoids": 6997,
      "Ġcrinoidal": 6998,
      "ĠPanther": 6999,
      "ĠPanoche": 7000,
      "laid": 7001,
      "Ġfelsite": 7002,
      "Ġlikely": 7003,
      "Ġdistributed": 7004,
      "Ġoccasionally": 7005,
      "Ġattains": 7006,
      "cellent": 7007,
      "ĠAreal": 7008,
      "Albany": 7009,
      "Report": 7010,
      "rupted": 7011,
      "ĠLykins": 7012,
      "ĠHoness": 7013,
      "Ġproduct": 7014,
      "OPL": 7015,
      "Ġcorehole": 7016,
      "Ġelevation": 7017,
      "awha": 7018,
      "ĠYoung": 7019,
      "ĠYounger": 7020,
      "Ġammonite": 7021,
      "ĠEllensburg": 7022,
      "Ġmagnesian": 7023,
      "Ġmagnesium": 7024,
      "ĠBakerstown": 7025,
      "ĠAdmiral": 7026,
      "Ġintrusions": 7027,
      "ĠPumice": 7028,
      "ĠPumpkin": 7029,
      "Ġflaggy": 7030,
      "ĠClear": 7031,
      "ĠAbbott": 7032,
      "ĠFrancis": 7033,
      "ĠMorrison": 7034,
      "Ġglassy": 7035,
      "Ġroadcuts": 7036,
      "ĠAndrews": 7037,
      "Ġanalyses": 7038,
      "Ġanalysis": 7039,
      "ĠDutch": 7040,
      "ĠNeedles": 7041,
      "ĠLodgepole": 7042,
      "Ġcream": 7043,
      "Ġcontrast": 7044,
      "Ġdisconformity": 7045,
      "Ġpegmatite": 7046,
      "Agua": 7047,
      "ĠACME": 7048,
      "Ġprogressively": 7049,
      "Ġpelecypods": 7050,
      "allup": 7051,
      "Ġdivisible": 7052,
      "Ġsignificant": 7053,
      "Ġarbitrarily": 7054,
      "ogee": 7055,
      "Ġsummit": 7056,
      "Ġsphene": 7057,
      "ĠAllegheny": 7058,
      "ĠCharacterized": 7059,
      "Ġtruncated": 7060,
      "Ġweakly": 7061,
      "ĠSaba": 7062,
      "ĠStoyanow": 7063,
      "ĠSavann": 7064,
      "Ġwindow": 7065,
      "Ġgraphitic": 7066,
      "Ġfeatures": 7067,
      "Ġcalcarenite": 7068,
      "According": 7069,
      "ĠMurphy": 7070,
      "ĠHunter": 7071,
      "ĠKanawha": 7072,
      "ĠBlanca": 7073,
      "ĠStephens": 7074,
      "Wisconsinan": 7075,
      "ĠPutnam": 7076,
      "Ġclassed": 7077,
      "Ġamygdal": 7078,
      "ĠBellefonte": 7079,
      "Ġsurrounding": 7080,
      "ĠBainbridge": 7081,
      "Ġpreoccupied": 7082,
      "ĠCrawford": 7083,
      "ĠGreyson": 7084,
      "ĠSpencer": 7085,
      "Ġforaminiferal": 7086,
      "ĠSunnyside": 7087,
      "ĠTaconic": 7088,
      "ĠPrice": 7089,
      "amphlet": 7090,
      "ĠGallagher": 7091,
      "ĠDiego": 7092,
      "ĠThrifty": 7093,
      "ĠKootenai": 7094,
      "developed": 7095,
      "\",": 7096,
      "//": 7097,
      "46": 7098,
      "62": 7099,
      "67": 7100,
      "78": 7101,
      "99": 7102,
      "://": 7103,
      "AG": 7104,
      "Alum": 7105,
      "ACSN": 7106,
      "Afton": 7107,
      "Blo": 7108,
      "Car": 7109,
      "CUL": 7110,
      "EPH": 7111,
      "Fr": 7112,
      "IOR": 7113,
      "Kansas": 7114,
      "OB": 7115,
      "Occurs": 7116,
      "Pre": 7117,
      "QU": 7118,
      "Smith": 7119,
      "West": 7120,
      "aut": 7121,
      "ban": 7122,
      "blo": 7123,
      "bay": 7124,
      "bine": 7125,
      "breccia": 7126,
      "buckle": 7127,
      "cott": 7128,
      "dden": 7129,
      "fossil": 7130,
      "falia": 7131,
      "feldspar": 7132,
      "gg": 7133,
      "ilo": 7134,
      "iqu": 7135,
      "ioch": 7136,
      "ilob": 7137,
      "irie": 7138,
      "jected": 7139,
      "kshire": 7140,
      "lan": 7141,
      "lton": 7142,
      "mi": 7143,
      "ms": 7144,
      "mile": 7145,
      "ny": 7146,
      "near": 7147,
      "nicon": 7148,
      "note": 7149,
      "ps": 7150,
      "pers": 7151,
      "rick": 7152,
      "rounded": 7153,
      "ses": 7154,
      "sch": 7155,
      "ty": 7156,
      "uger": 7157,
      "ws": 7158,
      "yroxene": 7159,
      "zz": 7160,
      "Ġice": 7161,
      "incon": 7162,
      "into": 7163,
      "thm": 7164,
      "this": 7165,
      "esa": 7166,
      "esville": 7167,
      "Ġou": 7168,
      "ede": 7169,
      "attern": 7170,
      "atoga": 7171,
      "oration": 7172,
      "aro": 7173,
      "Ġss": 7174,
      "Ġsqu": 7175,
      "Ġsill": 7176,
      "Ġsuc": 7177,
      "alina": 7178,
      "alante": 7179,
      "isian": 7180,
      "Ġfaint": 7181,
      "ening": 7182,
      "enson": 7183,
      "enburg": 7184,
      "asco": 7185,
      "asnian": 7186,
      "ĠCay": 7187,
      "ĠCuster": 7188,
      "Ġbau": 7189,
      "itas": 7190,
      "Ġcapped": 7191,
      "Ġcement": 7192,
      "Ġms": 7193,
      "Ġmarly": 7194,
      "Ġmatter": 7195,
      "Ġtw": 7196,
      "ĠMol": 7197,
      "ĠMack": 7198,
      "ĠMiser": 7199,
      "reous": 7200,
      "lile": 7201,
      "lius": 7202,
      "lime": 7203,
      "ĠBug": 7204,
      "ĠBlock": 7205,
      "ĠBoundary": 7206,
      "ĠBermeja": 7207,
      "tonian": 7208,
      "Ġpersonal": 7209,
      "lect": 7210,
      "ĠSen": 7211,
      "ĠSite": 7212,
      "ĠSim": 7213,
      "ĠSul": 7214,
      "ĠSaw": 7215,
      "Ġax": 7216,
      "ĠTab": 7217,
      "ĠTod": 7218,
      "ĠTentatively": 7219,
      "ĠTaliaferro": 7220,
      "Ġisochron": 7221,
      "Ġ119": 7222,
      "Ġdel": 7223,
      "Ġdominated": 7224,
      "osy": 7225,
      "Ġul": 7226,
      "ĠPg": 7227,
      "ĠPic": 7228,
      "ĠPend": 7229,
      "ĠPross": 7230,
      "ĠPied": 7231,
      "ĠPue": 7232,
      "ĠPrich": 7233,
      "ĠPlum": 7234,
      "aca": 7235,
      "ĠFle": 7236,
      "ĠFern": 7237,
      "ĠFive": 7238,
      "ĠFeldspar": 7239,
      "ĠFauna": 7240,
      "ĠRel": 7241,
      "ĠRick": 7242,
      "ĠRow": 7243,
      "ĠRans": 7244,
      "ĠRincon": 7245,
      "amon": 7246,
      "aman": 7247,
      "gression": 7248,
      "ĠLen": 7249,
      "ĠLam": 7250,
      "ĠLime": 7251,
      "ĠLedge": 7252,
      "ĠGal": 7253,
      "ĠGas": 7254,
      "ĠGenev": 7255,
      "ĠGetty": 7256,
      "ider": 7257,
      "idic": 7258,
      "idote": 7259,
      "ela": 7260,
      "ĠNem": 7261,
      "ĠNov": 7262,
      "ĠNana": 7263,
      "urent": 7264,
      "Ġunconsolidated": 7265,
      "olph": 7266,
      "Ġlimon": 7267,
      "ĠIf": 7268,
      "ĠIola": 7269,
      "ĠOw": 7270,
      "ĠOat": 7271,
      "ĠWill": 7272,
      "ĠWalker": 7273,
      "abee": 7274,
      "ĠUs": 7275,
      "ĠUdden": 7276,
      "ĠHist": 7277,
      "ĠHaz": 7278,
      "ĠHershey": 7279,
      "ĠDar": 7280,
      "ĠData": 7281,
      "ĠDawson": 7282,
      "ĠDockum": 7283,
      "ĠEvan": 7284,
      "ĠEden": 7285,
      "ĠEwen": 7286,
      "estown": 7287,
      "otype": 7288,
      "Ġrug": 7289,
      "Ġla": 7290,
      "Ġhyp": 7291,
      "Ġhence": 7292,
      "owi": 7293,
      "ĠCobb": 7294,
      "posures": 7295,
      "esser": 7296,
      "ution": 7297,
      "astrichtian": 7298,
      "Ġthickest": 7299,
      "imsby": 7300,
      "imedes": 7301,
      "trilob": 7302,
      "ulation": 7303,
      "ulite": 7304,
      "illery": 7305,
      "ĠGrouse": 7306,
      "ĠGrimsby": 7307,
      "Ġoverthr": 7308,
      "alles": 7309,
      "Ġ1915": 7310,
      "Ġ1913": 7311,
      "Ġ1912": 7312,
      "Ġexcellent": 7313,
      "ries": 7314,
      "riate": 7315,
      "ffat": 7316,
      "Ġgive": 7317,
      "Ġdevit": 7318,
      "angle": 7319,
      "ĠKin": 7320,
      "ĠValles": 7321,
      "oda": 7322,
      "Ġchap": 7323,
      "ĠRiep": 7324,
      "Ġconstr": 7325,
      "ĠConnec": 7326,
      "brachiop": 7327,
      "iawa": 7328,
      "ĠAlthough": 7329,
      "ĠJune": 7330,
      "ĠJewett": 7331,
      "ĠChi": 7332,
      "agunt": 7333,
      "ignated": 7334,
      "ignment": 7335,
      "Ġcoords": 7336,
      "lomerates": 7337,
      "ĠAnc": 7338,
      "Ġintertongue": 7339,
      "Ġcompr": 7340,
      "Ġ78": 7341,
      "Ġ750": 7342,
      "ahala": 7343,
      "avine": 7344,
      "ĠSharon": 7345,
      "opyroxene": 7346,
      "Ġ64": 7347,
      "Ġ66": 7348,
      "ogan": 7349,
      "ogback": 7350,
      "izes": 7351,
      "olcano": 7352,
      "Ġ81": 7353,
      "ĠStill": 7354,
      "ĠStock": 7355,
      "ĠStreet": 7356,
      "ĠStandard": 7357,
      "ĠOrisk": 7358,
      "shaw": 7359,
      "Ġminimum": 7360,
      "ĠGeology": 7361,
      "ounds": 7362,
      "awatz": 7363,
      "ropriate": 7364,
      "redefined": 7365,
      "Ġdiverse": 7366,
      "alciferous": 7367,
      "auk": 7368,
      "arbidge": 7369,
      "Ġplanes": 7370,
      "ĠQuinn": 7371,
      "issie": 7372,
      "ĠRockland": 7373,
      "Ġupland": 7374,
      "ension": 7375,
      "Ġ93": 7376,
      "Ġ94": 7377,
      "ĠProc": 7378,
      "ĠClarend": 7379,
      "pler": 7380,
      "ĠComanche": 7381,
      "ĠBright": 7382,
      "ĠBrainerd": 7383,
      "Ġ04": 7384,
      "Ġ05": 7385,
      "Ġ06": 7386,
      "ources": 7387,
      "annon": 7388,
      "annel": 7389,
      "ĠAtlas": 7390,
      "Arn": 7391,
      "ĠAdam": 7392,
      "ĠMoench": 7393,
      "ĠMoffat": 7394,
      "Ġphyll": 7395,
      "ĠMarcellus": 7396,
      "Ġregionally": 7397,
      "iki": 7398,
      "ĠMcG": 7399,
      "Ġnortheastward": 7400,
      "ĠBayou": 7401,
      "Ġvaricolored": 7402,
      "ĠIts": 7403,
      "Ġreferences": 7404,
      "Ġprovincial": 7405,
      "olian": 7406,
      "ettle": 7407,
      "ĠTrav": 7408,
      "ĠTrans": 7409,
      "alda": 7410,
      "ĠTuffs": 7411,
      "1966": 7412,
      "Ġshowed": 7413,
      "ĠButler": 7414,
      "ĠTribes": 7415,
      "Ġbridge": 7416,
      "Ġscar": 7417,
      "Ġstudied": 7418,
      "ways": 7419,
      "ĠMora": 7420,
      "ĠCrab": 7421,
      "eldspathic": 7422,
      "ĠGlass": 7423,
      "ĠGlenn": 7424,
      "ĠGlens": 7425,
      "Ġjoint": 7426,
      "ĠZeller": 7427,
      "ĠDefined": 7428,
      "ycle": 7429,
      "Ġflanks": 7430,
      "ĠLeban": 7431,
      "Ġcryp": 7432,
      "1973": 7433,
      "1979": 7434,
      "Ġidentif": 7435,
      "1980": 7436,
      "1984": 7437,
      "Ġ270": 7438,
      "ĠAppears": 7439,
      "osaur": 7440,
      "Ġclassif": 7441,
      "oclastic": 7442,
      "1931": 7443,
      "1953": 7444,
      "ĠAlls": 7445,
      "meralda": 7446,
      "ĠPlata": 7447,
      "ĠPlatte": 7448,
      "ĠAlamos": 7449,
      "ĠAlta": 7450,
      "Beech": 7451,
      "ĠBerwick": 7452,
      "ĠBeck": 7453,
      "ĠSwamp": 7454,
      "ĠAntlers": 7455,
      "GNU": 7456,
      "Ġsuite": 7457,
      "Ġ1940": 7458,
      "Ġ1941": 7459,
      "leveland": 7460,
      "ĠWoodbine": 7461,
      "ĠSeely": 7462,
      "ĠRestricted": 7463,
      "Ġfoliation": 7464,
      "ĠPenasco": 7465,
      "Ġstreak": 7466,
      "Ġdifferentiated": 7467,
      "ĠBellingham": 7468,
      "1904": 7469,
      "ification": 7470,
      "Ġimproper": 7471,
      "ĠAguada": 7472,
      "ĠBrooks": 7473,
      "ĠStratigraphically": 7474,
      "ĠLander": 7475,
      "ĠStrata": 7476,
      "ĠCatalina": 7477,
      "Ġrhythm": 7478,
      "Ġterrace": 7479,
      "ĠWindy": 7480,
      "ompton": 7481,
      "Ġextensively": 7482,
      "aski": 7483,
      "ĠAmmonia": 7484,
      "ĠMuddy": 7485,
      "Ġvitreous": 7486,
      "ĠBirdsong": 7487,
      "ĠSkull": 7488,
      "northern": 7489,
      "northwest": 7490,
      "olarian": 7491,
      "Ġgreatly": 7492,
      "ĠDiablo": 7493,
      "Bliss": 7494,
      "ĠBentley": 7495,
      "ĠCastleton": 7496,
      "ĠLawson": 7497,
      "Ġcompletely": 7498,
      "ĠBigelow": 7499,
      "ĠSeco": 7500,
      "ĠSecret": 7501,
      "ĠTorres": 7502,
      "Ġclear": 7503,
      "Ġphosphate": 7504,
      "ĠKnoxville": 7505,
      "Ordovician": 7506,
      "ĠAvant": 7507,
      "ĠAvawatz": 7508,
      "ĠBoone": 7509,
      "Ġdepths": 7510,
      "afford": 7511,
      "ticut": 7512,
      "ĠTomb": 7513,
      "ĠWilliamsburg": 7514,
      "ĠAxe": 7515,
      "ĠHemlock": 7516,
      "Ġexclude": 7517,
      "ĠCondor": 7518,
      "Ġmountain": 7519,
      "ocheague": 7520,
      "unkey": 7521,
      "Ġerupted": 7522,
      "ĠEscalante": 7523,
      "Ġdiffers": 7524,
      "Ġammonites": 7525,
      "Ġcurrently": 7526,
      "ĠWalnut": 7527,
      "ĠEllen": 7528,
      "Shown": 7529,
      "ĠFayett": 7530,
      "Ġsubstitut": 7531,
      "Ġremainder": 7532,
      "Ġflags": 7533,
      "uxy": 7534,
      "ĠLucia": 7535,
      "Ġconcentr": 7536,
      "Ġpropor": 7537,
      "ĠFrancisco": 7538,
      "Wolfcampian": 7539,
      "Gulfian": 7540,
      "ĠChadron": 7541,
      "Ġdistinguishable": 7542,
      "Ġoxide": 7543,
      "Ġoffshore": 7544,
      "Ġinvestig": 7545,
      "ĠPercha": 7546,
      "ĠWinneb": 7547,
      "Ġpractice": 7548,
      "Subgroup": 7549,
      "ĠAberdeen": 7550,
      "ĠMcKinney": 7551,
      "stovian": 7552,
      "Ġbegins": 7553,
      "OCERAS": 7554,
      "ĠArnoldsburg": 7555,
      "Virgil": 7556,
      "ĠPamunkey": 7557,
      "ectonic": 7558,
      "ĠWinslow": 7559,
      "Ġrapidly": 7560,
      "ĠSharps": 7561,
      "Ġdisappears": 7562,
      "Ġanticlinorium": 7563,
      "Ġemploying": 7564,
      "Ġburrow": 7565,
      "ĠLisburne": 7566,
      "Ġhomogeneous": 7567,
      "Ġexpanded": 7568,
      "Ġfragmental": 7569,
      "Rocks": 7570,
      "ĠCallaway": 7571,
      "ĠCostilla": 7572,
      "Ġpriority": 7573,
      "ĠSaratoga": 7574,
      "ĠPulaski": 7575,
      "ĠIgneous": 7576,
      "Ġvesicular": 7577,
      "ĠAdirondack": 7578,
      "ĠLafayette": 7579,
      "ĠMuskogee": 7580,
      "Ġnecessary": 7581,
      "laminated": 7582,
      "Ġelongate": 7583,
      "ĠLaurel": 7584,
      "ĠNolan": 7585,
      "ĠOrienta": 7586,
      "ĠWomble": 7587,
      "Ġanhydrite": 7588,
      "ĠReedsville": 7589,
      "Ġresembling": 7590,
      "ĠSchnebly": 7591,
      "Ġincreasing": 7592,
      "Austin": 7593,
      "ĠPrairie": 7594,
      "tramafic": 7595,
      "OPLITES": 7596,
      "ĠFranciscan": 7597,
      "Ġsucce": 7598,
      "Ġbaux": 7599,
      "ĠTablas": 7600,
      "ĠProsser": 7601,
      "ĠPueblo": 7602,
      "ĠPrichard": 7603,
      "ĠRansome": 7604,
      "ĠNanafalia": 7605,
      "Ġdevitrified": 7606,
      "ĠConnecticut": 7607,
      "ĠOriskany": 7608,
      "ĠLebanon": 7609,
      "ĠWinnebago": 7610,
      "+.": 7611,
      "110": 7612,
      "37": 7613,
      "48": 7614,
      "57": 7615,
      "64": 7616,
      "69": 7617,
      "76": 7618,
      "AM": 7619,
      "AT": 7620,
      "Aptian": 7621,
      "Br": 7622,
      "Bern": 7623,
      "Baltimore": 7624,
      "Bachelor": 7625,
      "Crystal": 7626,
      "ED": 7627,
      "Eocene": 7628,
      "Fort": 7629,
      "Flower": 7630,
      "Kinderhookian": 7631,
      "KOLITH": 7632,
      "Lake": 7633,
      "Mar": 7634,
      "OMA": 7635,
      "Osage": 7636,
      "OGNATH": 7637,
      "PI": 7638,
      "SE": 7639,
      "TER": 7640,
      "YA": 7641,
      "YS": 7642,
      "ael": 7643,
      "bates": 7644,
      "dry": 7645,
      "eart": 7646,
      "face": 7647,
      "father": 7648,
      "good": 7649,
      "garita": 7650,
      "hers": 7651,
      "hib": 7652,
      "iu": 7653,
      "iate": 7654,
      "iable": 7655,
      "jack": 7656,
      "jiki": 7657,
      "lab": 7658,
      "law": 7659,
      "mal": 7660,
      "mica": 7661,
      "oqu": 7662,
      "rit": 7663,
      "rillo": 7664,
      "spect": 7665,
      "tburg": 7666,
      "tire": 7667,
      "tidal": 7668,
      "ucc": 7669,
      "urop": 7670,
      "xar": 7671,
      "yer": 7672,
      "yard": 7673,
      "zas": 7674,
      "zodiorite": 7675,
      "Ġ<": 7676,
      "onald": 7677,
      "onnell": 7678,
      "anton": 7679,
      "anville": 7680,
      "eron": 7681,
      "thor": 7682,
      "thite": 7683,
      "thers": 7684,
      "edo": 7685,
      "edee": 7686,
      "atitic": 7687,
      "atoch": 7688,
      "ori": 7689,
      "orrel": 7690,
      "arron": 7691,
      "argon": 7692,
      "Ġsite": 7693,
      "Ġsitu": 7694,
      "alus": 7695,
      "Ġfall": 7696,
      "ened": 7697,
      "asin": 7698,
      "asure": 7699,
      "Ġthousand": 7700,
      "oul": 7701,
      "ĠCH": 7702,
      "ĠClu": 7703,
      "ĠCentral": 7704,
      "ĠCib": 7705,
      "ĠCaj": 7706,
      "ĠCeja": 7707,
      "ĠCleveland": 7708,
      "Ġbro": 7709,
      "Ġbone": 7710,
      "Ġbdry": 7711,
      "icial": 7712,
      "icahua": 7713,
      "Ġinstead": 7714,
      "itive": 7715,
      "Ġcf": 7716,
      "Ġmed": 7717,
      "Ġmaking": 7718,
      "Ġtee": 7719,
      "Ġtills": 7720,
      "Ġturn": 7721,
      "Ġtempor": 7722,
      "ĠMang": 7723,
      "ĠMamm": 7724,
      "ream": 7725,
      "lip": 7726,
      "ĠAz": 7727,
      "ĠBiotite": 7728,
      "ĠBoulder": 7729,
      "ĠBook": 7730,
      "ĠBauers": 7731,
      "lym": 7732,
      "roos": 7733,
      "roll": 7734,
      "Ġpatch": 7735,
      "Ġpits": 7736,
      "Ġpattern": 7737,
      "loan": 7738,
      "lott": 7739,
      "lear": 7740,
      "ĠSame": 7741,
      "ĠSpr": 7742,
      "ĠScan": 7743,
      "ĠSuggest": 7744,
      "ĠSeven": 7745,
      "ĠSloan": 7746,
      "Ġaccur": 7747,
      "Ġtoo": 7748,
      "Ġwedge": 7749,
      "Ġwarr": 7750,
      "ĠTon": 7751,
      "ĠTol": 7752,
      "ĠTest": 7753,
      "ĠTorn": 7754,
      "ĠTicon": 7755,
      "ĠTahoe": 7756,
      "ĠTazewell": 7757,
      "Ġisolated": 7758,
      "Ġdu": 7759,
      "Ġdus": 7760,
      "Ġdropped": 7761,
      "ĠPri": 7762,
      "ĠPear": 7763,
      "ĠPach": 7764,
      "ĠPaul": 7765,
      "ĠPisc": 7766,
      "ĠPolk": 7767,
      "ilut": 7768,
      "acitic": 7769,
      "ĠFm": 7770,
      "ĠFo": 7771,
      "ĠFol": 7772,
      "ĠFord": 7773,
      "ĠFra": 7774,
      "ĠFree": 7775,
      "ĠFox": 7776,
      "ĠFlower": 7777,
      "ĠRem": 7778,
      "ĠRim": 7779,
      "ĠRek": 7780,
      "ĠRound": 7781,
      "ĠReno": 7782,
      "amet": 7783,
      "amore": 7784,
      "amenn": 7785,
      "ammon": 7786,
      "grad": 7787,
      "ingers": 7788,
      "versed": 7789,
      "vertebrates": 7790,
      "ety": 7791,
      "etian": 7792,
      "ĠLion": 7793,
      "ĠLec": 7794,
      "ĠLab": 7795,
      "ĠLous": 7796,
      "ĠLind": 7797,
      "ĠLone": 7798,
      "ĠLava": 7799,
      "ĠLissie": 7800,
      "ĠGut": 7801,
      "ĠGali": 7802,
      "ĠGaff": 7803,
      "ĠGirty": 7804,
      "idio": 7805,
      "urt": 7806,
      "artra": 7807,
      "Ġconce": 7808,
      "Ġcondition": 7809,
      "adewater": 7810,
      "ĠOb": 7811,
      "ĠOz": 7812,
      "ĠOff": 7813,
      "iggs": 7814,
      "deroga": 7815,
      "ococheague": 7816,
      "ability": 7817,
      "ĠUp": 7818,
      "ĠUte": 7819,
      "ĠUsed": 7820,
      "ĠHI": 7821,
      "ĠHann": 7822,
      "ĠDen": 7823,
      "Ġ210": 7824,
      "ĠThom": 7825,
      "ĠThun": 7826,
      "ĠEric": 7827,
      "ĠEra": 7828,
      "ĠEpler": 7829,
      "ĠEurop": 7830,
      "otink": 7831,
      "Ġreinstated": 7832,
      "Ġonline": 7833,
      "apolis": 7834,
      "Ġbasic": 7835,
      "ternating": 7836,
      "Ġheretofore": 7837,
      "ows": 7838,
      "owee": 7839,
      "poses": 7840,
      "utista": 7841,
      "Ġquite": 7842,
      "Ġbefore": 7843,
      "iman": 7844,
      "umble": 7845,
      "ppers": 7846,
      "Ġ1917": 7847,
      "Ġorgan": 7848,
      "rier": 7849,
      "Ġview": 7850,
      "usett": 7851,
      "ivetian": 7852,
      "earch": 7853,
      "ĠKiawa": 7854,
      "ĠView": 7855,
      "ĠVinton": 7856,
      "irc": 7857,
      "iricahua": 7858,
      "ersey": 7859,
      "erstown": 7860,
      "ichapa": 7861,
      "Ġchocol": 7862,
      "took": 7863,
      "isher": 7864,
      "ĠConococheague": 7865,
      "ellico": 7866,
      "1912": 7867,
      "ĠAlsen": 7868,
      "ĠAlbright": 7869,
      "ĠJer": 7870,
      "ĠJarbidge": 7871,
      "ĠJersey": 7872,
      "ĠChug": 7873,
      "ĠChiricahua": 7874,
      "ermott": 7875,
      "Ġcopy": 7876,
      "Ġseg": 7877,
      "sex": 7878,
      "Ġcompris": 7879,
      "Ġproble": 7880,
      "assas": 7881,
      "aville": 7882,
      "avada": 7883,
      "evens": 7884,
      "ĠShin": 7885,
      "ĠSheep": 7886,
      "ĠShoal": 7887,
      "ĠOverall": 7888,
      "ogany": 7889,
      "Ġthinning": 7890,
      "ertown": 7891,
      "ĠArbuckle": 7892,
      "Ġnearshore": 7893,
      "athead": 7894,
      "ĠBexar": 7895,
      "oven": 7896,
      "achusett": 7897,
      "ĠOronto": 7898,
      "sons": 7899,
      "ĠMaestrichtian": 7900,
      "Ġredescribed": 7901,
      "mons": 7902,
      "Ġ107": 7903,
      "Ġ157": 7904,
      "ĠBasey": 7905,
      "ĠBasher": 7906,
      "Ġanorth": 7907,
      "ricane": 7908,
      "ĠSandstones": 7909,
      "Ġoutside": 7910,
      "Ġoutwash": 7911,
      "Ġsubunit": 7912,
      "Ġsubunits": 7913,
      "ĠReyn": 7914,
      "ĠReplaces": 7915,
      "ĠMissourian": 7916,
      "Ġextension": 7917,
      "ĠBlacksburg": 7918,
      "cript": 7919,
      "Ġplank": 7920,
      "ĠQuichapa": 7921,
      "Ġprec": 7922,
      "Ġpreced": 7923,
      "Ġcalcilut": 7924,
      "ĠPeoria": 7925,
      "Ġgranites": 7926,
      "ĠAmalia": 7927,
      "ĠAmphitheatre": 7928,
      "ĠMiami": 7929,
      "Ġlithoidal": 7930,
      "Ġ122": 7931,
      "Ġ124": 7932,
      "Ġ97": 7933,
      "Ġ99": 7934,
      "coal": 7935,
      "plic": 7936,
      "ĠBron": 7937,
      "ĠYuma": 7938,
      "ediments": 7939,
      "oursville": 7940,
      "Ġtrondhjem": 7941,
      "Ġgeological": 7942,
      "Ġ111": 7943,
      "Ġ112": 7944,
      "Ġ113": 7945,
      "Ġ117": 7946,
      "Ark": 7947,
      "Arroyo": 7948,
      "attan": 7949,
      "Ġrestrict": 7950,
      "ĠBarstow": 7951,
      "Ġgneissic": 7952,
      "ĠMargarita": 7953,
      "ĠEls": 7954,
      "ĠElls": 7955,
      "ikeville": 7956,
      "ligoclase": 7957,
      "Ġ138": 7958,
      "Ġmudstones": 7959,
      "fordian": 7960,
      "ĠMcL": 7961,
      "urveyed": 7962,
      "Ġnorthwestward": 7963,
      "ĠBlancan": 7964,
      "ĠTradewater": 7965,
      "Also": 7966,
      "ĠCarlile": 7967,
      "ĠCarroll": 7968,
      "1968": 7969,
      "ĠBelted": 7970,
      "Ġ179": 7971,
      "ĠAsbury": 7972,
      "ĠFrench": 7973,
      "ĠFrasnian": 7974,
      "Ġbrick": 7975,
      "Ġscarp": 7976,
      "ĠWhitewater": 7977,
      "ĠCrag": 7978,
      "identified": 7979,
      "ances": 7980,
      "ĠGlenns": 7981,
      "Ġsilica": 7982,
      "ĠZen": 7983,
      "ĠZuni": 7984,
      "ĠZartman": 7985,
      "Ġ240": 7986,
      "ĠDept": 7987,
      "Ġnonwelded": 7988,
      "ĠSnelling": 7989,
      "Ġcrater": 7990,
      "1976": 7991,
      "1978": 7992,
      "Ġrepresentative": 7993,
      "ĠBasalts": 7994,
      "1951": 7995,
      "ĠApex": 7996,
      "ĠApalach": 7997,
      "ĠBautista": 7998,
      "Ġprincip": 7999
    },
    "merges": [
      [
        "o",
        "n"
      ],
      [
        "a",
        "n"
      ],
      [
        "e",
        "r"
      ],
      [
        "i",
        "n"
      ],
      [
        "t",
        "h"
      ],
      [
        "e",
        "s"
      ],
      [
        "Ġ",
        "o"
      ],
      [
        "e",
        "d"
      ],
      [
        "a",
        "t"
      ],
      [
        "o",
        "r"
      ],
      [
        "a",
        "r"
      ],
      [
        "Ġ",
        "s"
      ],
      [
        "an",
        "d"
      ],
      [
        "a",
        "l"
      ],
      [
        "Ġo",
        "f"
      ],
      [
        "i",
        "s"
      ],
      [
        "Ġ",
        "f"
      ],
      [
        "e",
        "n"
      ],
      [
        "a",
        "s"
      ],
      [
        "Ġ",
        "th"
      ],
      [
        "o",
        "u"
      ],
      [
        "Ġ",
        "and"
      ],
      [
        "Ġ",
        "C"
      ],
      [
        "Ġ",
        "b"
      ],
      [
        "i",
        "c"
      ],
      [
        "Ġ",
        "in"
      ],
      [
        "i",
        "t"
      ],
      [
        "i",
        "on"
      ],
      [
        "Ġ",
        "c"
      ],
      [
        "Ġ",
        "m"
      ],
      [
        "Ġ",
        "t"
      ],
      [
        "Ġ",
        "M"
      ],
      [
        "r",
        "e"
      ],
      [
        "l",
        "i"
      ],
      [
        "or",
        "m"
      ],
      [
        "Ġ",
        "A"
      ],
      [
        "Ġ",
        "B"
      ],
      [
        "Ġth",
        "e"
      ],
      [
        "l",
        "y"
      ],
      [
        "r",
        "o"
      ],
      [
        "t",
        "on"
      ],
      [
        "at",
        "ion"
      ],
      [
        "Ġ",
        "p"
      ],
      [
        "l",
        "o"
      ],
      [
        "Ġ",
        "("
      ],
      [
        "l",
        "e"
      ],
      [
        "Ġ",
        "S"
      ],
      [
        "Ġ",
        "a"
      ],
      [
        "Ġt",
        "o"
      ],
      [
        "Ġ",
        "w"
      ],
      [
        "Ġ",
        "T"
      ],
      [
        "Ġ",
        "is"
      ],
      [
        "orm",
        "ation"
      ],
      [
        "g",
        "e"
      ],
      [
        "Ġ",
        "n"
      ],
      [
        "Ġ",
        "1"
      ],
      [
        "Ġ",
        "d"
      ],
      [
        "ton",
        "e"
      ],
      [
        "o",
        "s"
      ],
      [
        "Ġ",
        "u"
      ],
      [
        "Ġ",
        "P"
      ],
      [
        "i",
        "l"
      ],
      [
        "a",
        "c"
      ],
      [
        "Ġ",
        "F"
      ],
      [
        "Ġ",
        "R"
      ],
      [
        "a",
        "m"
      ],
      [
        "g",
        "r"
      ],
      [
        "in",
        "g"
      ],
      [
        "v",
        "er"
      ],
      [
        "e",
        "t"
      ],
      [
        "e",
        "m"
      ],
      [
        "en",
        "t"
      ],
      [
        "Ġ",
        "L"
      ],
      [
        "t",
        "er"
      ],
      [
        "Ġ",
        "G"
      ],
      [
        "a",
        "in"
      ],
      [
        "i",
        "d"
      ],
      [
        "e",
        "l"
      ],
      [
        "it",
        "e"
      ],
      [
        "b",
        "er"
      ],
      [
        "a",
        "y"
      ],
      [
        "Ġ",
        "e"
      ],
      [
        "i",
        "an"
      ],
      [
        "Ġ",
        "N"
      ],
      [
        "ou",
        "n"
      ],
      [
        "u",
        "r"
      ],
      [
        "Ġu",
        "n"
      ],
      [
        "o",
        "l"
      ],
      [
        "p",
        "p"
      ],
      [
        "Ġ",
        "li"
      ],
      [
        "e",
        "c"
      ],
      [
        "em",
        "ber"
      ],
      [
        "ar",
        "t"
      ],
      [
        "Ġc",
        "on"
      ],
      [
        "at",
        "e"
      ],
      [
        "a",
        "d"
      ],
      [
        "o",
        "m"
      ],
      [
        "Ġ",
        "ar"
      ],
      [
        "Ġf",
        "ormation"
      ],
      [
        "Ġ",
        "I"
      ],
      [
        "ic",
        "k"
      ],
      [
        "ĠF",
        "ormation"
      ],
      [
        "Ġ",
        "O"
      ],
      [
        ".",
        ","
      ],
      [
        "m",
        "es"
      ],
      [
        "li",
        "es"
      ],
      [
        "Ġs",
        "h"
      ],
      [
        "q",
        "u"
      ],
      [
        "i",
        "g"
      ],
      [
        "Ġ",
        "W"
      ],
      [
        "Ġ",
        "as"
      ],
      [
        "d",
        "er"
      ],
      [
        "al",
        "e"
      ],
      [
        "Ġ",
        "gr"
      ],
      [
        "oun",
        "t"
      ],
      [
        "mes",
        "tone"
      ],
      [
        "o",
        "c"
      ],
      [
        "s",
        "tone"
      ],
      [
        "is",
        "t"
      ],
      [
        "Ġf",
        "e"
      ],
      [
        ")",
        "."
      ],
      [
        "a",
        "b"
      ],
      [
        "ou",
        "s"
      ],
      [
        "Ġ",
        "U"
      ],
      [
        "Ġar",
        "e"
      ],
      [
        "Ġ",
        "H"
      ],
      [
        "Ġ",
        "D"
      ],
      [
        "Ġs",
        "and"
      ],
      [
        "Ġ",
        "2"
      ],
      [
        "i",
        "th"
      ],
      [
        "v",
        "e"
      ],
      [
        "ĠT",
        "h"
      ],
      [
        "l",
        "u"
      ],
      [
        "Ġ",
        "E"
      ],
      [
        "ou",
        "th"
      ],
      [
        "Ġ",
        "["
      ],
      [
        "Ġfe",
        "et"
      ],
      [
        "es",
        "t"
      ],
      [
        "lo",
        "w"
      ],
      [
        "ro",
        "m"
      ],
      [
        "or",
        "th"
      ],
      [
        "o",
        "t"
      ],
      [
        "Ġ",
        "re"
      ],
      [
        "Ġ",
        "on"
      ],
      [
        "a",
        "p"
      ],
      [
        "Ġli",
        "mestone"
      ],
      [
        "Ġs",
        "ec"
      ],
      [
        "Ġ",
        "r"
      ],
      [
        "Ġb",
        "as"
      ],
      [
        "Ġf",
        "rom"
      ],
      [
        "ter",
        "n"
      ],
      [
        "Ġ",
        "l"
      ],
      [
        "Ġ",
        "h"
      ],
      [
        "Ġs",
        "outh"
      ],
      [
        "Ġw",
        "ith"
      ],
      [
        "o",
        "w"
      ],
      [
        "ĠC",
        "o"
      ],
      [
        "Ġm",
        "ember"
      ],
      [
        "0",
        "0"
      ],
      [
        "Ġb",
        "y"
      ],
      [
        "ou",
        "p"
      ],
      [
        "Ġn",
        "orth"
      ],
      [
        "c",
        "h"
      ],
      [
        "p",
        "os"
      ],
      [
        "es",
        "s"
      ],
      [
        "u",
        "t"
      ],
      [
        "e",
        "w"
      ],
      [
        "d",
        "ed"
      ],
      [
        "Ġ",
        "qu"
      ],
      [
        "Ġ",
        "3"
      ],
      [
        "as",
        "t"
      ],
      [
        "t",
        "ion"
      ],
      [
        "Ġth",
        "ick"
      ],
      [
        "ĠA",
        "ge"
      ],
      [
        "Ġsh",
        "ale"
      ],
      [
        "ĠC",
        "re"
      ],
      [
        "Ġp",
        "art"
      ],
      [
        "ĠM",
        "ount"
      ],
      [
        "y",
        "p"
      ],
      [
        "Ġb",
        "e"
      ],
      [
        "i",
        "m"
      ],
      [
        "Ġa",
        "b"
      ],
      [
        "t",
        "r"
      ],
      [
        "u",
        "l"
      ],
      [
        "Ġw",
        "h"
      ],
      [
        "il",
        "l"
      ],
      [
        "in",
        "e"
      ],
      [
        "Ġb",
        "ed"
      ],
      [
        "ĠG",
        "r"
      ],
      [
        "Ġo",
        "ver"
      ],
      [
        "Ġ",
        "at"
      ],
      [
        "en",
        "e"
      ],
      [
        "f",
        "orm"
      ],
      [
        "al",
        "l"
      ],
      [
        "ĠMount",
        "ain"
      ],
      [
        "Ġsand",
        "stone"
      ],
      [
        "u",
        "m"
      ],
      [
        "s",
        "i"
      ],
      [
        "at",
        "ed"
      ],
      [
        "pp",
        "er"
      ],
      [
        "Ġ1",
        "9"
      ],
      [
        "lo",
        "m"
      ],
      [
        "c",
        "k"
      ],
      [
        "Ġe",
        "x"
      ],
      [
        "e",
        "ous"
      ],
      [
        "a",
        "k"
      ],
      [
        "Ġo",
        "r"
      ],
      [
        "r",
        "i"
      ],
      [
        "f",
        "f"
      ],
      [
        "e",
        "k"
      ],
      [
        "l",
        "ac"
      ],
      [
        "der",
        "lies"
      ],
      [
        "n",
        "ess"
      ],
      [
        "c",
        "e"
      ],
      [
        "Ġ",
        "g"
      ],
      [
        "Ġd",
        "e"
      ],
      [
        "i",
        "es"
      ],
      [
        "Ġ",
        "v"
      ],
      [
        "al",
        "ly"
      ],
      [
        "u",
        "s"
      ],
      [
        "am",
        "ed"
      ],
      [
        "oc",
        "ene"
      ],
      [
        "yp",
        "e"
      ],
      [
        "er",
        "e"
      ],
      [
        "i",
        "v"
      ],
      [
        "e",
        "ar"
      ],
      [
        "an",
        "g"
      ],
      [
        "Ġ",
        "lo"
      ],
      [
        "ab",
        "ly"
      ],
      [
        "ĠI",
        "n"
      ],
      [
        "c",
        "lu"
      ],
      [
        "Ġ",
        "K"
      ],
      [
        "u",
        "n"
      ],
      [
        "Ġsec",
        "tion"
      ],
      [
        "Ġ",
        "V"
      ],
      [
        "it",
        "y"
      ],
      [
        "ĠM",
        "ember"
      ],
      [
        "c",
        "on"
      ],
      [
        "Ġa",
        "ge"
      ],
      [
        "o",
        "d"
      ],
      [
        ")",
        ","
      ],
      [
        "ĠU",
        "n"
      ],
      [
        "i",
        "r"
      ],
      [
        "Ġ",
        "al"
      ],
      [
        "er",
        "s"
      ],
      [
        "ic",
        "h"
      ],
      [
        "ĠCre",
        "ek"
      ],
      [
        "Ġlo",
        "c"
      ],
      [
        "b",
        "ed"
      ],
      [
        "Ġ",
        "ro"
      ],
      [
        "on",
        "g"
      ],
      [
        "er",
        "n"
      ],
      [
        "en",
        "d"
      ],
      [
        "Ġ",
        "4"
      ],
      [
        "e",
        "e"
      ],
      [
        "an",
        "t"
      ],
      [
        "Ġc",
        "h"
      ],
      [
        "ĠR",
        "i"
      ],
      [
        ".",
        "]"
      ],
      [
        "or",
        "t"
      ],
      [
        "c",
        "c"
      ],
      [
        "t",
        "o"
      ],
      [
        "Ġbed",
        "s"
      ],
      [
        "ou",
        "t"
      ],
      [
        "Ġun",
        "it"
      ],
      [
        "is",
        "s"
      ],
      [
        "Ġro",
        "ck"
      ],
      [
        "Ġcon",
        "s"
      ],
      [
        "is",
        "h"
      ],
      [
        "d",
        "le"
      ],
      [
        "Ġin",
        "clu"
      ],
      [
        "g",
        "h"
      ],
      [
        "ĠC",
        "on"
      ],
      [
        "Ġare",
        "a"
      ],
      [
        "Ġ",
        "it"
      ],
      [
        "el",
        "l"
      ],
      [
        "ĠGr",
        "oup"
      ],
      [
        "ar",
        "ly"
      ],
      [
        "ar",
        "k"
      ],
      [
        "ist",
        "s"
      ],
      [
        "es",
        "tern"
      ],
      [
        "as",
        "tern"
      ],
      [
        "b",
        "r"
      ],
      [
        "an",
        "y"
      ],
      [
        "ĠRi",
        "ver"
      ],
      [
        "art",
        "z"
      ],
      [
        "id",
        "dle"
      ],
      [
        "1",
        "9"
      ],
      [
        "ar",
        "d"
      ],
      [
        "i",
        "a"
      ],
      [
        "ĠA",
        "l"
      ],
      [
        "ac",
        "eous"
      ],
      [
        "Ġcon",
        "t"
      ],
      [
        "Ġu",
        "pper"
      ],
      [
        "ĠTh",
        "e"
      ],
      [
        "Ġqu",
        "ad"
      ],
      [
        "Ġth",
        "at"
      ],
      [
        "Ġ",
        "J"
      ],
      [
        "Ġ",
        "5"
      ],
      [
        "ĠC",
        "h"
      ],
      [
        "a",
        "g"
      ],
      [
        "er",
        "m"
      ],
      [
        "form",
        "ably"
      ],
      [
        "Ġover",
        "lies"
      ],
      [
        "ent",
        "r"
      ],
      [
        "Ġun",
        "derlies"
      ],
      [
        "ig",
        "n"
      ],
      [
        "Ġc",
        "o"
      ],
      [
        "lom",
        "er"
      ],
      [
        "Ġgr",
        "oup"
      ],
      [
        "at",
        "i"
      ],
      [
        "ĠTh",
        "ick"
      ],
      [
        "am",
        "e"
      ],
      [
        "Ġ",
        "low"
      ],
      [
        "Ġf",
        "or"
      ],
      [
        "Ġex",
        "pos"
      ],
      [
        "ĠA",
        "n"
      ],
      [
        "n",
        "ew"
      ],
      [
        "Ġs",
        "e"
      ],
      [
        "Ġin",
        "ter"
      ],
      [
        "o",
        "lo"
      ],
      [
        "p",
        "r"
      ],
      [
        "ĠThick",
        "ness"
      ],
      [
        "Ġab",
        "out"
      ],
      [
        "ĠI",
        "s"
      ],
      [
        "s",
        "e"
      ],
      [
        "entr",
        "al"
      ],
      [
        "d",
        "es"
      ],
      [
        "Ġs",
        "tr"
      ],
      [
        "Ġn",
        "ot"
      ],
      [
        "ow",
        "n"
      ],
      [
        "Ġrock",
        "s"
      ],
      [
        "Ġc",
        "om"
      ],
      [
        "u",
        "b"
      ],
      [
        "le",
        "y"
      ],
      [
        "Ġgr",
        "ay"
      ],
      [
        "p",
        "h"
      ],
      [
        "lac",
        "k"
      ],
      [
        "Ġ",
        "7"
      ],
      [
        "Ġloc",
        "al"
      ],
      [
        "Ġqu",
        "artz"
      ],
      [
        "f",
        "er"
      ],
      [
        "Ġc",
        "l"
      ],
      [
        "Ġwh",
        "ich"
      ],
      [
        "ĠC",
        "ount"
      ],
      [
        "olo",
        "g"
      ],
      [
        "w",
        "n"
      ],
      [
        "ap",
        "h"
      ],
      [
        "or",
        "e"
      ],
      [
        "Ġin",
        "to"
      ],
      [
        "Ġp",
        "ro"
      ],
      [
        "u",
        "ff"
      ],
      [
        "os",
        "t"
      ],
      [
        "ĠL",
        "ate"
      ],
      [
        "s",
        "t"
      ],
      [
        "ar",
        "y"
      ],
      [
        "bed",
        "ded"
      ],
      [
        "gr",
        "aph"
      ],
      [
        "en",
        "ce"
      ],
      [
        "Ġs",
        "t"
      ],
      [
        "a",
        "h"
      ],
      [
        "lomer",
        "ate"
      ],
      [
        "Ġs",
        "il"
      ],
      [
        "as",
        "s"
      ],
      [
        "Ġlow",
        "er"
      ],
      [
        "a",
        "v"
      ],
      [
        "e",
        "v"
      ],
      [
        "p",
        "ort"
      ],
      [
        "r",
        "y"
      ],
      [
        "gr",
        "ay"
      ],
      [
        "r",
        "ang"
      ],
      [
        "os",
        "s"
      ],
      [
        "Ġquad",
        "rang"
      ],
      [
        "a",
        "pp"
      ],
      [
        "Ġcon",
        "g"
      ],
      [
        "graph",
        "ic"
      ],
      [
        "ĠS",
        "h"
      ],
      [
        "ain",
        "ed"
      ],
      [
        "any",
        "on"
      ],
      [
        "Ġt",
        "ype"
      ],
      [
        "ĠMountain",
        "s"
      ],
      [
        "n",
        "e"
      ],
      [
        "o",
        "p"
      ],
      [
        "ĠO",
        "ver"
      ],
      [
        "il",
        "le"
      ],
      [
        "con",
        "formably"
      ],
      [
        "Ġ",
        "6"
      ],
      [
        "o",
        "g"
      ],
      [
        "Ġth",
        "in"
      ],
      [
        "c",
        "an"
      ],
      [
        "r",
        "es"
      ],
      [
        "y",
        "l"
      ],
      [
        "Ġlocal",
        "ity"
      ],
      [
        "u",
        "d"
      ],
      [
        "er",
        "t"
      ],
      [
        "Ġc",
        "or"
      ],
      [
        "o",
        "lom"
      ],
      [
        "t",
        "ed"
      ],
      [
        "t",
        "e"
      ],
      [
        "ĠC",
        "anyon"
      ],
      [
        "i",
        "z"
      ],
      [
        "ĠA",
        "r"
      ],
      [
        "Ġn",
        "ear"
      ],
      [
        "ĠCount",
        "y"
      ],
      [
        "a",
        "th"
      ],
      [
        "Ġf",
        "t"
      ],
      [
        "Ġbas",
        "al"
      ],
      [
        "en",
        "n"
      ],
      [
        "ab",
        "le"
      ],
      [
        "oss",
        "il"
      ],
      [
        "Ġquadrang",
        "le"
      ],
      [
        "it",
        "ic"
      ],
      [
        "ĠB",
        "e"
      ],
      [
        "o",
        "v"
      ],
      [
        "Ġ",
        "\""
      ],
      [
        "ak",
        "e"
      ],
      [
        "an",
        "ge"
      ],
      [
        "re",
        "l"
      ],
      [
        "ly",
        "ing"
      ],
      [
        "s",
        "s"
      ],
      [
        "Ġm",
        "ap"
      ],
      [
        "Ġb",
        "ut"
      ],
      [
        "re",
        "en"
      ],
      [
        "ac",
        "h"
      ],
      [
        "Ġ",
        "y"
      ],
      [
        "ĠOver",
        "lies"
      ],
      [
        "Ġsouth",
        "w"
      ],
      [
        "ro",
        "wn"
      ],
      [
        "Ġe",
        "ast"
      ],
      [
        "t",
        "aceous"
      ],
      [
        "Ġth",
        "an"
      ],
      [
        "ig",
        "h"
      ],
      [
        "w",
        "e"
      ],
      [
        "Ġw",
        "est"
      ],
      [
        "olog",
        "ic"
      ],
      [
        "Ġsil",
        "t"
      ],
      [
        "v",
        "an"
      ],
      [
        "ol",
        "can"
      ],
      [
        "Ġd",
        "es"
      ],
      [
        "ĠCre",
        "taceous"
      ],
      [
        "v",
        "ille"
      ],
      [
        "G",
        "S"
      ],
      [
        "cc",
        "ur"
      ],
      [
        "ĠL",
        "i"
      ],
      [
        "Ġ",
        "8"
      ],
      [
        "ĠT",
        "ype"
      ],
      [
        "am",
        "br"
      ],
      [
        "olcan",
        "ic"
      ],
      [
        "Ġa",
        "pp"
      ],
      [
        "ĠCon",
        "s"
      ],
      [
        "pos",
        "it"
      ],
      [
        "ĠS",
        "t"
      ],
      [
        "ambr",
        "ian"
      ],
      [
        "ĠO",
        "r"
      ],
      [
        "olom",
        "ite"
      ],
      [
        "om",
        "e"
      ],
      [
        "e",
        "astern"
      ],
      [
        "oc",
        "k"
      ],
      [
        "s",
        "on"
      ],
      [
        "Ġbas",
        "e"
      ],
      [
        "si",
        "ve"
      ],
      [
        "Ġcong",
        "lomerate"
      ],
      [
        "ĠM",
        "a"
      ],
      [
        "s",
        "h"
      ],
      [
        "at",
        "er"
      ],
      [
        "ati",
        "graphic"
      ],
      [
        "Ġm",
        "in"
      ],
      [
        "Ġr",
        "ed"
      ],
      [
        "Ġbas",
        "in"
      ],
      [
        "ĠUn",
        "derlies"
      ],
      [
        "Ġcl",
        "ay"
      ],
      [
        "al",
        "ley"
      ],
      [
        "end",
        "ing"
      ],
      [
        "enn",
        "s"
      ],
      [
        "ĠE",
        "arly"
      ],
      [
        "m",
        "on"
      ],
      [
        "ĠG",
        "e"
      ],
      [
        "gh",
        "t"
      ],
      [
        "yl",
        "van"
      ],
      [
        "l",
        "and"
      ],
      [
        "S",
        "GS"
      ],
      [
        "Ġth",
        "is"
      ],
      [
        "enns",
        "ylvan"
      ],
      [
        "Ġthick",
        "ness"
      ],
      [
        "Ġinclu",
        "des"
      ],
      [
        "Ġ1",
        "0"
      ],
      [
        "Ġ1",
        "5"
      ],
      [
        "or",
        "d"
      ],
      [
        "gr",
        "ained"
      ],
      [
        "ĠB",
        "as"
      ],
      [
        "id",
        "e"
      ],
      [
        "ain",
        "s"
      ],
      [
        "Ġm",
        "ar"
      ],
      [
        "p",
        "ar"
      ],
      [
        "Ġ",
        "an"
      ],
      [
        "oun",
        "d"
      ],
      [
        "app",
        "ed"
      ],
      [
        "u",
        "re"
      ],
      [
        "ĠCons",
        "ists"
      ],
      [
        "a",
        "ge"
      ],
      [
        "Ġc",
        "entral"
      ],
      [
        "a",
        "w"
      ],
      [
        "Ġf",
        "ine"
      ],
      [
        "Ġnorth",
        "w"
      ],
      [
        "ĠLi",
        "mestone"
      ],
      [
        "ton",
        "es"
      ],
      [
        "i",
        "um"
      ],
      [
        "pr",
        "ing"
      ],
      [
        "el",
        "d"
      ],
      [
        "on",
        "t"
      ],
      [
        "r",
        "ic"
      ],
      [
        "ĠP",
        "ennsylvan"
      ],
      [
        "i",
        "f"
      ],
      [
        "Ġm",
        "i"
      ],
      [
        "ossil",
        "s"
      ],
      [
        "ac",
        "t"
      ],
      [
        "s",
        "o"
      ],
      [
        "ro",
        "p"
      ],
      [
        "e",
        "x"
      ],
      [
        "l",
        "ain"
      ],
      [
        "w",
        "o"
      ],
      [
        "ĠM",
        "iddle"
      ],
      [
        "z",
        "on"
      ],
      [
        "Ġo",
        "th"
      ],
      [
        "at",
        "es"
      ],
      [
        "ĠS",
        "pring"
      ],
      [
        "Ġto",
        "p"
      ],
      [
        "ĠH",
        "ill"
      ],
      [
        "iz",
        "ed"
      ],
      [
        "o",
        "ve"
      ],
      [
        "er",
        "ed"
      ],
      [
        "ĠS",
        "and"
      ],
      [
        "Ġsouth",
        "ern"
      ],
      [
        "e",
        "ast"
      ],
      [
        "r",
        "ed"
      ],
      [
        "Ġn",
        "ame"
      ],
      [
        "ur",
        "es"
      ],
      [
        "Ġsh",
        "al"
      ],
      [
        "Ġas",
        "s"
      ],
      [
        "ul",
        "l"
      ],
      [
        "Ġo",
        "ut"
      ],
      [
        "Ġd",
        "i"
      ],
      [
        "Ġun",
        "der"
      ],
      [
        "Ġal",
        "ong"
      ],
      [
        "ign",
        "ed"
      ],
      [
        "Ġs",
        "ub"
      ],
      [
        "al",
        "c"
      ],
      [
        "an",
        "k"
      ],
      [
        "Ġd",
        "ist"
      ],
      [
        "Ġe",
        "astern"
      ],
      [
        "ĠR",
        "e"
      ],
      [
        "Ġ",
        "ge"
      ],
      [
        "Ġu",
        "s"
      ],
      [
        "l",
        "es"
      ],
      [
        "an",
        "s"
      ],
      [
        "pos",
        "ed"
      ],
      [
        "Ġt",
        "uff"
      ],
      [
        "Ġb",
        "et"
      ],
      [
        "Ġm",
        "iddle"
      ],
      [
        "c",
        "ending"
      ],
      [
        "ĠU",
        "SGS"
      ],
      [
        "Ġnorth",
        "ern"
      ],
      [
        "Ġab",
        "ove"
      ],
      [
        "Ġde",
        "posit"
      ],
      [
        "er",
        "ies"
      ],
      [
        "ĠM",
        "iss"
      ],
      [
        "in",
        "t"
      ],
      [
        "Ġex",
        "t"
      ],
      [
        "we",
        "en"
      ],
      [
        "ro",
        "ss"
      ],
      [
        "Ġwh",
        "ere"
      ],
      [
        "o",
        "k"
      ],
      [
        "ĠV",
        "alley"
      ],
      [
        "d",
        "e"
      ],
      [
        "ĠB",
        "lack"
      ],
      [
        "Ġv",
        "olcanic"
      ],
      [
        "Ġcor",
        "rel"
      ],
      [
        "i",
        "e"
      ],
      [
        "Ġbet",
        "ween"
      ],
      [
        "id",
        "ge"
      ],
      [
        "ĠPennsylvan",
        "ian"
      ],
      [
        "ĠN",
        "amed"
      ],
      [
        "iv",
        "id"
      ],
      [
        "Ġn",
        "amed"
      ],
      [
        "Ġexpos",
        "ed"
      ],
      [
        "Ġw",
        "estern"
      ],
      [
        "a",
        "u"
      ],
      [
        "Ġd",
        "olomite"
      ],
      [
        "c",
        "t"
      ],
      [
        "d",
        "ov"
      ],
      [
        "ar",
        "b"
      ],
      [
        "ic",
        "ian"
      ],
      [
        "dov",
        "ician"
      ],
      [
        "or",
        "n"
      ],
      [
        "on",
        "ian"
      ],
      [
        "c",
        "ri"
      ],
      [
        "it",
        "t"
      ],
      [
        "os",
        "si"
      ],
      [
        "o",
        "th"
      ],
      [
        "Ġ",
        "Q"
      ],
      [
        "Ġf",
        "orm"
      ],
      [
        "ĠB",
        "ig"
      ],
      [
        "+",
        "/"
      ],
      [
        "ed",
        "ium"
      ],
      [
        "Ġf",
        "a"
      ],
      [
        "+/",
        "-"
      ],
      [
        "b",
        "ur"
      ],
      [
        "f",
        "ig"
      ],
      [
        "Ġn",
        "o"
      ],
      [
        "00",
        "0"
      ],
      [
        "fer",
        "ous"
      ],
      [
        "ĠOr",
        "dovician"
      ],
      [
        "ou",
        "gh"
      ],
      [
        "Ġh",
        "as"
      ],
      [
        "res",
        "ent"
      ],
      [
        "Ġd",
        "ark"
      ],
      [
        "Ġl",
        "ate"
      ],
      [
        "Ġcons",
        "ists"
      ],
      [
        "Ġo",
        "ccur"
      ],
      [
        "Ġexpos",
        "ures"
      ],
      [
        "Ġstr",
        "atigraphic"
      ],
      [
        "Ġm",
        "edium"
      ],
      [
        "Ġp",
        "l"
      ],
      [
        "ivid",
        "ed"
      ],
      [
        "g",
        "er"
      ],
      [
        "ĠB",
        "ull"
      ],
[...]
